<unk>	0
<s>	0
</s>	0
�	-1.51979
��	-1.97144
���	-2.38931
����	-2.91644
�����	-3.47847
һ	-3.93807
������	-4.02657
▁�	-4.2223
�������	-4.65407
▁��	-4.753
▁���	-4.93783
֮	-5.02271
ֻ	-5.20063
Ҳ	-5.28308
ȥ	-5.29415
��������	-5.30909
▁	-5.33525
x	-5.44708
ͷ	-5.54715
ʦ	-5.56268
ɦ	-5.56531
ô	-5.5719
Ҫ	-5.60141
Ȼ	-5.61282
С	-5.61294
֪	-5.70889
▁����	-5.77235
ȴ	-5.79994
l	-5.88797
ŷ	-5.88897
ǰ	-5.96949
���������	-5.98605
У	-5.98615
Ц	-6.0155
֣	-6.08771
ס	-6.08992
▁�����	-6.11829
е	-6.22833
Ϊ	-6.23202
ʮ	-6.23244
ӣ	-6.26174
ã	-6.28407
ģ	-6.31236
߹	-6.32811
Լ	-6.33443
ϣ	-6.33677
ľ	-6.43123
ҩ	-6.43931
˫	-6.44325
û	-6.46759
ţ	-6.47792
أ	-6.4988
ɻ	-6.54629
ֵ	-6.56847
λ	-6.57667
ȫ	-6.58881
ص	-6.60566
Ů	-6.6231
ƣ	-6.62874
ָ	-6.64774
ε	-6.65126
죬	-6.65369
ς	-6.67111
Σ	-6.68122
ֱ	-6.68321
����������	-6.68457
δ	-6.69212
ĵ	-6.69341
ɽ	-6.71642
գ	-6.74009
ҵ	-6.74126
ת	-6.75432
ɱ	-6.77775
ܲ	-6.79031
ǧ	-6.80638
⣬	-6.80763
䣬	-6.85346
ڵ	-6.85414
ߣ	-6.85882
▁������	-6.87477
书	-6.87872
ɣ	-6.8922
ǣ	-6.91695
ң	-6.93153
Ծ	-6.93237
ġ	-6.94375
Dz	-6.94597
ԭ	-6.95508
ɵ	-6.96017
ǵ	-6.9667
ڣ	-6.97275
ǹ	-7.01344
ɫ	-7.01907
ҡ	-7.03756
ͻ	-7.05379
ܣ	-7.06198
㣬	-7.06359
ף	-7.06681
л	-7.0782
ĸ	-7.08048
æ	-7.08904
ʣ	-7.09302
L	-7.09802
Щ	-7.10527
▁һ	-7.10651
磬	-7.11145
▁�������	-7.12316
ȣ	-7.12678
ǿ	-7.13178
Ǹ	-7.13463
ƽ	-7.13678
ض	-7.13789
ԣ	-7.14061
Զ	-7.14202
ۣ	-7.15287
Ǻ	-7.16276
ǡ	-7.16886
վ	-7.17136
Ǵ	-7.18329
μ	-7.19977
Ĺ	-7.20091
ȵ	-7.20093
飬	-7.21653
ӡ	-7.23819
д	-7.24761
Խ	-7.24917
֡	-7.27253
ү	-7.28519
ŭ	-7.292
ȡ	-7.29638
պ	-7.30482
ȭ	-7.31046
ᣬ	-7.31929
ϡ	-7.34458
룺	-7.34885
ӵ	-7.34885
ѧ	-7.35971
־	-7.36563
Ӣ	-7.36584
ѵ	-7.36615
Ե	-7.37232
࣬	-7.37323
Ĵ	-7.38308
õ	-7.38943
ؤ	-7.39941
ֶ	-7.40393
�����������	-7.41106
ǽ	-7.41532
а	-7.4197
ŵ	-7.42497
ѣ	-7.44792
á	-7.44792
͵	-7.45124
ɼ	-7.45834
ڴ	-7.46433
ǻ	-7.46521
ʯ	-7.47597
Ѱ	-7.47769
š	-7.48162
ۼ	-7.48162
ҹ	-7.48616
ֽ	-7.4989
ɹ	-7.50078
ߵ	-7.50122
�˵	-7.50186
Ļ	-7.51003
ú	-7.51203
Ƕ	-7.52158
�£�	-7.52645
Ķ	-7.53599
Ǿ	-7.54217
Ƶ	-7.54325
棬	-7.56054
ʤ	-7.56239
κ	-7.56319
϶	-7.56319
·	-7.57367
м	-7.57597
տ	-7.58196
ж	-7.58467
ڹ	-7.59011
ÿ	-7.59085
ء	-7.59285
DZ	-7.59833
٣	-7.60109
Ҵ	-7.61125
ս	-7.61583
꣬	-7.61778
ĺ	-7.62768
ա	-7.6319
ݣ	-7.6319
ơ	-7.63761
ò	-7.6408
б	-7.64118
Ƭ	-7.65202
Ӱ	-7.65492
壬	-7.65783
Ը	-7.65784
ֲ	-7.66076
к	-7.67255
Ľ	-7.6809
ü	-7.68706
Ⱥ	-7.69175
ڡ	-7.69351
в	-7.69587
Ӳ	-7.70262
Բ	-7.70839
Ҷ	-7.70875
ı	-7.72735
ɲ	-7.73528
Ѫ	-7.74107
ϧ	-7.75764
ͽ	-7.75983
ɡ	-7.76239
ײ	-7.77053
ɳ	-7.77873
ƶ	-7.78203
Ǽ	-7.79063
Ͻ	-7.80544
ִ	-7.80554
ں	-7.81444
Ӧ	-7.82596
ķ	-7.83035
㲻	-7.83289
н	-7.83637
ڶ	-7.84267
Ź	-7.85219
��˵�	-7.85653
й	-7.85918
㡣	-7.86111
Ʒ	-7.86111
Ƿ	-7.86469
·�	-7.86824
˵	-7.8697
ð	-7.87082
·��	-7.87111
Ժ	-7.88642
ܵ	-7.88647
��˵	-7.88663
ö	-7.88675
룬	-7.89015
ϸ	-7.8918
ش	-7.89368
Ѩ	-7.90029
ƺ	-7.90411
Ұ	-7.90762
澭	-7.90874
Һ	-7.91564
▁ֻ	-7.92093
ζ	-7.92386
ޣ	-7.92386
IJ	-7.92616
ij	-7.93082
ԡ	-7.93151
ߡ	-7.93151
ʧ	-7.93403
Թ	-7.93852
Ż	-7.93922
Է	-7.95481
ղ	-7.95875
ּ	-7.95875
Դ	-7.9627
⡣	-7.96667
ɷ	-7.97465
ý	-7.98202
Θ	-7.9827
s	-7.98464
ץ	-7.98597
о	-7.98675
ؼ	-7.99081
Ҹ	-7.99081
Ϸ	-7.99082
�ͨ	-7.99796
▁��������	-8.01873
ҽ	-8.02096
������������	-8.021
Ҿ	-8.02816
ӿ	-8.03198
ֹ	-8.0324
Ʋ	-8.03712
ù	-8.0433
Ų	-8.04456
ѱ	-8.04522
Ӵ	-8.04522
ذ	-8.04522
ʁ	-8.04897
�˼��	-8.06188
ѹ	-8.06696
���˵�	-8.07871
Ѿ	-8.07895
Ϣ	-8.07985
յ	-8.08918
װ	-8.08918
ұ	-8.09821
и	-8.10732
ҿ	-8.10733
չ	-8.11093
𣿡	-8.12115
뵽	-8.1258
Ƽ	-8.13048
�£���	-8.13332
ļ	-8.13771
Ͼ	-8.14356
β	-8.14463
ֺ	-8.14463
ƴ	-8.14939
ؽ	-8.1566
۵	-8.16867
Ƥ	-8.1687
裬	-8.17845
ѽ	-8.18322
Ѳ	-8.18337
ַ	-8.1878
ѩ	-8.19319
ѡ	-8.1983
İ	-8.1983
ͳ	-8.20332
ܱ	-8.20332
˵�	-8.20748
ڻ	-8.21855
ֳ	-8.22883
ƾ	-8.24146
ܡ	-8.24446
Ű	-8.24791
ó	-8.27079
г	-8.27106
ڱ	-8.27406
ϳ	-8.27646
ھ	-8.27646
졣	-8.28736
Ī	-8.28775
Ͳ	-8.29286
ؿ	-8.29612
СӨ	-8.29867
Ͷ	-8.30394
ӹ	-8.30394
벻	-8.30394
ڽ	-8.30952
ط	-8.31512
Ž	-8.31729
ڰ	-8.32079
ӳ	-8.32647
仰	-8.32647
�˵��	-8.32842
ٱ	-8.33219
䡣	-8.33793
Χ	-8.33844
Ӷ	-8.34371
ٲ	-8.34371
ڿ	-8.34953
ۡ	-8.34953
��˵��	-8.35042
һЦ	-8.3522
״	-8.3619
Ѷ	-8.36669
γ	-8.36718
з	-8.36718
ȷ	-8.37254
顣	-8.37313
ʬ	-8.37906
j	-8.37956
ͼ	-8.38
ڷ	-8.38514
w	-8.38986
ź	-8.39597
Ȧ	-8.3973
ο	-8.40343
Գ	-8.40343
˵��	-8.41054
Ҽ	-8.41186
ø	-8.41402
ư	-8.41582
Ӻ	-8.41582
ͬɦ	-8.42036
ɳͨ	-8.43544
ϼ	-8.44105
ز	-8.44105
▁���������	-8.4425
ץס	-8.44387
·���	-8.44677
Ի	-8.45391
�ͨ�	-8.45844
ӻ	-8.46041
���˵	-8.46628
r	-8.46852
�˵�	-8.46859
ż	-8.46919
ڲ	-8.47329
Ѹ	-8.47353
Ϻ	-8.48015
Ƴ	-8.48543
֦	-8.48681
Ρ	-8.48681
ҧ	-8.48681
�ͨ��	-8.48906
▁Ȼ	-8.49408
þ	-8.49696
ɾ	-8.50028
ն	-8.50028
Х	-8.50148
Ա	-8.50708
��£�	-8.50715
ʕ	-8.509
档	-8.51393
Ѵ	-8.51394
ҳ	-8.52633
ڳ	-8.52777
ݵ	-8.53469
ƻ	-8.53477
߰	-8.54171
▁ȥ	-8.5425
▁֮	-8.54665
ƿ	-8.5489
ñ	-8.55605
ٿ	-8.55605
ʡ	-8.56324
▁Ҳ	-8.56865
Ŵ	-8.56988
۽	-8.57049
ӭ	-8.57779
ų	-8.58514
ɢ	-8.58514
߳	-8.58514
漴	-8.58644
ְ	-8.59255
ֿ	-8.59255
ܴ	-8.59255
ӱ	-8.60001
ڼ	-8.60001
يٴ	-8.60002
ر	-8.60726
ƹ	-8.60753
弓	-8.60753
ع	-8.61441
Ӿ	-8.6151
Ϳ	-8.61629
�	-8.62989
ռ	-8.63818
ρ	-8.64599
Ʊ	-8.65387
ž	-8.65387
ϻ	-8.65387
Ȳ	-8.66904
�˼���	-8.67281
п	-8.67787
ᡣ	-8.686
ӽ	-8.686
اٴ	-8.686
▁ͷ	-8.69327
Ӹ	-8.6942
ޱ	-8.6942
ƥ	-8.70246
ܿ	-8.70246
۾	-8.71079
ؾ	-8.71079
�������������	-8.71222
ű	-8.7186
ټ	-8.7192
ʩ	-8.72259
o	-8.72737
ѳ	-8.72767
▁ɦ	-8.74095
����˵	-8.74454
۶	-8.74484
ܺ	-8.74484
�̣�	-8.74551
ι	-8.75354
˵����	-8.75627
▁Ҫ	-8.75944
غ	-8.76231
α	-8.76231
▁֪	-8.77091
ȱ	-8.77116
硣	-8.77116
Ŷ	-8.77982
�1⁄2��	-8.78588
ױ	-8.78909
ѻ	-8.78909
ҷ	-8.78909
Ȱ	-8.80171
Ū	-8.80318
���˵��	-8.80513
�¡�	-8.81471
Ÿ	-8.816
ٽ	-8.81662
ѷ	-8.81662
��£���	-8.82824
�£��	-8.83305
ڸ	-8.8354
ݡ	-8.8354
�˼	-8.84396
ɴ	-8.84492
ԶԶ	-8.85058
��˵����	-8.85309
ܹ	-8.85454
١	-8.86425
֧	-8.86425
ܽ	-8.86425
�˵����	-8.8656
�˳�	-8.86768
ũ	-8.87405
وٴ	-8.87406
ɨ	-8.88822
��¡�	-8.88944
ȼ	-8.89395
�ͨ���	-8.9039
ɸ	-8.90405
ٺ	-8.90405
��	-8.90745
Ⱦ	-8.9129
ޡ	-8.91426
Į	-8.91426
Կ	-8.91426
쳣	-8.91426
ʢ	-8.93498
ظ	-8.93498
ɮ	-8.94486
Ѽ	-8.94551
Ԫ	-8.95133
ػ	-8.95569
˵���	-8.95673
Ǯ	-8.9655
ʹ�	-8.97589
عم	-8.97877
մ	-8.98227
ϥ	-8.98876
▁ô	-8.99494
ƭ	-8.99987
ߴ	-8.99987
س	-8.99987
ܼ	-8.99987
Ͱ	-9.01046
ݶ	-9.0111
צ	-9.01111
ë	-9.01536
▁ʦ	-9.03017
۹	-9.03356
ܸ	-9.03396
ܶ	-9.03396
h	-9.03951
ꡣ	-9.04559
롣	-9.04559
ɶ	-9.05736
Ъ	-9.06291
ٴ	-9.06922
ⷬ	-9.06926
ʫ	-9.06926
ȹ	-9.08131
Ʈ	-9.08803
׳	-9.09273
Ȣ	-9.0935
▁́�	-9.09513
�ͨ����	-9.10165
ɥ	-9.10585
ܳ	-9.10585
�˼����	-9.10671
ߺ	-9.11835
塣	-9.13101
ܾ	-9.14383
Ϯ	-9.14383
ⲻ	-9.14383
�ʹ�	-9.14634
үү	-9.1504
׷�	-9.15408
لإ	-9.15681
Ѻ	-9.15681
ѿ	-9.15682
▁С	-9.168
ȸ	-9.16997
㻹	-9.16997
▁Ц	-9.17119
΢	-9.17594
·����	-9.17644
ܻ	-9.18331
▁����������	-9.18695
ʹ	-9.19145
ۿ	-9.19682
߶	-9.19682
ճ	-9.21052
ȳ	-9.21052
▁ԭ	-9.21362
ɺ	-9.22273
ձ	-9.22441
ۺ	-9.22441
治	-9.22441
ۻ	-9.22441
˼	-9.23416
ע	-9.23849
▁ȴ	-9.23853
ƫ	-9.23907
��˵���	-9.24295
΢΢	-9.24513
�˭	-9.24899
䲻	-9.25278
˲	-9.2531
�׵	-9.25345
η	-9.26727
ջ	-9.26727
常	-9.28198
�˼�	-9.28627
�£����	-9.2913
Ͽ	-9.2969
ӷ	-9.2969
ܰ	-9.2969
�˵������	-9.29845
ʹ���	-9.30054
�˵�������	-9.30811
ͣ�	-9.30843
Ƹ	-9.31205
ν	-9.31205
��΢	-9.31342
̧ͷ	-9.31448
��ˮ�	-9.31564
㼴	-9.32744
߲	-9.32744
���	-9.33374
�3�	-9.33874
ɿ	-9.34306
��˵������	-9.34836
��ʹ�	-9.35344
߸	-9.35544
▁ȫ	-9.35553
▁ǰ	-9.35722
ո	-9.35876
Ť	-9.36953
ʹ��	-9.38066
կ	-9.39125
ȶ	-9.39146
ٳ	-9.39146
����˵�	-9.39529
�˰��	-9.39822
��˳�	-9.40055
㡭	-9.40812
Ӫ	-9.40812
桢	-9.40812
粻	-9.40812
ɹű	-9.40931
˼��	-9.41239
�˺	-9.41592
Ԯ	-9.42507
Υ	-9.42507
Ӽ	-9.42507
ٻ	-9.42507
��������������	-9.43076
�£�����	-9.4328
��£��	-9.43536
��˰��	-9.43738
׷	-9.43933
�ʹ	-9.44153
پ	-9.44232
ۇٴ	-9.44232
ܷ	-9.44232
ħ	-9.45928
Ƚ	-9.45986
㵽	-9.45986
�ʿ	-9.46281
�˸�	-9.46478
�����˵	-9.46599
▁ס	-9.46891
�ͨ������	-9.47119
ì	-9.47772
ĩ	-9.47772
۴	-9.47772
Ṧ	-9.47772
ϯ	-9.47772
ٹ	-9.47772
Ӯ	-9.4959
ĥ	-9.4959
��¡���	-9.50372
���˼	-9.50649
▁�����������	-9.50826
ȫȻ	-9.51185
Ȥ	-9.51442
ξ	-9.51442
�˱��	-9.51619
��˼	-9.52077
▁1⁄2��	-9.52671
㣿	-9.53328
��1⁄2��	-9.53522
�׷	-9.54092
�˲��	-9.541
Ь	-9.54358
��ˮ	-9.54901
���	-9.55117
ݺ	-9.5523
����	-9.55527
▁ʮ	-9.56266
衣	-9.57212
𡣡	-9.57212
ƨ	-9.57212
Φ	-9.57212
Я	-9.57212
�˵���	-9.58205
ˮ�	-9.5831
1⁄2��	-9.58413
ˮ��	-9.5902
�΢	-9.5907
▁Ϊ	-9.59109
���˵����	-9.59183
Ƣ	-9.59212
仯	-9.59212
��3�	-9.59215
��	-9.59312
˳�	-9.59393
��˿	-9.6001
��˵�������	-9.6066
ѯ	-9.61253
ݸ	-9.61253
���	-9.61714
�ʹ��	-9.63465
÷���	-9.63802
СС	-9.6466
�	-9.65159
⻰	-9.65464
ް	-9.65464
ͱ	-9.65464
ʼ�	-9.65952
�˿	-9.66021
���ʹ�	-9.66201
�¡���	-9.66776
�̣���	-9.66868
▁˵�	-9.66878
���1⁄2��	-9.67046
�ͨ�������	-9.67188
භ	-9.67638
˵�����	-9.67848
СѾ	-9.68272
߾	-9.68435
��˺	-9.68897
̴�	-9.68903
梣	-9.6986
˵������	-9.70216
�԰	-9.70394
▁ҩ	-9.70567
�˴	-9.70609
�˼�����	-9.72073
θ	-9.72133
ݴ	-9.72133
쿴	-9.72133
ί	-9.72133
𣬵	-9.72133
���£�	-9.72992
▁�𴦻�	-9.73095
▁Ů	-9.7312
▁ͅ�	-9.73455
ͬС	-9.73485
ǰȥ	-9.73556
��	-9.74068
�˵��������	-9.74077
΢�	-9.74322
շ	-9.74459
ݼ	-9.74459
ƪ	-9.74459
��ʹ��	-9.75733
▁́��	-9.76706
߷	-9.76774
졢	-9.7684
⺢	-9.7684
���˳�	-9.77054
ͬ�	-9.77431
ࡣ	-9.77597
▁�𴦻��	-9.77773
���	-9.78739
���˴�	-9.78989
�˲�	-9.79158
��𴦻��	-9.79164
뺣	-9.79278
㵹	-9.79279
�÷	-9.796
���	-9.80395
�˹�	-9.80663
����˵��	-9.80772
Ĭ	-9.80848
�	-9.81287
▁˵��	-9.81328
▁ת	-9.81494
߱	-9.81779
뿪	-9.81779
�˽	-9.82266
�̲�	-9.82924
ɭ	-9.83726
ᵽ	-9.83782
▁ͻ	-9.84052
�ˮ��	-9.84058
겻	-9.84343
ΰ	-9.84343
3�	-9.84393
�˽�	-9.84583
�˶��	-9.84743
ˮ	-9.84867
��	-9.85746
�ͣ�	-9.86553
Ĩ	-9.86974
ʥ	-9.86974
ʪ	-9.86974
ҫ	-9.86974
ԧ	-9.86974
�˵�����	-9.87207
▁̧	-9.87252
�°	-9.87477
���	-9.87988
˵�������	-9.88504
�ʿ�	-9.8857
ɰ	-9.88718
ȿ	-9.89677
㽫	-9.89677
�˶	-9.90375
�÷����	-9.90395
�����˵�	-9.90654
���˵���	-9.91344
ͣ���	-9.91978
ϸϸ	-9.92291
հ	-9.92455
ר	-9.92455
▁ɽ	-9.93092
�𴦻�	-9.93344
��΢΢	-9.93655
���˺�	-9.94163
���˶���	-9.9448
��˵��������	-9.9455
����˼	-9.94976
ݲ	-9.95312
ݹ	-9.95312
鲻	-9.95312
Ȩ	-9.95312
��ʹ	-9.9561
▁û	-9.95793
˵��������	-9.95894
�����	-9.96223
��	-9.9629
���	-9.96456
�����˭	-9.96759
��˹�	-9.97214
▁�	-9.97584
Ϫ	-9.97703
����˵����	-9.97879
�ˮ�	-9.97953
�޹	-9.98167
𣬽	-9.98253
ⲿ	-9.98253
ʹ����	-9.98503
����ʹ�	-9.98726
͸�	-10
˲�	-10.0011
͸	-10.0021
ԩ	-10.0067
Ȯ	-10.0128
Ϥ	-10.0128
▁δ	-10.0172
��˴��	-10.018
��˼��	-10.0192
�ʹ���	-10.0198
����1⁄2��	-10.0391
��𴦻�	-10.0393
ç	-10.044
죿	-10.0441
ȡʤ	-10.0538
��˶��	-10.0547
ū	-10.0702
�׷�	-10.0705
�����	-10.0744
�1⁄2	-10.076
ڭ	-10.0763
Ψ	-10.0763
���˹�	-10.087
�˻�	-10.0892
�˾	-10.0908
�ͨ�����	-10.0968
��˵�����	-10.0976
�÷���	-10.0977
▁æ	-10.1027
�˰	-10.1042
�ʼ�	-10.1042
ٰ�	-10.1072
֤	-10.1097
ݳ	-10.1097
㵱	-10.1097
鼱	-10.1097
��£����	-10.1154
▁3�	-10.1155
▁÷����	-10.1178
���3�	-10.1213
�˴��	-10.1243
���̵	-10.1311
̣�	-10.1317
�¶��	-10.1363
���˽	-10.1368
͸��	-10.1404
�����˵��	-10.141
۳	-10.1442
۷	-10.1442
⣿	-10.1442
⡰	-10.1442
��׷�	-10.1458
�ͬ�	-10.1466
������˼	-10.1487
�˿�	-10.1519
▁̧�	-10.1524
�˳��	-10.1534
׵	-10.1535
˿	-10.1546
▁ľ	-10.1571
�ͬ	-10.1581
͸���	-10.1583
��̫	-10.1594
׷��	-10.1596
ҡҡ	-10.1672
▁Щ	-10.1708
���¶�	-10.1713
��˿�	-10.1754
춯	-10.1799
۲	-10.1799
��˸�	-10.187
ĬȻ	-10.1909
̽�	-10.1954
׷���	-10.1972
▁̧��	-10.1983
�˻��	-10.199
�ʹ����	-10.2002
jô	-10.2052
��˳	-10.2065
÷����	-10.2104
���˺	-10.2134
ãȻ	-10.2136
��˽	-10.2138
Ũ	-10.2164
鶯	-10.2169
⣺	-10.2169
棿	-10.2169
硢	-10.2169
۱	-10.2169
é	-10.2169
ݷ	-10.2169
·�����	-10.2202
�˼������	-10.2237
���������������	-10.2261
��÷���	-10.2291
���ׯ	-10.2322
��ͬ�	-10.2348
���ׯ�	-10.2422
�����£�	-10.2436
��˶�	-10.2446
▁ɻ	-10.247
��׷	-10.2504
��¥	-10.2529
�˳	-10.2536
ǩ	-10.2554
龰	-10.2554
ⳡ	-10.2554
𣬲	-10.2554
Ħ	-10.2554
ǫ	-10.2554
𣺡	-10.2554
跨	-10.2554
ͭʬ	-10.2557
▁�	-10.2575
▁ѧ	-10.2596
��˴�	-10.2644
�˴���	-10.271
▁́���	-10.2773
���£���	-10.281
�ʿ��	-10.2881
��ͣ�	-10.2894
�£�������	-10.2894
����	-10.2899
▁�𴦻���	-10.2906
�𴦻���	-10.2928
������˵	-10.2945
亹	-10.2954
ཻ	-10.2954
㣡	-10.2954
ש	-10.2954
𣬺	-10.2954
Ю	-10.2954
̫�	-10.2957
�˾�	-10.2988
�̡�	-10.2999
����˺�	-10.3013
��˺�	-10.3036
̽ͷ	-10.3069
���˶��	-10.3094
׽	-10.3099
˼�����	-10.3142
�˷��	-10.3149
��˭��	-10.3156
�˳�����	-10.3176
���𴦻�	-10.3239
�ͭ�	-10.3263
;�	-10.3269
▁ɱ	-10.329
���˲��	-10.3336
����	-10.3341
̧��	-10.3346
Ω	-10.337
嶥	-10.337
㶼	-10.337
ī	-10.337
ů	-10.337
Ƨ	-10.337
ݽ	-10.337
y	-10.337
ɤ	-10.337
��ˮ��	-10.3397
���˶�	-10.3431
ͨЦ	-10.3447
▁˫	-10.3499
���¶��	-10.3522
·������	-10.3558
ࡣ��	-10.3567
¶�	-10.3612
���˭	-10.3616
��𴦻���	-10.3667
÷	-10.3698
���˵������	-10.3713
ʿ	-10.3717
���˰��	-10.3727
��˻�	-10.3729
�����	-10.3746
�����	-10.3778
۸	-10.3805
Ϧ	-10.3805
ä	-10.3805
𣬾	-10.3805
�����ͯ�	-10.3811
��˱���	-10.3822
󾪣�	-10.3838
ʿ��	-10.3872
▁ɵ	-10.3888
˸�	-10.3908
���˻�	-10.3912
͵͵	-10.3924
�¶	-10.3927
һЩ	-10.3932
▁ŭ	-10.3936
��¶	-10.3941
£�	-10.3947
ʼ��	-10.3984
�˴�	-10.3987
�̼��	-10.3999
׵�	-10.4089
ŵû	-10.4137
ƽɦ	-10.4141
���3⁄4	-10.4172
��£�����	-10.4175
��˭	-10.4188
�̣��	-10.4223
̤��	-10.4228
Ч	-10.426
֯	-10.426
⡭	-10.426
䵽	-10.426
Ԥ	-10.426
۰	-10.426
黭	-10.426
첽	-10.426
쵽	-10.426
𣬻	-10.426
ɩ	-10.426
鷿	-10.426
Ǩ	-10.426
Ӥ	-10.426
����˶��	-10.4262
ɦȴ	-10.4279
ɹŴ	-10.4298
��÷	-10.43
��˸��	-10.4303
��˻	-10.4332
▁ֱ	-10.4347
��˼�	-10.4368
�׵�	-10.4376
���ʹ��	-10.4392
����£�	-10.4401
▁ָ	-10.4416
���¶	-10.4453
�˶�	-10.4459
�˺�	-10.4459
���˸	-10.4469
ƽƽ	-10.4502
�˼���������	-10.4619
▁�£�	-10.4632
���˿�	-10.464
׼��	-10.4643
�����	-10.4667
▁�˵	-10.4675
˻�	-10.4679
����˵���	-10.468
Ȫ	-10.4681
▁1⁄2ׯ��	-10.4683
׹	-10.469
�΢΢	-10.4727
ج	-10.4735
è	-10.4736
թ	-10.4736
لجم	-10.4736
ⵣ	-10.4736
뵱	-10.4736
𣬴	-10.4736
ݿ	-10.4736
Т	-10.4736
�̫�	-10.4741
̵	-10.4766
���˵�����	-10.4777
˸��	-10.4849
▁ς	-10.4853
򹷰���	-10.4862
������˵�	-10.4874
԰	-10.4894
�̨�	-10.49
˴	-10.4961
���¡�	-10.4961
�˾��	-10.4962
��˭�	-10.4965
����	-10.4983
����ʹ��	-10.4985
÷������	-10.5013
▁÷���	-10.5031
▁˵�����	-10.5075
����˶�	-10.5076
	-10.5078
��˾	-10.5085
̡���	-10.5109
�˳���	-10.5114
�˸��	-10.5123
̽��	-10.5129
�÷��	-10.5137
▁��˵�	-10.5155
�£������	-10.517
��ͬ��	-10.5194
˹�	-10.52
Ԩ	-10.5214
뻳	-10.5236
𡣹	-10.5236
족	-10.5236
洫	-10.5236
ƮƮ	-10.5252
�󣬵�	-10.5324
�ͬ��	-10.5327
▁ү	-10.5328
˽�	-10.5339
󺹵	-10.534
�ˮ	-10.5359
�±�	-10.5399
���˴	-10.54
��̽	-10.5432
▁������������	-10.5463
�������˵	-10.5476
�¥�	-10.5495
ɽʯ	-10.5519
�����÷	-10.5535
ȥɱ	-10.5535
˿���	-10.5546
ͨ��	-10.5549
�˯�	-10.5582
���޵	-10.5604
˭	-10.5659
ͬ	-10.5691
ҲҪ	-10.5698
ê	-10.5701
▁ͨ�	-10.5713
���˾	-10.5718
����3�	-10.5726
ݱ	-10.5762
첻	-10.5762
𣬱	-10.5762
뽭	-10.5762
˯�	-10.5769
��˲��	-10.5786
�̵	-10.5876
ͣ��	-10.5894
˭�	-10.5914
▁˵����	-10.5977
�˱�	-10.598
��׶	-10.6007
�˻	-10.6056
���	-10.6066
¶	-10.6073
̤	-10.6077
����	-10.6122
�2��	-10.6149
˶�	-10.6152
ʿ�	-10.6153
����˰��	-10.6169
�����˼	-10.6187
÷�����	-10.6197
ͬȥ	-10.6198
����ʹ	-10.6199
�޷���	-10.6205
�԰�	-10.6207
�޶�	-10.6207
͹�	-10.6219
���	-10.6229
ͦ	-10.6236
�򡣡�	-10.6246
�ͣ����	-10.6257
����	-10.6262
���¡���	-10.6267
▁ʯ	-10.627
��1	-10.6272
ƫƫ	-10.6287
䣺	-10.6318
㱳	-10.6318
䣿	-10.6318
𣬷	-10.6318
㹦	-10.6318
ة	-10.6318
಼	-10.6318
콫	-10.6318
벽	-10.6318
ӥ	-10.6318
▁ɫ	-10.6324
˫˫	-10.6334
ͣ����	-10.6356
�ͨ��������	-10.6392
���˱��	-10.6393
�������	-10.6405
▁ȭ	-10.6468
̸�	-10.6521
͡�	-10.6526
�ʼ	-10.6529
�򲻿	-10.6595
���ͣ�	-10.6601
�˲	-10.6627
�˵���������	-10.663
▁Ⱥ	-10.6636
�¥	-10.6677
�˰�	-10.6722
▁ÿ	-10.6733
�ʾ�	-10.6766
�ͬ���	-10.6772
▁�������������	-10.6792
�ͣ���	-10.6795
�׽�	-10.6803
�¡��	-10.6853
���ʹ	-10.6881
�������˵�	-10.6885
����˷�	-10.6901
ά	-10.6906
ѭ	-10.6906
ݾ	-10.6906
ⷨ	-10.6906
嵽	-10.6906
顢	-10.6906
𣡡	-10.6906
ݻ	-10.6906
ഫ	-10.6906
綾	-10.6906
𣬶	-10.6906
칦	-10.6906
鱦	-10.6906
˪	-10.6906
㱾	-10.6906
˼����	-10.691
�±��	-10.6942
��	-10.6952
�̣����	-10.6962
�͡�	-10.6996
˵����������	-10.7024
�󡣡�	-10.7042
��ͣ��	-10.7046
▁Ѩ	-10.7065
�1⁄2�	-10.7081
ͨ	-10.7088
���˾�	-10.71
�1�	-10.712
ʿ���	-10.7146
�͹�	-10.7161
��˴	-10.7173
�1	-10.7186
˶���	-10.7197
���˸�	-10.7203
�˱	-10.7219
���˸��	-10.7233
���𴦻��	-10.7248
˼�	-10.7251
���ͬ�	-10.7263
ˮ����	-10.7296
�޳	-10.7308
▁λ	-10.731
˿��	-10.7315
�˹	-10.7318
���÷���	-10.7319
��׷���	-10.7385
▁˵	-10.7428
��׽�	-10.7464
į	-10.747
���˵�������	-10.7471
�����¡�	-10.7485
���3	-10.7495
���˼�	-10.7515
˴���	-10.7524
���	-10.7528
ي	-10.753
켫	-10.7531
𡣻	-10.7531
Ϩ	-10.7531
뷢	-10.7531
𣬹	-10.7531
�޷�	-10.7532
̾Ϣ	-10.7536
�2�	-10.7547
ˮ���	-10.7608
��˶	-10.761
�˯��	-10.7611
�˸	-10.7612
▁Ӣ	-10.7624
��	-10.7643
ɦɦ	-10.7662
�2	-10.7671
����˱	-10.7687
׽�	-10.769
��˷	-10.7702
˼���	-10.7705
▁ͅ��	-10.7715
ɵô	-10.7718
��˺��	-10.7723
���������	-10.7773
��˿����	-10.7782
�»�	-10.7805
�3⁄4	-10.7821
Ȼʧ	-10.7822
�˭�	-10.7823
�޵	-10.7852
�ׯ�	-10.7858
�ࡣ	-10.7871
����	-10.7884
���˽�	-10.7893
▁Զ	-10.7893
��¶�	-10.7911
�˵����������	-10.7917
��׵�	-10.7923
▁���	-10.796
˱��	-10.7969
̰�	-10.7981
�޲��	-10.7995
���˰	-10.801
2	-10.802
��ͣ���	-10.8021
ʾ	-10.8058
▁÷�������	-10.8066
▁�˼	-10.8073
ãã	-10.8075
���˷��	-10.8094
�׽	-10.8099
˾	-10.8107
▁���˵	-10.8123
▁÷������	-10.8126
���˿	-10.8137
˵���������	-10.8141
�����	-10.8145
��̲�	-10.8162
§	-10.8166
���𴦻���	-10.8177
�����˹�	-10.8179
�󣬲�	-10.8187
飿	-10.8198
ྩ	-10.8198
㺦	-10.8198
谮	-10.8198
촦	-10.8198
گ	-10.8198
趯	-10.8198
뻪	-10.8198
�����	-10.8198
ĬĬ	-10.8201
��̫�	-10.8211
���˯	-10.8219
��˹���	-10.8232
���˺��	-10.8239
��ʿ�	-10.8251
��˸���	-10.8252
��¶��	-10.8252
¶��	-10.826
�˺��	-10.8271
��	-10.8272
�׷���	-10.8293
˷	-10.8319
�¡����	-10.8323
��߽���	-10.8325
÷��	-10.8327
úÿ	-10.8351
���˴��	-10.8382
˴�	-10.8422
�¡	-10.8439
��׽	-10.8492
����˵������	-10.8493
��˸	-10.8506
�����˶	-10.8514
˻��	-10.8514
���÷��	-10.8528
�׵��	-10.8534
▁Ѫ	-10.8535
��1⁄2�	-10.8554
�±	-10.8577
������	-10.8578
▁����΢	-10.8598
���ˮ	-10.8598
▁վ	-10.8623
���˱	-10.8629
�ʿ���	-10.8639
�	-10.8714
�1⁄4�	-10.8735
�׵���	-10.8762
ʹ�����	-10.8763
˳	-10.8773
ͨһ	-10.8791
ͦ��	-10.8798
������ͯ	-10.8848
�ʿ����	-10.8855
�޲�	-10.8872
���˷�	-10.8892
棺	-10.8912
Ȭ	-10.8912
峿	-10.8912
ཡ	-10.8912
統	-10.8912
▁��������˵�	-10.8936
����˵�������	-10.8954
̣���	-10.8955
���̡�	-10.8961
��ͣ	-10.8963
��	-10.8977
��ʹ���	-10.8997
��3	-10.9015
��̡�	-10.9018
ԹԵ	-10.9046
�̾��	-10.9074
����ˮ�	-10.9076
�¿	-10.9083
�ͣ��	-10.9083
�������	-10.9108
���	-10.9113
▁�𴦻�������	-10.9134
��˲�	-10.9155
�˹���	-10.9167
����������������	-10.9183
�ʺ	-10.9191
1⁄2	-10.9191
�΢�	-10.9192
˴����	-10.9195
���˭�	-10.9214
�»��	-10.9219
���˳��	-10.9232
���̵�	-10.927
�̾��������	-10.9277
������	-10.9279
▁��	-10.9281
▁÷�����	-10.9284
�¶�	-10.9287
׽��	-10.9324
�˾���	-10.9334
�̸�	-10.9338
���˼��	-10.934
���3⁄4��	-10.9347
▁Ƭ	-10.9383
��2�	-10.9391
����𴦻�	-10.9394
�׿	-10.9413
��1⁄2	-10.9511
�����˺	-10.9521
ȴû	-10.9522
����	-10.9528
˶	-10.953
���˶	-10.9534
�߽	-10.9535
���˲�	-10.9542
������΢	-10.9555
����˭����	-10.9598
��2	-10.96
˰	-10.9604
���𴦻�����	-10.9616
▁�£���	-10.9641
���˰�	-10.9647
���׷�	-10.9661
��ʿ	-10.9662
͡���	-10.9665
��˾��	-10.9673
˲��	-10.9675
涼	-10.9681
ԥ	-10.9681
է	-10.9681
뵺	-10.9681
פ	-10.9681
â	-10.9681
ദ	-10.9681
⻭	-10.9681
䱸	-10.9681
䡢	-10.9681
佫	-10.9681
ت	-10.9681
ࣿ	-10.9681
⡱	-10.9681
벿	-10.9681
ه	-10.9681
봬	-10.9681
����׹�	-10.9681
̰ͼ	-10.9685
�˷	-10.9689
ss	-10.973
��˹�����	-10.9763
����˹�	-10.9775
���1⁄2ׯ��	-10.9777
ͭ�	-10.9804
����˻	-10.9812
����͸	-10.9828
����	-10.9835
ɵó	-10.9839
▁����	-10.9861
���̨	-10.9864
˺�	-10.9894
̵����	-10.9899
˳��	-10.9907
�˼�������	-10.9931
▁ƽ	-10.9934
󾪣��	-10.9972
����߽�	-11.0004
��˻��	-11.0019
̾�˿�����	-11.0035
޲��	-11.0048
�󡹦�	-11.0067
£���	-11.0078
��ʹ����	-11.0092
��ͬ	-11.0116
͹	-11.0118
▁����̨�	-11.0146
̽����	-11.0146
;	-11.0149
�׸	-11.0178
̾һ	-11.0189
��޼	-11.0225
����	-11.0259
˴��	-11.0264
���÷	-11.0273
�������˼	-11.0276
��˿��	-11.0284
�����˰��	-11.0285
▁��˵��	-11.0294
��԰��	-11.0321
▁�£����	-11.0337
ͨ�	-11.0379
�ͣ	-11.0384
▁��˵���	-11.0394
޵�	-11.0398
���׷	-11.0411
�̫��	-11.0413
Ө	-11.042
�������	-11.0433
˸����	-11.044
▁�𴦻�����	-11.0474
��𴦻����	-11.0481
���˿��	-11.051
ح	-11.0514
絶	-11.0514
a	-11.0514
泩	-11.0514
ὣ	-11.0514
裿	-11.0514
죡	-11.0514
Ү	-11.0515
ᱡ	-11.0515
㱼	-11.0515
굽	-11.0515
뷨	-11.0515
֫	-11.0515
絽	-11.0515
㰮	-11.0515
ຮ	-11.0515
Q	-11.0515
޺޵	-11.0516
˾��	-11.0516
��˴���	-11.0519
�̧��	-11.0529
��򡣡�	-11.0545
Ͱ͵	-11.0564
�޴��	-11.061
˶˵	-11.0611
����˳�	-11.0615
▁��ͨ���	-11.0616
̽���	-11.0617
����̤�	-11.0641
̼	-11.0641
���£��	-11.0648
��¡�����	-11.0653
˾�	-11.0662
���̬	-11.0675
▁ͅ���	-11.0706
˻	-11.0763
�׺	-11.0768
˧	-11.0784
׺	-11.0817
����ʹ����	-11.0833
򹷰����	-11.084
�޿��	-11.0881
▁˵���	-11.0885
��ˮ���	-11.0891
ɹŵ	-11.0927
����΢΢	-11.0929
▁ϧ	-11.0929
▁΢	-11.093
©	-11.0934
̾��	-11.0938
����˻�	-11.0951
�����˵���	-11.0964
�˸���	-11.0977
�̿	-11.0993
▁ʹ���	-11.0996
▁ʩ	-11.1016
���¡������	-11.1018
�󣬶�	-11.1043
	-11.1073
����ͬ�	-11.1078
ɽȥ	-11.1081
�׼�	-11.1094
�׺�	-11.1098
�����˼�	-11.1107
��˶���	-11.1111
�����ͯ���	-11.112
��᲻�	-11.1142
�3⁄4��	-11.115
▁��˵	-11.1158
õú	-11.1167
▁ͨ	-11.1174
��÷������	-11.1189
��1���	-11.1194
˲���	-11.1195
óȻ	-11.1197
▁���˻	-11.1233
��˷��	-11.1233
˯	-11.1255
�޷��	-11.1258
��͹�	-11.127
▁���˹�	-11.1276
�׼��	-11.1293
�̨��	-11.1299
̻�	-11.1313
�߽�	-11.1322
��£�������	-11.1344
�̣�����	-11.1344
׷����	-11.1353
�ׯ	-11.1373
▁�£��	-11.1384
▁��ͨ��	-11.1387
�����ʹ	-11.1399
���΢	-11.1403
ӯ	-11.1423
뽫	-11.1424
糿	-11.1424
䱦	-11.1424
棡	-11.1424
衢	-11.1424
ᵶ	-11.1424
ѥ	-11.1424
խ	-11.1424
湦	-11.1424
𣬼	-11.1424
լ	-11.1424
ෳ	-11.1424
컨	-11.1424
𣬳	-11.1424
徻	-11.1424
汾	-11.1424
羰	-11.1424
𣬿	-11.1424
𣬸	-11.1424
ӯӯ	-11.1424
��ʼ�	-11.1433
ݺݵ	-11.1434
�����˶�	-11.1439
��޹�	-11.1456
��÷��	-11.1508
����˲��	-11.1548
�ˮ���	-11.1555
̫��	-11.1568
���׼���	-11.1569
�1⁄2ׯ���	-11.1575
���޴��	-11.158
����˻��	-11.1587
�����1⁄2	-11.1589
▁1⁄2�˷	-11.1589
󺹣�����	-11.1599
̣��	-11.1612
�����˶��	-11.162
������ʹ�	-11.1633
̷ʦ	-11.1653
�����˺�	-11.1653
úõ	-11.167
����˵�����	-11.1674
������˵��	-11.1703
���ˮ��	-11.1735
�˹��	-11.1738
����˽	-11.1741
�̤���	-11.1743
�ʹ������	-11.176
����΢	-11.1776
����°	-11.1781
�׽��	-11.1793
̳�	-11.1806
▁���˶�	-11.1849
��𴦻�����	-11.186
��˳��	-11.1865
ԽԶ	-11.1868
׷�����	-11.187
��׵��	-11.1874
▁����΢΢	-11.188
�����˴�	-11.1885
��1⁄2ׯ�����	-11.19
����˾�	-11.1901
��	-11.192
��˿���	-11.192
��¥�	-11.1936
����˽�	-11.1938
ʽ�	-11.1945
�̴�	-11.1951
ȫƾ	-11.1983
�޵������	-11.2017
��̨	-11.2028
޽	-11.2031
��÷����	-11.2037
��¿�	-11.2046
ʼ	-11.2057
�����˿��	-11.2071
̹����	-11.2074
̿�	-11.2075
˺��	-11.208
▁����˵��	-11.2082
����ˮ	-11.2104
▁ս	-11.2108
ͬ���	-11.2151
1⁄2ׯ��	-11.2169
�§	-11.2171
���׵	-11.2176
��಻	-11.2178
��˱	-11.2183
���˻��	-11.2185
����˾��	-11.2196
���˾��	-11.2205
▁ͨ���	-11.2227
����1⁄2	-11.2228
߽	-11.2229
��§	-11.2231
����˾	-11.2266
��˼���	-11.2274
����	-11.228
˽	-11.2323
�����»	-11.2331
�����˾	-11.2332
��������˵	-11.2364
򲻹��	-11.2365
��˾�	-11.2367
޸���	-11.2377
�����°	-11.2377
����¥	-11.238
���̲�	-11.2393
������	-11.2412
÷�������	-11.2413
쳤	-11.2418
و	-11.2422
إ	-11.2424
㾡	-11.2424
磿	-11.2424
裡	-11.2424
죺	-11.2424
Ǭ	-11.2424
㼸	-11.2424
練	-11.2424
뷹	-11.2424
塱	-11.2424
㷢	-11.2424
徲	-11.2424
诡	-11.2424
ɬ	-11.2424
㵣	-11.2424
佭	-11.2424
塢	-11.2424
磡	-11.2424
ҭ	-11.2424
ἰ	-11.2424
㿴	-11.2424
亮	-11.2424
ᡢ	-11.2424
绢	-11.2424
فخم	-11.2424
壿	-11.2424
ⶼ	-11.2424
谵	-11.2424
�̾�������	-11.2424
ԯ̨	-11.2424
����׼	-11.2425
�˿�����	-11.2427
▁�˰��	-11.2431
���£�����	-11.2437
�����˶���	-11.2469
�͸�	-11.247
▁���˴��	-11.247
�׵����	-11.2483
׮	-11.2483
�̼�	-11.2483
ʻ	-11.2489
����˶	-11.2491
�����	-11.2495
�̨	-11.2497
ʾ�	-11.2499
�����˲��	-11.251
م	-11.2511
����˺	-11.2534
̿	-11.2546
�׸�	-11.2555
̹	-11.256
˦	-11.256
���������ͯ�	-11.2583
������˵����	-11.2587
���˵��������	-11.2589
��°	-11.2604
��׼��	-11.2608
�׷��	-11.2647
����޵	-11.2667
▁ʧ	-11.2679
̵��	-11.2687
����ˮ��	-11.2695
���	-11.2698
��˷���	-11.2719
������̨	-11.2726
˹	-11.2732
▁ˮ	-11.2736
��󲻽	-11.2737
˼��������	-11.2746
�ٰ�	-11.2759
��̽�	-11.2761
�͸��	-11.2772
▁���˲�	-11.2772
�̫���	-11.2808
�¥����	-11.2818
̺	-11.2855
�̷���	-11.2881
����𴦻��	-11.2897
ȫû	-11.2897
▁Ԫ	-11.291
�ͤ�	-11.2913
��˰	-11.2924
���˹��	-11.2926
����2�	-11.2934
��ʿ��	-11.2942
׹�	-11.295
׼�	-11.2954
˼������	-11.2964
�˹�����	-11.2965
�	-11.2967
񣬽	-11.3006
Ҫѧ	-11.3018
��˱�	-11.3025
�𷢵�����	-11.3032
úú	-11.3078
�˭��	-11.309
��°�	-11.3095
�	-11.3101
˧��	-11.3106
�׸��	-11.3111
ʽ	-11.3111
ͦ����	-11.3129
���޷�	-11.3133
���˴���	-11.3166
�ͦ�	-11.317
��ٰ�	-11.3179
����2��	-11.3201
˲����	-11.3201
��̾	-11.3204
����˴��	-11.3208
▁׷	-11.3215
����˼��	-11.3226
����¶��	-11.3242
¥	-11.3252
������׹�	-11.3278
˿�����	-11.3297
�˱���	-11.3324
�ˬ�	-11.3324
2��	-11.3337
�˴����	-11.3352
�󣬹���	-11.3356
�˴�����	-11.3363
▁w	-11.3375
���ʹ���	-11.3422
������	-11.3427
׿����	-11.3429
̧�	-11.343
⿪����	-11.345
���1	-11.3473
��������	-11.3483
�ʽ	-11.3496
˰�	-11.3498
���˼��£���	-11.3506
�ʽ��	-11.3508
���⵽	-11.3522
촽	-11.3535
ྴ	-11.3535
ⲫ	-11.3535
뻯	-11.3535
𣬰	-11.3535
⡶	-11.3535
㶯	-11.3535
巾	-11.3535
볤	-11.3535
붼	-11.3535
ĭ	-11.3535
ݰ	-11.3535
Ȿ	-11.3535
㼱	-11.3535
㿪	-11.3535
氵	-11.3535
类	-11.3535
밲	-11.3535
챦	-11.3535
ύ	-11.3535
ವ	-11.3535
㱨	-11.3535
㲣	-11.3535
壡	-11.3535
游	-11.3535
쵱	-11.3535
֬	-11.3535
طمح	-11.3535
قى	-11.3535
侹	-11.3535
費	-11.3535
컹	-11.3535
𡢲	-11.3535
竹	-11.3535
顷	-11.3535
鳼	-11.3535
鴫	-11.3535
ӧ	-11.3535
潫	-11.3535
綷	-11.3535
�˲����	-11.354
���ٰ�	-11.3562
����3⁄4��	-11.3589
��˿�����	-11.3595
▁Ө	-11.3601
������˺�	-11.3607
��ˮ����	-11.362
▁Ϣ	-11.3627
;��	-11.3629
��˵����������	-11.3642
�ͦ	-11.3645
�����˺��	-11.3647
��¿	-11.365
������	-11.3659
����ͣ�	-11.3667
̫ƽ	-11.3679
��̾����	-11.3711
�󣬾�	-11.3717
�3	-11.373
▁־	-11.3747
ڶ࣬	-11.3775
Ȼû	-11.3787
򡣡�����	-11.3808
��ʾ	-11.3824
�޽	-11.3826
▁�����	-11.3826
���˸���	-11.3843
󾪣���	-11.3852
�ʿ������	-11.3853
˹�����	-11.3858
�׶	-11.3865
�󣬾	-11.3877
��߽����	-11.3882
˰��	-11.3889
ɵð	-11.3891
���;	-11.3893
�߿�	-11.3896
¡�	-11.3903
�̳��	-11.3937
��˶�����	-11.3947
����ʿ	-11.3956
▁ʹ�	-11.3974
▁�˹�	-11.3975
�����˹��	-11.3993
���˻	-11.3999
������˭	-11.4005
˸	-11.4016
����˰	-11.4033
�¿�	-11.4043
�����	-11.4047
▁Խ	-11.4068
�󾪣�	-11.4096
��3⁄4	-11.4102
�����̸��	-11.4124
�ͯ��	-11.4142
���ʺ�	-11.4144
���˽��	-11.4163
˿����	-11.4166
�±���	-11.4168
�ʼ���	-11.418
��¥��	-11.4187
����˿�	-11.4196
һ̧	-11.422
¡��	-11.4229
ɨȥ	-11.423
�̩����	-11.4233
Ǻú	-11.4235
̵���	-11.4238
����ׯ�	-11.4239
̵�	-11.424
�˹������	-11.4242
▁�׵	-11.4248
��׼�	-11.4252
�ͬ����	-11.4256
�˯	-11.4285
�׼	-11.4292
��˽�	-11.4299
��˵���������	-11.4323
��˭����	-11.4341
���򣬵�	-11.4347
����˸�	-11.4349
��·����	-11.4357
▁́�����	-11.4372
�����ͯ��	-11.4375
▁����ʹ��	-11.4378
��̧��	-11.4412
���1⁄2�˷�	-11.4416
▁ǿ	-11.4442
�ࡣ��	-11.4446
▁��ͨ����	-11.4454
▁�˸��	-11.4467
�̽�	-11.447
���	-11.447
��޲�	-11.4481
��ͯ	-11.4485
��	-11.4493
���˹�����	-11.4512
�����˵����	-11.4517
���ʺ��	-11.4522
�¥��	-11.4525
����˯	-11.4557
��񡣡�	-11.4561
£��	-11.4577
�»	-11.4578
ʹ������	-11.4595
▁ĸ	-11.4619
�׷����	-11.4621
�÷�����	-11.4667
���׷���	-11.4667
▁ҹ	-11.4702
�������˵��	-11.4705
▁��ͨ�	-11.4716
▁���˺�	-11.4738
��˽���	-11.4748
�˻���	-11.4766
▁Ƥ	-11.4775
▁��ʹ�	-11.4776
ͧ�����	-11.4779
▁ҡ	-11.4784
䡰	-11.4785
췭	-11.4785
⻬	-11.4785
罫	-11.4785
F	-11.4785
滹	-11.4785
靑	-11.4785
ګ	-11.4785
彫	-11.4785
ҥ	-11.4785
䱻	-11.4785
乭	-11.4785
硱	-11.4785
紵	-11.4785
뺫	-11.4785
䡱	-11.4785
䵹	-11.4785
齣	-11.4785
龫	-11.4785
귿	-11.4785
밡	-11.4785
߯	-11.4785
༤	-11.4785
ḧ	-11.4785
仨	-11.4785
浽	-11.4785
皿	-11.4785
뾸	-11.4785
ഥ	-11.4785
澹	-11.4785
糤	-11.4785
t	-11.4785
㡱	-11.4785
示	-11.4785
V	-11.4785
▁͵	-11.4799
�򣡡�	-11.4802
�̫	-11.4811
����˴�	-11.4814
ͦǹ	-11.484
▁���˺	-11.4868
üë	-11.4871
�����	-11.4884
�����޼	-11.4884
˹���	-11.4907
�����¡���	-11.4923
�÷������	-11.4948
����̤	-11.4989
���£����	-11.5002
������˼�	-11.5013
�͡��	-11.5028
�����£���	-11.5059
һҹ	-11.5069
˯���	-11.5082
¡���	-11.5085
�����˼��	-11.5097
▁ɳ	-11.5097
▁����ͬ�	-11.5097
�̡���	-11.5108
�𴦻�������	-11.5119
�̣������	-11.5125
▁�����˶��	-11.513
����ͣ	-11.513
▁ϸ	-11.5143
��	-11.5143
��»	-11.5145
���򣬽	-11.5175
▁ȡ	-11.5194
�����˻	-11.5198
����˵��������	-11.5199
�޺	-11.5202
����ʹ���	-11.5202
�������񣬵�	-11.5205
���˳	-11.5217
��̨�	-11.5219
�£��������	-11.5224
ͨ����	-11.5239
�޸�	-11.524
󼱣���	-11.5251
▁̧����	-11.5261
��ˮ�����	-11.5263
�����߽�	-11.5265
ںڵ	-11.5266
�̳	-11.5301
�«��	-11.5304
����̫	-11.5312
�ʻ����	-11.5322
�󣬺�	-11.5332
̲��	-11.5341
ʹ˰��	-11.5345
���̫	-11.5384
�¿��	-11.5387
�˿����	-11.539
;����	-11.5404
▁��ˮ	-11.5415
���ͬ	-11.5418
��������	-11.5429
��£������	-11.543
▁����̨	-11.5466
▁˵�������	-11.5471
�������	-11.5484
�̸	-11.5506
ȥȡ	-11.5516
���̡���	-11.5524
�����¥	-11.553
�����ͯ	-11.554
����˭	-11.5545
▁��ͯ�	-11.5562
������1⁄4	-11.5577
��̷��	-11.5599
̻��	-11.5613
�޷����	-11.5618
���¥	-11.5619
̶�	-11.5623
���𴦻����	-11.5639
�����˽	-11.5643
��͡�	-11.565
▁�̣�	-11.5656
▁˵������	-11.5657
����˼�	-11.5687
Ļɻ	-11.5697
������˶�	-11.5699
��ͦ�	-11.57
��˹	-11.5703
�̼���	-11.5709
����	-11.5713
̬����	-11.5737
̽�����	-11.5749
��ʼ	-11.5751
��÷�����	-11.5754
����ͬ	-11.5755
�˷�	-11.5767
�ٰ	-11.5774
�����	-11.58
�̵�	-11.5828
���˯�	-11.5829
�������	-11.5831
�3⁄4�	-11.586
����ٰ���	-11.5862
��	-11.5865
԰�	-11.5867
�׾	-11.5871
�ͭ	-11.5882
▁�˴��	-11.5889
�����˸	-11.5896
�ͦ��	-11.5905
ңң	-11.5907
·׷�	-11.5917
��̤����	-11.5922
���޻��	-11.5935
©�	-11.5965
3⁄4	-11.5978
׺��	-11.6012
���˿������	-11.6038
�2���	-11.604
��޿��	-11.6057
▁�˱	-11.6057
�󣬱	-11.6057
��׽��	-11.6063
▁ͨ�����	-11.6064
�����΢	-11.6072
▁��������������	-11.6077
��޻��	-11.6078
����˴	-11.608
���̫�	-11.6091
�˹�������	-11.6098
����¥��	-11.611
����������	-11.6112
�⿪	-11.6136
�̼	-11.6147
��⻹	-11.6153
����̬��	-11.6158
▁́�ͨ	-11.6194
���޺	-11.6202
�𻰣�	-11.621
㸸	-11.6213
滰	-11.6213
赭	-11.6213
鷢	-11.6213
మ	-11.6213
⡮	-11.6213
⣡	-11.6213
㱻	-11.6213
㷲	-11.6213
桱	-11.6213
꼪	-11.6213
롶	-11.6213
ɪ	-11.6213
㻰	-11.6213
绨	-11.6213
鲮	-11.6213
ꪣ	-11.6213
涯	-11.6213
溹	-11.6213
껪	-11.6213
뻷	-11.6213
դ	-11.6213
ժ	-11.6213
쾮	-11.6213
ŧ	-11.6213
ࣺ	-11.6213
Ὣ	-11.6213
촰	-11.6213
༪	-11.6213
鼮	-11.6213
米	-11.6213
롰	-11.6213
ྀ	-11.6213
ᱻ	-11.6213
䶨	-11.6213
桰	-11.6213
ླ	-11.6213
ᱧ	-11.6213
�󣬻��	-11.6215
▁�˶�	-11.6217
▁��������������	-11.624
������𴦻���	-11.6244
��ׯ��	-11.6244
˦��	-11.6245
ͭ	-11.6251
▁�𴦻����	-11.6257
Сͯ	-11.6263
�1⁄4��	-11.6273
����˻���	-11.6278
▁�˳	-11.629
ˮ�����	-11.6299
������	-11.6304
�����˭��	-11.6313
▁˼��	-11.6318
��ͯ��	-11.6318
�޼	-11.6323
���1⁄2	-11.6324
▁ǹ	-11.6331
▁�˶��	-11.6335
▁а	-11.634
�󣬺��	-11.6346
���⹦��	-11.6346
���˭�������	-11.6371
�������£�	-11.6373
�������˵����	-11.6378
⿪��	-11.6379
��𴦻�������	-11.638
̱����	-11.6391
ͨ���	-11.6395
���	-11.6398
▁́�ͨ��	-11.6409
����̾����	-11.641
����ʿ�	-11.6414
����¿	-11.6424
����˸���	-11.6436
��̸�	-11.6452
׮��	-11.6463
ɹŹ	-11.6492
���ʿ	-11.65
ƬƬ	-11.6507
���˾���	-11.6515
▁���˶���	-11.6523
׼	-11.6532
�׶����	-11.6535
һҳ	-11.6538
�ʻ��	-11.6547
úò	-11.6556
ؿڵ	-11.6557
����	-11.6558
������˺	-11.6566
���	-11.6573
Ǻö	-11.6594
▁1⁄2ׯ����	-11.6597
��ׯ�	-11.6609
�˿������	-11.6611
̨��	-11.6612
▁�˷��	-11.6614
���ׯ��	-11.6616
�𷢵�������	-11.6627
����𴦻����	-11.6628
3	-11.6635
▁��ͨ	-11.6642
������˭˵�	-11.6669
▁Ұ	-11.668
��޵	-11.6681
�󺹡�	-11.6696
��������˵�	-11.6704
�˿���	-11.6706
�ͨ���������	-11.6711
���ʹ����	-11.6712
�󡹦���	-11.6717
��ͦ	-11.6751
▁�����˼	-11.6756
ʺ	-11.6795
▁�˹�����	-11.6797
߿	-11.6803
�޸��	-11.6805
����1⁄4�	-11.6814
�����˳�	-11.6815
���޲	-11.6832
�𷢵�	-11.6833
▁�˻	-11.6855
�޶�����	-11.6855
˸���	-11.6863
ɲɦ	-11.6867
���÷����	-11.6876
�󺣣���	-11.6883
������ʹ	-11.6909
�1⁄4	-11.6926
�̾	-11.6934
͹������	-11.6934
�޳�	-11.694
�߽���	-11.6944
�����	-11.696
▁������˵��	-11.6987
���»	-11.6989
����˿��	-11.6994
�����	-11.7006
▁��ˮ�	-11.7014
̯�	-11.7061
��׫�	-11.7067
�̽��	-11.7096
��׷��	-11.7097
����£��	-11.7098
���˭����	-11.7105
���΢΢	-11.7115
̾������	-11.7118
���ͣ���	-11.7145
1⁄4���	-11.7159
�����׸�	-11.7163
▁΢΢	-11.717
▁�����˽	-11.7176
޼	-11.7192
⿪���	-11.7193
��̽���	-11.7195
˶�����	-11.7212
▁����˵�	-11.7217
�󣬼�	-11.7218
��޷�	-11.7219
��̧	-11.7238
��׻�	-11.7281
�޿�	-11.7282
ľƲ	-11.7288
��3⁄4��	-11.7292
����1⁄4	-11.7295
�̰	-11.7304
���̨����	-11.7304
˲������	-11.732
▁���������£���	-11.7348
▁˭	-11.7349
����±�	-11.7362
▁ʕ	-11.7384
�����⬼	-11.7394
�˼����������	-11.7411
�¡�������	-11.7418
��޴��	-11.7455
úô	-11.7457
�̳�	-11.7469
���޲���	-11.7476
�3���	-11.7482
▁˵����������	-11.7484
���˭��	-11.7514
̾�������������	-11.7516
��޿	-11.7518
���׸��	-11.7522
�»����	-11.7529
��̴	-11.7545
����˲�	-11.755
�1⁄4����	-11.7551
▁ׯ��	-11.7558
����1	-11.7564
▁ȷ	-11.7567
������˽	-11.7585
������	-11.7615
̫���	-11.7627
1⁄2�˷	-11.7631
▁��ͭ�	-11.7632
���⬼	-11.7638
▁́����	-11.7659
��ͭ	-11.766
̧	-11.7662
����˱�	-11.7664
;���	-11.7669
̽������	-11.7682
͸����	-11.7683
󣬽	-11.7687
���	-11.7711
�������ͯ�	-11.7713
�߿	-11.7722
�����̨�	-11.7734
�޲	-11.7735
�÷�������	-11.776
��޹���	-11.776
���಻�	-11.7777
����ʼ�	-11.7784
�����§	-11.7802
�ʻ	-11.7822
▁�	-11.7844
����˷��	-11.7851
�����	-11.7855
�¶���	-11.7858
�ٰ���	-11.7877
خ	-11.788
֨	-11.788
Ѧ	-11.788
ԫ	-11.788
飡	-11.788
ಽ	-11.788
㣺	-11.788
㲦	-11.788
㵲	-11.788
緹	-11.788
鵤	-11.788
븸	-11.788
빬	-11.788
찡	-11.788
㡢	-11.788
㷭	-11.788
෴	-11.788
㼣	-11.788
㽭	-11.788
岻	-11.788
뻹	-11.788
졭	-11.788
Э	-11.788
ォ	-11.788
㴩	-11.788
㶨	-11.788
㶫	-11.788
䵥	-11.788
漱	-11.788
紫	-11.788
蹦	-11.788
붨	-11.788
츣	-11.788
𡭡	-11.788
I	-11.788
൱	-11.788
㻨	-11.788
峤	-11.788
躺	-11.788
転	-11.788
밶	-11.788
糣	-11.788
Ф	-11.788
硰	-11.788
糸	-11.788
紦	-11.788
쿪	-11.788
��󹦸��	-11.788
٩	-11.788
ཱ	-11.788
汳	-11.788
꣩	-11.788
�����𴦻�	-11.7882
̻壬	-11.7885
�̣�˵�������	-11.7899
���̨��	-11.7905
Ũü	-11.7906
▁������	-11.7918
jŶ	-11.7934
▁ţ	-11.7943
©��	-11.7944
�¡������	-11.7946
����޹	-11.7948
��£��������	-11.7948
���޿�	-11.7948
ѧԨ	-11.7958
����	-11.7959
���޷���	-11.7963
��ׯ���	-11.7964
����������ͯ��	-11.7968
���1���	-11.7968
�����	-11.7972
�󺹣�������	-11.7973
󣬵����	-11.7975
▁ˮ�	-11.7987
ٰ���	-11.7989
����޿��	-11.7992
ͨҡ	-11.7995
һ̽	-11.7997
▁���1��	-11.8006
��˲	-11.8007
�ˮ����	-11.8008
̣����	-11.801
��°��	-11.8013
̸��	-11.8014
��˹��	-11.8055
úø	-11.8067
�׶�	-11.8068
̨ε	-11.8081
��˺���	-11.8113
�������ͣ�	-11.8113
▁���˸	-11.8116
▁ʁ	-11.8117
��򣡡�	-11.8119
▁��ʹ��	-11.8124
���޻�	-11.8131
��޶	-11.8147
��͸�	-11.8148
��ʻ��	-11.8156
���2��	-11.8172
����ͯ�	-11.8205
���������	-11.8209
��⵹���	-11.8215
�����	-11.8219
�߽����	-11.8263
jŵ	-11.8264
���ˮ���	-11.8265
̷���	-11.8267
��˽ͨ��	-11.8283
��޶�����	-11.8285
▁�˵�	-11.8286
��˰�	-11.8287
▁̄�	-11.8298
͹���	-11.83
������˵���	-11.8308
���˲	-11.8318
▁����˵���	-11.8324
̳��	-11.8332
���˵�˼��	-11.8339
¿����	-11.835
�򣿡�	-11.8353
�̤����	-11.8362
�����̨��	-11.8365
��޵������	-11.837
��»��	-11.8371
�����˭����	-11.8375
ʹ˸��	-11.8377
�̷�	-11.8377
�������˳�	-11.8378
��ͭ�	-11.8382
�����	-11.8411
��׼	-11.8421
1⁄2�	-11.8421
̱��	-11.8436
ͣס	-11.8437
���1�	-11.8444
�����ˮ��	-11.8446
����͡�	-11.8447
▁���˼	-11.8448
���˱�	-11.845
����̴�	-11.8486
���߽���	-11.8491
ׯ�	-11.8506
ƵĹ	-11.8509
▁ƫ	-11.8509
����˵���������	-11.8527
�˹����	-11.8528
▁���	-11.8555
���˷���	-11.8561
�����3�	-11.8571
̳д	-11.8572
ɵĽ	-11.8579
▁Ʈ	-11.8605
��1⁄4	-11.8623
̾��������	-11.8628
▁̄���	-11.8629
̼�	-11.8635
���˿�����	-11.8661
���÷������	-11.8671
������޷��	-11.8685
�ʿ�����	-11.8693
�����°�	-11.8701
▁���	-11.8708
��̣���	-11.8723
�����˸��	-11.8727
��޷��	-11.8731
���̸��	-11.8733
�׾���	-11.874
��1⁄2�˷	-11.875
����̧��	-11.8751
��ׯ	-11.8756
�������˶	-11.879
�׹	-11.879
��������������	-11.8809
���±	-11.8812
▁�����3⁄4����	-11.8823
▁ײ	-11.8831
�̲��	-11.8844
��;��	-11.8849
��ͬ���	-11.8851
�»���	-11.8865
���޹	-11.8885
���ͬ��	-11.8895
���˼����	-11.8904
λε	-11.892
▁�������˴�	-11.8921
�����	-11.8921
˷�	-11.8947
�󣬴�	-11.8955
��׹�	-11.8956
�������˵���	-11.899
▁����˵	-11.8994
��򣬴�	-11.8994
׿������	-11.9
��˯�	-11.9033
▁ü	-11.9033
���	-11.9042
������΢΢	-11.9061
����	-11.9063
�󣬵��	-11.9066
���˽�����	-11.9085
��̵	-11.9086
⵶����	-11.9087
���׼��	-11.9096
▁́�������	-11.9113
��͹���	-11.9121
żȻ	-11.915
�2�����	-11.9159
��ͧ�	-11.916
���̧��	-11.917
����૵	-11.9173
�������΢΢	-11.9192
̼��	-11.9193
�����޵	-11.9215
��޲���	-11.9227
▁�˰	-11.923
˽��	-11.9231
▁̫	-11.9242
����˭��	-11.9246
▁̧���	-11.9268
��̽��	-11.9286
▁�˲��	-11.9294
����ͯ��	-11.9301
▁���	-11.9306
�¡�����	-11.9319
▁˳�	-11.9326
���̵��	-11.9327
ͭ��	-11.9335
�����ʹ�	-11.9349
���޿��	-11.9353
����1⁄2�	-11.936
▁r	-11.9362
̲�	-11.9366
ʾ��	-11.937
▁�����˴��	-11.9374
󣬲��	-11.9385
�ͭ��	-11.9388
������˷�	-11.9389
▁�˽	-11.944
���ʼ��	-11.9444
���޸�	-11.9448
▁���˽	-11.9452
�˷�����	-11.9459
�;��	-11.9484
���˭���	-11.9489
ʽ���	-11.9497
�ʺ�	-11.9503
����ʿ��	-11.9516
▁ʼ��	-11.9519
����������	-11.9523
�1⁄2�˷�	-11.9532
�1������	-11.9534
�����˷��	-11.9536
▁�����̼�	-11.9554
��������̨�	-11.9561
�����׵�	-11.9566
��������¡����	-11.9571
޷����	-11.9573
��̶��	-11.9576
���������	-11.9596
̾�������	-11.9609
���޳	-11.9612
�2����	-11.9622
ԭҲ	-11.9637
��������¥	-11.9638
��˾���	-11.9643
▁��˭��	-11.9644
���̷�����	-11.9646
�޳��	-11.9652
	-11.9652
̾�˿�����˵�������	-11.9667
�������˿	-11.9678
Ǻõ	-11.9709
��÷�	-11.9711
▁ͅ�������	-11.9721
�˲���	-11.9727
���̲��	-11.973
������ͯ����	-11.9739
˼�������	-11.9742
▁���˴�	-11.9749
�����£��	-11.9755
�׽���	-11.9766
��������	-11.9766
▁˯����	-11.9771
▁����˭�	-11.9775
����÷�����	-11.9775
󣬴�����	-11.9782
����׷	-11.9792
��߼��	-11.9798
���̤�����	-11.9798
�������΢	-11.98
��԰�	-11.9802
���󺹵	-11.9805
▁��˯	-11.9808
▁���׵��	-11.9812
׵���	-11.9816
����޵��	-11.9826
�⿪�����	-11.9838
ɳ̲	-11.9846
���͸�	-11.9848
▁��΢΢	-11.9854
ï	-11.9857
׾�	-11.9867
����˸��	-11.9869
������¿��	-11.9875
�᲻���	-11.9875
ԯ	-11.9878
濴	-11.988
ʨ	-11.988
仹	-11.988
穣	-11.988
編	-11.988
뱾	-11.988
Ⱛ	-11.988
㾹	-11.988
伫	-11.988
廨	-11.988
硭	-11.988
깦	-11.988
𡣵	-11.988
ى	-11.988
鰮	-11.988
롭	-11.988
븹	-11.988
취	-11.988
ڤ	-11.988
ণ	-11.988
ⶾ	-11.988
䣡	-11.988
溰	-11.988
綼	-11.988
緢	-11.988
羹	-11.988
貿	-11.988
赲	-11.988
춷	-11.988
𡣺	-11.988
Ŭ	-11.988
࣡	-11.988
㷴	-11.988
䵱	-11.988
嵶	-11.988
縸	-11.988
ǯ	-11.988
ի	-11.988
ֱͦͦ	-11.988
㲢	-11.988
㳵	-11.988
㵸	-11.988
䲢	-11.988
淨	-11.988
緫	-11.988
鵽	-11.988
굶	-11.988
꽫	-11.988
X	-11.988
ن	-11.988
ಿ	-11.988
ᄍ	-11.988
⡢	-11.988
뱭	-11.988
ཱུ	-11.988
ᡱ	-11.988
㰡	-11.988
纮	-11.988
绹	-11.988
鷨	-11.988
붴	-11.988
ئ	-11.988
ಫ	-11.988
㵨	-11.988
㼲	-11.988
伱	-11.988
泾	-11.988
湻	-11.988
쫷	-11.988
촬	-11.988
㾭	-11.988
䵶	-11.988
Ϭ	-11.988
淴	-11.988
豭	-11.988
黹	-11.988
귽	-11.988
뾭	-11.988
����˴󺹣�	-11.9886
ǻ̿	-11.9893
�1���	-11.9894
����߽���	-11.9896
�΢����	-11.9902
󺹡�����	-11.9903
ǵĵ	-11.9907
��˻���	-11.9918
úúõ	-11.9918
¶����	-11.9922
ɵĵ	-11.9922
���¥��	-11.993
߷ߵ	-11.994
�����˯���	-11.9947
▁°�	-11.9949
λ̫	-11.9953
׶�	-11.9961
�¶����	-11.9964
���1⁄2�	-11.9965
▁�˿	-11.9972
�˵�˼��	-11.9976
����˭����˭�����	-11.9994
�˾�����	-11.9999
�����ͬ��	-12.0011
�̳����	-12.0013
�˭�����	-12.0016
��޷����	-12.0017
���¡�����	-12.0027
��򣬲�	-12.0029
�˸����	-12.0034
ʺ�	-12.0036
�����˲�	-12.0047
���˻���	-12.0053
��1⁄4�	-12.0064
����߻	-12.0068
˽�����	-12.0069
̵Ľ	-12.0073
̸Ц	-12.0076
▁́���������	-12.0087
�׾�	-12.0092
▁�𴦻��������	-12.0098
������޲	-12.0101
����	-12.0105
�������	-12.0113
�3⁄4���	-12.0114
▁���˶�����	-12.0127
�����˻�	-12.0139
ͬ����	-12.0144
▁ˮ��	-12.0144
�����޲���	-12.0145
̸����	-12.0151
ؿڴ	-12.0156
�󣬹�����	-12.0159
���߾	-12.0161
˯����	-12.0164
ʿ������	-12.0167
�򣿡���������	-12.0168
▁�¡���	-12.0169
ͯ�	-12.0175
үҪ	-12.0186
▁˵��������	-12.0189
��򣬽�	-12.019
���߽�	-12.021
�͢���	-12.022
�������¥	-12.0222
ɹŲ	-12.0224
�����˸�	-12.0243
׵����	-12.0251
��÷��������	-12.0251
▁ͨ�������	-12.0254
������˰��	-12.0256
޵������	-12.0257
▁�2�����	-12.0258
�׻������	-12.0265
���°�	-12.0283
�׶��	-12.0285
°�	-12.0289
�󣿡�	-12.0292
▁�2�	-12.0324
ĺò	-12.0337
������޼����	-12.0365
�����÷����	-12.0373
����͸�	-12.0378
׾���	-12.0378
▁���˱���	-12.0418
Ϊͽ	-12.0422
��⬼	-12.0427
��߽�	-12.0433
������񣡡�	-12.0435
�����̾��	-12.0436
°	-12.0466
▁���˺��	-12.0489
����;�	-12.0492
▁��̫�	-12.0493
��¡������	-12.05
������𴦻��	-12.0502
�׶���	-12.0502
�����¶�	-12.0513
�˵�˵������	-12.0519
�󣬰�	-12.0524
wɻ	-12.0525
Ƶõ	-12.0529
▁�˳�	-12.053
õĶ	-12.0533
˭��	-12.0534
ȷɻ	-12.0537
�������𻰣�	-12.0553
���˳���	-12.0557
��������	-12.056
��˭���	-12.0567
������߽���	-12.0571
����͹��	-12.0574
���ʿ����	-12.0595
������	-12.0611
ǵķ	-12.0627
����	-12.0632
̨�	-12.0635
�������˾�	-12.0647
ࡣ�����	-12.0655
�����1⁄2�	-12.0659
��޺�	-12.067
▁ͨ����	-12.0676
ССһ	-12.0683
·�������	-12.0686
�𷢵���	-12.0729
����˹��	-12.0731
�������˼��	-12.0732
����̰	-12.0735
˭�����	-12.0737
ָץ	-12.0737
�˻����	-12.0745
�������˶�	-12.0754
����׷�	-12.0764
��͸��	-12.0767
�׵������	-12.0779
������	-12.0782
̸	-12.079
���񣬻�	-12.0796
׼���	-12.0809
���ͣ����	-12.0837
������	-12.0844
�����̽��	-12.0852
�̾����	-12.0854
�޶����	-12.0861
��޵����	-12.0864
▁�˺�	-12.0883
▁̨��	-12.0889
������̡�	-12.0919
���ͣ��	-12.0925
ɵĻ	-12.0937
���׷����	-12.0956
СЬ	-12.096
������¶��	-12.0965
�������˺��	-12.0968
������׵������	-12.0972
▁���	-12.0976
▁�����˶�	-12.0985
Ȼ̧	-12.0995
���̽�	-12.0999
▁����̾�������	-12.102
̧����	-12.102
��͡���	-12.1028
▁�	-12.1036
▁ͯ�	-12.1041
▁������ʹ�	-12.1049
�������⸱	-12.1052
�������	-12.1059
������˶��	-12.1059
��	-12.1062
�䶼�	-12.1063
�����׷�	-12.1073
ǵõ	-12.1076
▁����ͯ�	-12.1077
������ˮ�	-12.1087
���׽	-12.109
���ʿ��	-12.109
▁��ʹ	-12.1098
��1⁄2�˷����	-12.1099
�̶	-12.11
ȥh	-12.1105
ʽ��	-12.1116
һͬ	-12.1117
�󣬾�����������	-12.1121
׻�����	-12.1129
�ͥ����	-12.114
▁ͽ	-12.1144
▁�1	-12.1148
�����˵�������	-12.1156
▁���£�	-12.1165
�����޴	-12.1166
׶��	-12.1169
̶�����	-12.1171
����׽	-12.1172
󺹵�	-12.1181
���	-12.1185
����̵	-12.1199
�������	-12.1205
▁���¡�������	-12.121
�����ͬ	-12.1221
��׼���	-12.1227
��������˵����˵��	-12.123
���¥���	-12.1243
▁ɦȴ	-12.1264
�˷���	-12.1273
�̧	-12.1294
��׹��	-12.1307
���̳��	-12.1315
▁�¶��	-12.1318
�˽���	-12.1337
����÷���	-12.1338
��±��	-12.136
����˲���	-12.136
�𴦣�����	-12.1372
�˴������	-12.1375
�ʹ�����	-12.1378
��˳���	-12.1389
▁����˵�����	-12.1414
�󣬻������	-12.142
��̾��������	-12.1422
˧������	-12.1425
������	-12.1435
▁¶�	-12.1459
������	-12.1466
ׯ��	-12.1472
�����⿪	-12.1472
ͣ������	-12.1481
˱	-12.1482
���ʾ�¡���	-12.1497
���⵱��������	-12.1512
«	-12.1512
��ͣ����	-12.1514
΢�	-12.1517
�����ʹ��	-12.1521
▁�°	-12.1524
������ˮ��	-12.153
����̫�	-12.1537
⿪�	-12.1551
ʻ����	-12.1552
�ʼ��	-12.1556
���׼�	-12.1581
��̤	-12.1581
▁ģ	-12.1594
������𴦻�	-12.1603
▁��˭	-12.1622
▁ò	-12.1632
���˽���	-12.1633
�̤�	-12.1638
�����ͣ�	-12.1647
▁���˳���	-12.1663
▁���¡�	-12.1673
޳	-12.1695
͹��	-12.17
Ҳѧ	-12.1716
▁�����	-12.1729
����޿	-12.1767
����˿	-12.1776
�������˷��	-12.178
▁�����׵	-12.1784
׵��	-12.1785
��׿	-12.1786
▁���˰��	-12.1793
����˽���	-12.1795
�����ٰ�	-12.1835
�������1	-12.1848
˳���	-12.1861
���������⬼	-12.1885
���ʽ�����	-12.1894
���̸	-12.1901
���˺���	-12.1905
�����	-12.1906
�����׷	-12.1908
��򣬿���	-12.191
��1⁄4�����	-12.1929
�޾������	-12.193
�����⵱�	-12.1937
��񣬴�	-12.194
�΢΢��	-12.1941
��ʾ�	-12.1941
����̤��	-12.1954
▁ͼ	-12.1956
�����÷���	-12.1957
▁��΢	-12.1959
�������	-12.1962
���޹�	-12.1967
�̨���	-12.1968
▁�ٰ	-12.197
ʻ��	-12.1985
ͯ	-12.1988
�᲻����	-12.199
�����˿	-12.201
������	-12.2016
�̰�	-12.2018
▁���ͣ���	-12.2031
�;���	-12.2034
õľ	-12.205
����׶��	-12.2069
��£�˵��������	-12.207
���¶���	-12.2082
▁�˸�	-12.2088
▁���˷������	-12.21
����𴦻���������	-12.2104
▁��������ʹ�����	-12.2108
���¡����	-12.2108
▁�����1	-12.211
��̾�˿�����	-12.2111
▁�˴�	-12.2116
�������	-12.2121
ʿ����	-12.2122
������ͯ��	-12.2123
�޳���	-12.2127
�˼��������	-12.2141
▁˼�	-12.2163
�°����	-12.2165
ȥ̽	-12.2168
������	-12.2168
���»�	-12.2169
��̧�	-12.217
͹�����	-12.2171
ɱȴ	-12.2172
�̨����	-12.2173
▁Ī	-12.2181
˺����	-12.2185
�̵��	-12.2187
▁���𴦻�	-12.2195
�����	-12.2195
̹�����	-12.2205
▁�˶���	-12.2222
�̾������	-12.2224
�߼���	-12.2233
▁����	-12.2235
▁̷	-12.2236
��޹��	-12.2237
̾����	-12.2238
��̤���	-12.2239
��⵱��	-12.2241
����򻰣��	-12.2247
���׼�����	-12.225
��˼�����	-12.2252
����𴦻���	-12.2253
�����̫	-12.2262
󺹣����	-12.2265
�񺫱��	-12.2276
�����˹	-12.2283
��ٰ���	-12.229
��̺����	-12.2311
ׯ	-12.2312
ȷȻ	-12.2343
�������̫	-12.236
�𴦻����	-12.2363
�˵�������	-12.2367
鸽	-12.238
.	-12.238
檣	-12.238
滨	-12.238
赶	-12.238
䴫	-12.238
볣	-12.238
㴦	-12.238
佱	-12.238
屨	-12.238
湥	-12.238
粵	-12.238
缱	-12.238
罭	-12.238
롢	-12.238
뱳	-12.238
힅	-12.238
续	-12.238
羵	-12.238
벩	-12.238
�������𻰡�	-12.238
Ư	-12.238
Ǧ	-12.238
▁́μ	-12.238
⣻	-12.238
ⲽ	-12.238
ⶫ	-12.238
ⶴ	-12.238
㷨	-12.238
䴦	-12.238
大	-12.238
幫	-12.238
沿	-12.238
볡	-12.238
뷴	-12.238
췴	-12.238
𣿲	-12.238
𷢺	-12.238
򾸡	-12.238
֭	-12.238
Ὥ	-12.238
ⷴ	-12.238
㹫	-12.238
氮	-12.238
鷳	-12.238
뷿	-12.238
빫	-12.238
춼	-12.238
콻	-12.238
Ŧ	-12.238
Ắ	-12.238
ⴸ	-12.238
㱣	-12.238
㲽	-12.238
䱼	-12.238
䳤	-12.238
椶	-12.238
泤	-12.238
鲼	-12.238
ꡢ	-12.238
꣨	-12.238
괺	-12.238
꺢	-12.238
룩	-12.238
�໤����	-12.238
�⴦���	-12.238
���࿹��	-12.238
��򣬼��	-12.238
��򱱣���	-12.238
�򰡣��	-12.238
𡢹	-12.238
汻	-12.238
u	-12.238
ٮ	-12.238
㷣	-12.238
彭	-12.238
梡	-12.238
澪	-12.238
飻	-12.238
룿	-12.238
뱻	-12.238
츴	-12.238
�	-12.238
𡣿	-12.238
淢	-12.238
꣺	-12.238
뽻	-12.238
Ҩ	-12.238
㿳	-12.238
涨	-12.238
꾡	-12.238
쬵	-12.238
컯	-12.238
�򵽡�	-12.238
㶾	-12.238
革	-12.238
﷽	-12.238
ᰲ	-12.238
糱	-12.238
غمم	-12.238
̻Ի	-12.2381
���޶˵	-12.2382
çç	-12.2385
�����󺹣���	-12.2389
ʾ��������	-12.239
��޳	-12.241
��1⁄2ׯ��	-12.2411
ҽ̵	-12.2413
ͥԺ	-12.2421
߸߰	-12.2422
��̸����	-12.2428
▁ѩ	-12.244
���ʿ�	-12.2441
���޿	-12.245
����𴦻�����	-12.2453
�๥��	-12.2462
�����˸���	-12.2465
�«����	-12.2465
▁ѽ	-12.2469
��˴�����	-12.247
��߻���	-12.2479
󺹶��	-12.2479
oŽ	-12.2479
▁�����񺫱��	-12.2485
һͨ	-12.2488
▁��̨��	-12.2496
▁�����̵��	-12.2498
ʺ�����	-12.2499
߸ߵ	-12.25
ػش	-12.2501
▁���˸�	-12.2513
▁���£����	-12.2521
�⵺����	-12.2535
�̶�	-12.2536
�������1⁄4�	-12.2538
�ͣ�����	-12.2546
������ˬ	-12.2549
˻����	-12.2555
׳־	-12.256
���̺	-12.2564
򣬺	-12.2565
����������	-12.258
̨	-12.2583
̫	-12.2586
򹷰��������	-12.2588
���᲻	-12.2592
̷�	-12.2595
԰׵���	-12.2597
��1�����	-12.2609
̻���	-12.2614
߻�	-12.2615
���1⁄2ׯ��������	-12.2619
����÷	-12.2628
�������˱	-12.2636
▁���������������	-12.2645
ǺȾ	-12.2645
▁�˺���	-12.2657
̨���	-12.2666
������̩	-12.2669
��˸����	-12.2686
�����˭�����	-12.2692
˭����	-12.2696
▁���̡�	-12.2715
▁ץ	-12.2724
��1⁄2ׯ	-12.2726
�����˳�����	-12.2734
▁�˽�	-12.2751
�˾����	-12.2756
���̣��	-12.2784
��������	-12.2795
1⁄2ׯ��������	-12.2802
���3��	-12.2807
������԰����	-12.2815
�˽����	-12.2837
��ࡣ	-12.2839
�������׵	-12.2849
���̴�	-12.2856
▁˼	-12.2866
ɹs	-12.2867
�̺���	-12.2876
˶˵�	-12.2882
ԲԲ	-12.2901
������˹�	-12.2907
ǵø	-12.2922
�̱��	-12.2923
�໥�	-12.293
����������	-12.2933
����಻	-12.2933
߻	-12.2939
󾪣�������	-12.294
������󺹣�	-12.2951
�������޶	-12.297
��ٰ�������	-12.297
▁�����޹	-12.2973
���޲�	-12.2976
��๥�	-12.2976
����̨���	-12.2981
���̫��	-12.2982
̬���	-12.2989
���˯��	-12.3015
▁�����𴦻���	-12.3015
���񣬹���	-12.3017
Ͼͻ	-12.3036
�����׵	-12.3038
��̤�	-12.3047
Ƶĺ	-12.3055
׼�����	-12.306
▁�޲���	-12.3062
�˵�˵����	-12.3071
���������	-12.3074
▁���˽�����	-12.3077
���˵�������	-12.3083
▁������⬼	-12.3109
����׽���	-12.3112
▁����ʹ����	-12.3136
�¡¡	-12.3138
����̾	-12.3149
ָץס	-12.3151
���͹	-12.3158
�̧�	-12.3171
�������	-12.3173
▁����̾���������	-12.3177
▁��˼����	-12.3182
���̽	-12.3185
�𴦣��	-12.3197
���÷�����	-12.32
�����˽�	-12.3201
▁˯	-12.3201
��񡣻��	-12.3212
▁˼���	-12.3228
ʹ˶��	-12.3232
▁�˿��	-12.3236
��﷢���	-12.3238
����˽��	-12.3242
▁��������	-12.3256
����ʿ���	-12.3263
����	-12.3273
󼱣��	-12.3284
�̣�������	-12.3316
������๫���	-12.3324
▁��˵�����	-12.3326
▁��ׯ��	-12.3327
▁�����˱	-12.3328
�໥��	-12.3334
�����3⁄4	-12.3336
�̽����	-12.3336
�ʹ��������	-12.3352
������1⁄2�	-12.3355
ŵõ	-12.3366
������	-12.3368
▁���˼����	-12.3374
үҲ	-12.3376
�����	-12.3378
��˯���	-12.3378
▁����̸��	-12.3384
ʿ�����	-12.3385
▁¥��	-12.3386
▁ͬ�	-12.3388
����˭�	-12.3404
�����«�	-12.3405
▁�ʹ�	-12.341
������˼��	-12.3418
▁���˿�	-12.3419
̼���	-12.3422
ࡣ����	-12.3431
͸�����	-12.3439
����������	-12.344
▁�̲�	-12.3446
�����ʿ	-12.3449
�������˴��	-12.3474
�����ͧ	-12.3479
�����޶���	-12.3487
�׻�����	-12.3497
�޲���	-12.3501
▁1⁄2�˷���	-12.353
�������̵	-12.3535
▁����˯��	-12.3536
����÷����	-12.3545
˦���	-12.3557
����̿	-12.3561
�ׯ��	-12.3568
����˵�����	-12.3576
����΢�	-12.358
��򣬲�����	-12.3605
�̤��������	-12.3613
��⴬�	-12.3631
�󣬲���	-12.3635
������������	-12.3636
�����΢�	-12.3655
▁���˻�	-12.3661
�˥��	-12.3663
����¶	-12.3685
���˽����	-12.3687
���˴󾪣�	-12.3688
ʹ�������	-12.3704
▁������ʹ����	-12.3705
���	-12.3711
��ͭ����	-12.3712
ͥ	-12.3714
▁¥	-12.3724
Ǹõ	-12.373
��᣿��	-12.3732
���򣺡���	-12.3737
��	-12.374
�£���������	-12.3753
���𴦻������	-12.3765
߼�	-12.3767
ؽ̵	-12.378
�1⁄4���	-12.379
򲻹����	-12.3798
��������	-12.381
�󣬵���	-12.3811
�߽��	-12.3812
▁��ʿ	-12.3827
���޼	-12.3855
��������޴�	-12.3857
���̼�	-12.3883
����	-12.3896
���޷	-12.3897
˵�˰��	-12.3898
��޳�	-12.3906
▁�̵	-12.391
������̲	-12.3928
▁̧ͷ	-12.393
����¡���	-12.3931
������	-12.3933
��������˵��	-12.3935
▁���߽����	-12.3942
▁ͯ	-12.3943
����ͤ���	-12.395
�󷨣��	-12.3952
˧�����	-12.397
������¥	-12.3991
�̽���	-12.4002
���̷	-12.401
�𳤽�������	-12.4022
▁˯���	-12.4025
▁��˭�	-12.404
��̲��	-12.4046
	-12.405
���𻰣����	-12.407
���£�������	-12.4071
𻰣���	-12.4071
▁���£���	-12.4074
��˵����������ͯ��	-12.4084
̫̫	-12.4091
�����˵�������	-12.4111
��̫���	-12.4124
��׸����	-12.4139
▁Ū	-12.4149
▁Ȱ	-12.4154
�	-12.4164
����׵	-12.4168
ЩС	-12.4173
��׵����	-12.4181
▁�£�����	-12.4187
�����������ٰ����	-12.4201
�����ͯ����	-12.4209
̵�����	-12.4237
▁�¡������	-12.4239
�������1���	-12.4241
������������	-12.4249
⿪	-12.4252
�������˹�	-12.426
�ʽ���	-12.4266
������¥�	-12.4268
ҪѰ	-12.4268
��������	-12.4269
���׼	-12.4271
����»�����	-12.4272
��˵�����������	-12.4287
�ʻ�	-12.429
�޻��	-12.4296
����	-12.4298
�����ͬ�	-12.4304
󺧣����	-12.4305
�ͥ�	-12.4306
�����޻��	-12.4325
��̸���	-12.4326
▁ͬ	-12.4328
����˿���	-12.4331
�������˰��	-12.4332
����޺	-12.4335
�򣬲�	-12.4356
���̨�������	-12.436
�񡣡����	-12.4369
��	-12.4381
����¿��	-12.4398
�������ʹ	-12.4403
��̬���	-12.4412
▁��ͨ������	-12.4418
��������	-12.4425
▁�������߽����	-12.4431
�񣬻���	-12.444
��1����	-12.4441
ʧȥ	-12.4446
▁��	-12.445
¥���	-12.4451
���׽�	-12.4452
���»��	-12.4454
�����	-12.4457
�͡���	-12.4466
�̥����	-12.4468
����˱���	-12.4473
�˭˵�	-12.4477
�๫���	-12.4485
▁�������˶���	-12.4486
�ʺ����	-12.4488
�򡣹������	-12.4496
˥���	-12.4509
˹����	-12.4511
ŵĵ	-12.4511
���̤�	-12.4514
ͦ�����	-12.455
�����ʹ���	-12.4552
▁�ͣ�	-12.4559
������	-12.4559
��˱������	-12.4563
���������	-12.4573
���ʽ	-12.4581
��˰׵	-12.4581
�����׾���	-12.4587
ׯ���	-12.4598
õĵ	-12.46
�ࡢ����̨���	-12.46
�򹷰����	-12.4602
�������̩	-12.463
�󺹣��	-12.4634
Ĺǰ	-12.4643
�����˵�����	-12.4645
▁��˵�����	-12.4645
����˼�˵��	-12.4656
���̽��	-12.4664
����޷��	-12.4671
��񣬺�	-12.4672
������˭˵�����	-12.4673
����̾��������	-12.4678
���̤����	-12.4679
�񣿡���	-12.4696
������˵�������	-12.4696
��������	-12.4699
ɵĸ	-12.4705
���;�	-12.4706
�׾��	-12.4711
����ʹ������	-12.4714
�˵�˵�������	-12.4717
��¶���	-12.4718
▁����¥	-12.4718
3⁄4��	-12.4722
▁���˵�	-12.4742
��໥��	-12.4744
����̥����	-12.4752
����׾�	-12.4766
�񣬿	-12.4772
�����±��	-12.4778
▁б	-12.4785
ǻɻ	-12.4789
�ͯ�	-12.4801
����1⁄4��	-12.4807
����˯�	-12.4816
�ͥ���	-12.4817
▁��ˮ��	-12.4817
�򣬽����	-12.4821
▁���˸���	-12.4823
΢����	-12.4824
������	-12.4827
�͢�	-12.4831
�������ʿ	-12.4835
���󷨣�	-12.4844
¶���	-12.4851
ֵֵ	-12.4861
©���	-12.4865
�󣬱���	-12.4865
����˾����	-12.4871
�˭���	-12.4875
�2������	-12.4882
�3⁄4����	-12.4883
˭���	-12.4885
▁�¿	-12.4897
Ƶľ	-12.4897
▁���˴	-12.4905
�����⹦��	-12.4906
�������̶������	-12.491
�˶������	-12.4923
��̱���	-12.4925
�����1⁄4���	-12.493
̻����	-12.493
��׺	-12.4932
������˺���	-12.4932
�����ͬ����	-12.4934
�«���	-12.4935
�����;�	-12.4942
�������	-12.4967
���᲻�	-12.4973
£�����	-12.4981
��˵�������	-12.4991
�˸������	-12.4992
▁�����£�	-12.4993
������޴	-12.4995
�߻	-12.5004
�����ˮ�	-12.5015
���޵�	-12.5018
����	-12.5021
�󣬹������	-12.5024
ʺ����	-12.5028
�����૵	-12.5029
�¡�����˵�	-12.5034
���2	-12.5039
▁÷	-12.5045
±	-12.5058
���������	-12.5064
����˺��£�	-12.5077
▁���׽	-12.5092
▁˼������	-12.5096
��˶����	-12.5096
��¡��𴦻��	-12.5111
��򣬱��	-12.5113
��������1���	-12.5118
��ͣ�������	-12.5119
▁����̾��������	-12.5123
�˵�����������	-12.5134
˵�˵���	-12.514
ִס	-12.5145
�ͣ�˽	-12.5147
���ͦ	-12.5151
���̾��������	-12.5152
���˸����	-12.5152
▁̧������	-12.5159
����ࡢ����̨�����	-12.5174
���򻰣���	-12.5197
͹����	-12.5212
����������ͯ�	-12.5212
▁�����𴦻������	-12.5212
▁�˷	-12.523
����̲	-12.5261
����	-12.5267
��󡹦��	-12.5272
�󣬴���	-12.5277
ȵľ	-12.5283
󴬡��	-12.5291
▁״	-12.5294
���˶����	-12.5297
�����̫�	-12.53
��԰���	-12.5314
▁������̤�	-12.532
���̷��	-12.5324
˺���	-12.533
��̽����	-12.5331
�����	-12.5339
���ͦ��	-12.5363
▁Χ	-12.5375
▁ʹ	-12.5377
���߿���������	-12.5399
▁���˵��	-12.5416
���������	-12.5419
޽����	-12.542
��׻	-12.5421
����÷�������	-12.5424
▁�˶�����	-12.5443
˻���	-12.5447
���˵���������	-12.5458
�������񣬵����	-12.5458
▁��˼��������	-12.5472
����˿������	-12.5483
��׷����	-12.5485
��������΢	-12.5495
���	-12.5496
▁1⁄2�˷����	-12.55
�򲻹����	-12.5504
�޹���	-12.5512
̴	-12.5513
▁�����	-12.5515
��⿪����	-12.5516
���˳�����	-12.552
�޹�����	-12.5528
��������˵����	-12.5531
��񣬾����������	-12.5535
����¥���	-12.5547
����������	-12.5547
��1⁄4��	-12.5548
▁���3⁄4	-12.5554
�򲻹�	-12.5583
����3⁄4������	-12.5585
������˺��	-12.5587
����¥�	-12.5607
׿	-12.5609
��޶��	-12.563
▁�򡣡�	-12.5635
�̲	-12.5638
��߾��	-12.564
�޵���	-12.5672
���˹����	-12.5672
̶	-12.5685
�¥���	-12.5705
ل	-12.5713
㽲	-12.5713
涷	-12.5713
粨	-12.5713
裺	-12.5713
觺	-12.5713
鳣	-12.5713
뻨	-12.5713
滻	-12.5713
سخى	-12.5713
ధ	-12.5713
ණ	-12.5713
ᡰ	-12.5713
▁̩����	-12.5713
㯣	-12.5713
秵	-12.5713
缲	-12.5713
쳱	-12.5713
������󡣹�����	-12.5713
�����򶫶�	-12.5713
��󡱵�	-12.5713
򱧲	-12.5713
ᡶ	-12.5713
⺷	-12.5713
㾸	-12.5713
粢	-12.5713
鼤	-12.5713
붫	-12.5713
뷳	-12.5713
빥	-12.5713
빪	-12.5713
뺦	-12.5713
���ꣿ��	-12.5713
b	-12.5713
î	-12.5713
ɧ	-12.5713
Ԣ	-12.5713
ثي	-12.5713
ږ	-12.5713
༦	-12.5713
ྫ	-12.5713
ᵯ	-12.5713
Ⲽ	-12.5713
㰵	-12.5713
㴫	-12.5713
㹳	-12.5713
㹷	-12.5713
㹻	-12.5713
㻬	-12.5713
䡭	-12.5713
似	-12.5713
塯	-12.5713
屻	-12.5713
岽	-12.5713
梱	-12.5713
汼	-12.5713
涫	-12.5713
潭	-12.5713
綯	-12.5713
纱	-12.5713
缸	-12.5713
辡	-12.5713
長	-12.5713
顱	-12.5713
飺	-12.5713
鱾	-12.5713
鶫	-12.5713
鿴������	-12.5713
ꡱ	-12.5713
깫	-12.5713
룡	-12.5713
밮	-12.5713
봹	-12.5713
붥	-12.5713
뾡	-12.5713
칫	-12.5713
콣	-12.5713
�᳦��	-12.5713
𡣶	-12.5713
񱳣�����	-12.5713
ᄀ	-12.5713
ᣡ	-12.5713
ḻ	-12.5713
ῴ	-12.5713
繷	-12.5713
�񹦵�	-12.5713
Ĥ	-12.5713
ආ	-12.5713
ᾣ	-12.5713
ᾭ	-12.5713
㰤	-12.5713
㽻	-12.5713
㾪	-12.5713
䰵	-12.5713
䴬	-12.5713
䶯	-12.5713
佻	-12.5713
奵	-12.5713
嶫	-12.5713
溦	-12.5713
滭	-12.5713
紺	-12.5713
羪	-12.5713
衱	-12.5713
賤	-12.5713
赽	-12.5713
钵	-12.5713
鴬	-12.5713
黫	-12.5713
곤	-12.5713
롱	-12.5713
졷	-12.5713
쵰	-12.5713
쵵	-12.5713
캦	-12.5713
�������	-12.5713
�𾴣���	-12.5713
�񲻳����	-12.5713
𡣷	-12.5713
𵶻	-12.5713
򿪰	-12.5713
󺹳	-12.5713
ꡯ	-12.5713
캮	-12.5713
캹	-12.5713
׷׸	-12.5713
ك	-12.5713
ಢ	-12.5713
ൢ	-12.5713
༸	-12.5713
⺦	-12.5713
㵭	-12.5713
㶮	-12.5713
俪	-12.5713
屳	-12.5713
嶼	-12.5713
干	-12.5713
桯	-12.5713
涾	-12.5713
矛	-12.5713
翪	-12.5713
赸	-12.5713
踾	-12.5713
轣	-12.5713
鼫	-12.5713
깱	-12.5713
꺮	-12.5713
뱸	-12.5713
�鿴�	-12.5713
𶷣	-12.5713
򵹿	-12.5713
㷡	-12.5713
嵭	-12.5713
洦	-12.5713
漲	-12.5713
뾹	-12.5713
ⵡ	-12.5713
㱧	-12.5713
㷽	-12.5713
䵭	-12.5713
粽	-12.5713
糾	-12.5713
踳	-12.5713
뱱	-12.5713
콵	-12.5713
�󲻸	-12.5713
Ӭ	-12.5713
췿	-12.5713
鼦	-12.5713
��̺���������	-12.5714
جم	-12.5715
̰��̰	-12.5715
��1⁄2󣬽	-12.5716
��˹��͹�	-12.5722
�߻�	-12.5724
�¥����¥���	-12.5725
������¶΢	-12.5727
���˽������	-12.573
��˭	-12.573
�������׹�	-12.5733
��¿���	-12.5733
կկ	-12.5739
�󣬵������	-12.5739
���������	-12.5743
�׷׽	-12.5747
ʹ�¶��	-12.5747
ͣ�������	-12.575
▁�����󺧣�	-12.5751
����̨��	-12.5752
�˵�˳�����	-12.5758
��ʹ���򹷰��������	-12.5759
⵶	-12.5763
̶ִ	-12.5766
���̼	-12.5774
�����޾�	-12.5781
����������ͯ���	-12.5783
ȰȰ	-12.5796
������¡���	-12.5796
���󡹦��	-12.5812
▁�಻�	-12.582
���԰�	-12.5828
�����»����	-12.5838
��񡣺��	-12.5842
��·�˺�	-12.5843
Ⱥħ	-12.5844
����̰�	-12.5845
�����𴦻�����	-12.5849
¿	-12.5849
ڲر	-12.5854
���򣺡����	-12.5872
ȾƲ	-12.5874
��ͨˮ	-12.5884
���������˵	-12.5886
��¡���˵�	-12.5891
�£���������΢��	-12.5897
������˹��	-12.5899
���𴦻���������	-12.59
�̼����	-12.5903
���������˭����	-12.5912
·��������	-12.5918
▁�񡣡�	-12.592
�������򣬾������	-12.592
�޵����	-12.5923
▁��̾������	-12.5927
ŵĺ	-12.5929
1⁄2��	-12.5931
�������⸱������	-12.5935
▁��	-12.5939
��׷׷��	-12.5941
̨ǰ	-12.5943
▁Ĭ	-12.5945
▁����̨���	-12.5951
̷	-12.5959
��߿��	-12.596
�����𴦻���	-12.5961
¿��	-12.5962
����������	-12.5967
�׻����������	-12.597
�򵹣��	-12.5973
���񿥣�	-12.5976
��ͭ�׷	-12.598
▁��ͨ�����	-12.5981
�̾���	-12.5986
▁˵�˵��������	-12.5995
����1��	-12.5998
▁ʹ����	-12.6015
��׸	-12.6019
▁�¡��	-12.6019
�ͬ������	-12.6024
���˵�����	-12.6042
▁˭�	-12.6045
������˳�	-12.6056
���ٰ��	-12.6071
���̳������	-12.6075
��������	-12.6079
���̲	-12.608
▁��������	-12.6095
�«�	-12.6096
Ȳŵ	-12.6097
̼䣬	-12.6098
��»���	-12.61
1⁄2ׯ������������	-12.6109
▁ʿ��	-12.6112
ҽӿ	-12.6113
▁�����������˼��	-12.6114
▁̸	-12.6121
���׵�	-12.6128
ִַ	-12.6138
÷��������	-12.615
�̾�˿�����˵������	-12.6166
▁Ȫ	-12.6169
���﷢��	-12.6176
޻�����	-12.618
ùŹ	-12.6183
���˵��̫�	-12.6187
���򣺡��������	-12.6192
����񣬵������	-12.6196
�󺹣�	-12.6202
▁��̨���	-12.6211
����˽�����	-12.6211
▁ͭ�	-12.6215
����˭���	-12.6224
��������˳	-12.6225
Ƶó	-12.6225
�������̹�	-12.6226
�񣬴�	-12.6226
�������ͣ����	-12.6229
�˵�˵�����	-12.6241
���಻��	-12.6242
󣬳	-12.6249
▁�׶��	-12.6252
���2�	-12.6255
�����������	-12.6262
▁�����	-12.6265
̨������	-12.6274
�����׹�	-12.6274
▁̽���	-12.6281
�����˵�������	-12.6296
��໥�����	-12.6298
����಻�����	-12.6305
�����	-12.6305
�˳ˮ���	-12.6315
�±������	-12.6321
▁�±	-12.6322
▁�����˹���	-12.6328
���ʺ����	-12.6333
������̯	-12.6334
߻���	-12.6338
׵�˵	-12.6339
▁�̣��	-12.634
׮�	-12.6356
▁̾��	-12.6375
ɳɳ	-12.6381
▁�˶	-12.6388
��⵶���	-12.6392
���޵��	-12.6401
▁׽��	-12.6401
��𴦻��������	-12.6405
▁�߽	-12.6409
�£�˵����	-12.6411
����	-12.6414
▁̤��	-12.6423
▁�˾��	-12.643
������˶	-12.6439
▁�͸��	-12.6443
Ƶij	-12.6444
���ʻ��	-12.6455
�͹���	-12.6456
����׸����	-12.6461
£����	-12.6465
��3⁄4�����	-12.6465
▁����	-12.6466
▁Ϫ	-12.6471
񲻶����	-12.6475
����������	-12.6481
�1⁄2ׯ��	-12.6487
Ļƺ	-12.6491
˴�����	-12.6493
�̡��	-12.6507
�򣬷���	-12.652
̤��������	-12.652
̥	-12.6539
����������	-12.6563
▁��÷������	-12.6567
��˷����	-12.6568
𴦻�΢΢	-12.6578
���ˮ���	-12.6581
����⸱	-12.6583
����˼����¡���	-12.6583
▁�������	-12.6591
▁�������������	-12.6598
▁�����˴	-12.66
▁�򹷰������	-12.6608
мв	-12.6619
�������⬼	-12.6624
��򣬾�	-12.663
˥�����	-12.6641
̨Ҳ	-12.6656
·����������	-12.6667
������̾��������	-12.6672
õķ	-12.6672
������˾	-12.6679
▁����	-12.6691
▁˺�	-12.6701
�������̹�������	-12.6702
ǿɵ	-12.6709
����԰��	-12.6727
��������˰	-12.6729
��������˺�	-12.6734
���ˮ����	-12.6742
���׽��׽�����	-12.6751
▁���������˴��	-12.676
�˾�������	-12.6761
▁ʾ�	-12.6769
���˿���	-12.6777
����׺��	-12.678
׷������	-12.6792
▁�޵�	-12.6792
���̻	-12.6808
����ʽ����	-12.6825
�򳤣��	-12.6825
�����	-12.6849
�𻰣����	-12.685
▁��������ˮ��	-12.685
԰׵�	-12.6853
ĹŹ	-12.6859
▁�������˹��	-12.6888
������������ͯ	-12.6891
���˺�����	-12.6902
▁ͨ��	-12.6904
▁���˼��	-12.6907
���߽�������	-12.6914
�˾������	-12.6916
˴�ʹ���	-12.692
���1⁄4�	-12.6921
�����˱�	-12.6939
ٰ�������	-12.6948
▁�������׵	-12.6968
�̣��������	-12.6968
���˰׵�������	-12.6999
�����⹦���	-12.7
�޾��	-12.701
������󺹣�����	-12.702
▁���¡���	-12.7027
߻�����	-12.7034
������˵������	-12.7035
�����1	-12.7035
���ʹ������	-12.7043
�˧�	-12.7044
▁�˱���	-12.7047
���𶯣�������	-12.705
���˵�	-12.7057
����̾��	-12.7059
�������¡�	-12.7081
▁���߽���	-12.7088
���񣬴���	-12.7092
��򡣹������	-12.7097
▁���������	-12.7099
����	-12.71
��������޵	-12.7108
����˷	-12.711
�˲�����	-12.712
��׽����	-12.7123
�������̫��	-12.7131
дҴ	-12.7133
�̨������̨��	-12.7138
▁����̧�	-12.7139
▁��ʹ���	-12.7142
���˼˵	-12.7149
▁Ť	-12.716
▁���������˴�����	-12.7163
������̸	-12.7163
▁���˰���	-12.7166
⬼	-12.7168
�̻����	-12.7174
▁˵���������	-12.7182
����߽��	-12.7183
������޵	-12.7191
˦�������	-12.7193
»�	-12.7204
ɵú	-12.7206
�񡣡�	-12.721
��󣬻	-12.7223
�󲻾������	-12.7243
��˲����	-12.7255
���ࡣ	-12.7267
▁·�	-12.7271
��޴����	-12.728
ʼ���	-12.729
▁̄��	-12.7293
���޸	-12.732
಻���	-12.7328
����2��̣���	-12.7332
�޳�����	-12.7339
�󺹱���	-12.7346
�����˾��	-12.7346
▁�˼��	-12.7346
▁����˵�������	-12.7347
▁�������˹�	-12.7357
▁���޼	-12.7361
▁���˲�����	-12.7363
�����׽	-12.7386
�ʻ���	-12.7386
���󣬹�	-12.7412
������̲�	-12.7414
1⁄2���̶���	-12.7415
▁�����𴦻��	-12.7415
�����򲻵	-12.7417
����������񣡡���	-12.7424
��򣬱���	-12.743
���������˵�	-12.7431
▁��������	-12.7443
���⹫�	-12.7451
▁�����������	-12.7472
����¿�	-12.7475
����»	-12.7479
�����̷���	-12.748
���޳�	-12.7483
������˵�����	-12.7485
�����ͬ���	-12.7486
▁̄����	-12.7492
����ˮ���	-12.7494
����ʺ����	-12.7496
���������	-12.7508
�׷׵��	-12.7522
▁÷��������	-12.7524
����������˼	-12.7529
���׵���	-12.753
԰׵��	-12.7545
����׷��	-12.7547
▁�����˰��	-12.7557
����⬼���	-12.7562
▁�͹�	-12.7562
�ʾ���	-12.7575
��޲����	-12.7576
󼱣�����	-12.7577
°��	-12.7586
��˽��	-12.7587
����	-12.7587
▁���	-12.759
�����ˮ	-12.7592
��������ˮ	-12.7598
▁��������̫��	-12.7619
�׵�����	-12.763
▁���˻��	-12.763
▁�˾	-12.7633
���̹������	-12.7634
õĹ	-12.7637
��򹷰��������	-12.7643
��޾�	-12.7645
�������	-12.7653
�򲻵����	-12.7656
��������°���	-12.7665
▁����¥�	-12.7668
▁������������	-12.7693
��˯	-12.7694
��˴󹦣��	-12.7697
���񣬺�������	-12.7702
޿	-12.7703
▁�ٰ���	-12.7713
��⵺�	-12.7719
��������๫���	-12.7721
ɵÿ	-12.7724
̱	-12.7726
�������������	-12.7741
�����̡�	-12.7744
�׿���	-12.7751
ƺȵ	-12.7756
�����񣬺	-12.7756
�����̡���	-12.7768
▁���޲���	-12.778
����ˮ����	-12.779
�˴��£��	-12.7792
����£�����	-12.7794
▁�����󾪣���	-12.7801
▁����ˮ��	-12.7801
▁�����˳	-12.7809
��˵��˵�	-12.781
����3⁄4�	-12.7815
򣬵������	-12.7815
�������¶	-12.7828
����󣬷�	-12.783
▁�3⁄4�	-12.7834
򹷰�����	-12.7863
�����˾�	-12.7864
��񣬲��	-12.7864
��񶷣����	-12.7876
�����	-12.7879
�����󺹣�	-12.7902
̳���	-12.7904
������ͤ��	-12.7915
▁���˳�	-12.7922
���׹�	-12.7923
ѧЩ	-12.7927
����߾�	-12.7929
�����˱��	-12.793
򣬵�����	-12.793
���߿�	-12.7957
˵�˵�����	-12.7958
�򵹣�������	-12.7966
���������͡�	-12.7966
▁�˱��	-12.7969
▁������ʹ���	-12.7972
���̨������	-12.7984
����̹	-12.7986
���ˬˬ������	-12.7989
���	-12.7996
�����򻰣���	-12.7998
�����	-12.8002
����˵�˳��������	-12.8007
������˶���	-12.8016
���ͤ�	-12.8018
̨����	-12.802
��̰�	-12.8026
�ͨ̾����������	-12.8035
▁1⁄2�˷��	-12.8059
󣬶���	-12.8059
����˹���	-12.8068
��˲���	-12.8074
�������ͯ��	-12.8083
�����������	-12.8085
񣬲������	-12.8103
�������󣬺	-12.8104
���������˹�	-12.8105
���»���	-12.8117
˹�������	-12.8119
▁���׵	-12.8122
޺	-12.8123
▁ͦ�	-12.8125
�����⸱	-12.8132
̹��������	-12.8134
��������׺	-12.8135
�����߻�	-12.8136
���±��	-12.8148
������󺹡���	-12.8152
��̾���	-12.8167
�񣬴����	-12.8184
���1⁄2ׯ���	-12.8185
�󣬸��	-12.8193
▁������ͯ�	-12.8197
▁����̨����	-12.8207
Ǻȵ	-12.8218
▁����¥���	-12.8219
�������	-12.8221
�ࡢ��	-12.8236
▁�����𴦻���������	-12.8264
���ˬ�	-12.8264
▁ͬ��	-12.8269
�����1⁄2��	-12.8269
��÷�������	-12.8274
▁��1⁄2��	-12.8282
�·����·	-12.829
���������	-12.8297
���໥	-12.8298
�����	-12.83
����᲻	-12.8307
�£�˵������	-12.8307
▁���������޷�	-12.8313
̿͡�	-12.834
▁��ʿ�	-12.8347
▁���޵�����	-12.8357
▁ӡ	-12.836
��˺����	-12.8364
����	-12.837
���̰	-12.8373
▁��������ͦ����	-12.8373
����	-12.8377
�����˭��˭�	-12.8404
▁�𴦻����������	-12.8405
�̻	-12.8407
�̾�	-12.8422
޷���	-12.8427
˵���˴����	-12.8435
▁�޸��	-12.8454
�̷��	-12.8465
��°���	-12.8471
ˮ������	-12.8473
͸������	-12.8473
ʮö	-12.8474
▁����ͦ������	-12.8479
�̿͡���	-12.8481
������������	-12.8496
▁�	-12.8497
ʺ���	-12.8501
�����޶	-12.8502
����˥�	-12.8514
��򹷰������	-12.8522
�󣬱��	-12.8522
΢¶	-12.8526
▁����÷���������	-12.8536
���񣬿�����	-12.8536
▁1⁄2�	-12.8543
��߽��	-12.8545
������̵	-12.8545
��1⁄4���	-12.855
��̾�����	-12.8552
����ͯ����	-12.8553
������˽�	-12.8562
̵Ĵ	-12.8563
�������ʿ���	-12.8571
�2����������	-12.8572
�̽������	-12.8592
���޾�	-12.8608
��������	-12.8613
����⬼	-12.8616
���˲���	-12.862
����̫��	-12.8623
��򣬶����	-12.8632
������󣬱�	-12.8635
Ƶĵ	-12.8636
�ࡢ���	-12.8656
���˦�˳�	-12.8663
�1⁄2	-12.8664
������˴��	-12.8666
▁���2������	-12.8672
�������˵����	-12.8694
����󣬽��	-12.8697
ȥͨ	-12.8705
���������	-12.8706
����ͤ����	-12.8712
�������˻�	-12.8713
��˵��÷	-12.8719
׷׵��	-12.872
▁�˾�	-12.8722
���󺹣�	-12.8731
�򡭡���	-12.8739
�����������񣬱�	-12.874
��˸�����	-12.8741
�������˽	-12.8753
▁����˿����������	-12.8755
���̨���	-12.8761
▁����1⁄2�	-12.8778
�̾�˿���������	-12.88
�˺����	-12.8803
���߽����	-12.8826
̾�˿������	-12.8826
�˳�������	-12.8836
��������˺	-12.8837
������˼�˵���	-12.8846
�����̹	-12.8849
�󣬽��	-12.8854
�������	-12.8855
▁��ʹ�����	-12.8861
▁�׵�����	-12.8863
����򶫱���	-12.8867
���񲻶���	-12.887
��˼������	-12.8871
�������������	-12.8875
�󲡡���	-12.8878
��������������	-12.888
˲�����	-12.8885
▁����������	-12.8885
�̺����	-12.8888
ǵĹ	-12.8889
���󡹦������	-12.8901
▁�¡����	-12.8905
��3⁄4����	-12.8923
�����	-12.8929
��߿����	-12.8943
���¿	-12.8954
▁�£��������	-12.8964
�󣬱������	-12.8965
̫����	-12.8981
����󣬰���	-12.8992
▁��׷���	-12.8997
�׫�	-12.9005
񣬸������	-12.9005
▁͸��	-12.9008
����1���	-12.9017
�������޲	-12.9024
��������⬼	-12.9033
��������£�	-12.9035
������ʽ	-12.9039
�˵������˭����	-12.9042
▁�3����������	-12.9046
񣬾�������	-12.9055
��˭�����	-12.9056
���������	-12.9062
▁���3�������	-12.9067
�񻷣����	-12.9072
�̽�����	-12.9078
▁��̧��	-12.9084
����������˭	-12.9086
����������಻	-12.9106
�����󺧣�	-12.9107
��𻰣��	-12.9114
▁Ľ	-12.9129
�����ׯ	-12.913
˶�˵	-12.914
ƺò	-12.9147
̳����	-12.9154
����׺	-12.9159
▁�¡�	-12.9164
▁���±�����	-12.917
�򣬿���	-12.9171
▁�����»��������	-12.9172
����˻�����	-12.9175
▁˼���������	-12.9177
���⬼׵�	-12.9191
▁��̫��������	-12.9201
�ʽ�����	-12.9201
�̡�����	-12.9212
�����߽����	-12.9221
������̨������̨�	-12.9229
������˱	-12.9234
����׽��׽���	-12.9237
�򣬺�	-12.9238
ͦ���	-12.9246
�����󡣡���	-12.9257
��	-12.9261
͡������	-12.9265
▁˿������	-12.9292
���򵽣�	-12.9293
������ͭ�	-12.9302
▁���	-12.9302
���˵����������	-12.9308
�����ׯ���	-12.9314
�����˴��	-12.9331
��˵������˭��	-12.9333
�𻰣���	-12.9339
▁́��������	-12.934
�ٰ�������	-12.9354
���߿�����������	-12.9355
▁1⁄2ׯ������	-12.9368
���߽��	-12.9384
▁����������	-12.9388
�ˬˬ����	-12.9388
���¡��	-12.9396
���������¥	-12.943
�����⹦����	-12.9433
����1⁄2ׯ��	-12.9438
����ͤ�����	-12.9443
Ȼͣ	-12.9448
�񣬸��	-12.9465
�����������	-12.9465
򲻳	-12.9473
▁���������˳	-12.9493
��󽫣����	-12.9496
�˵�����	-12.9519
���͡������	-12.9525
▁�˲���	-12.953
▁�������˾	-12.9534
���͸���	-12.9541
񣬲�����	-12.955
�������	-12.9569
�����ࡣ	-12.9569
�󣬻��������	-12.9578
▁ͨ���������	-12.9578
▁����ˮ�	-12.9583
˾����	-12.9589
�����¶	-12.9596
������󣿡�	-12.96
�����̬��	-12.9616
𷨣����	-12.962
����2���	-12.9622
������˵���˵	-12.9631
▁Х	-12.9634
�����׽�	-12.9634
�׷�����	-12.9646
�򲻿��	-12.9647
▁�������	-12.9657
������˹�����	-12.9662
��̾���������	-12.9662
�����˽�����	-12.9673
�����˴	-12.9678
���񶷣���	-12.9685
�����÷��	-12.9686
����˳	-12.9697
���޷��	-12.9704
�����˯��	-12.9706
̲���	-12.9712
▁���˸������	-12.9744
▁�̴	-12.9745
▁��ͬ��	-12.9749
��˴˴�	-12.976
�̹���	-12.976
���ˮ��	-12.976
���̱����	-12.9762
�⻵�������	-12.9768
�����±���	-12.9784
��2���	-12.9785
▁�˹��	-12.9785
▁׷��������	-12.9791
▁˿�����	-12.9792
׾	-12.9794
��򡭡�����	-12.9801
����1�	-12.9812
▁�����˾	-12.9818
���������˼��£�	-12.9822
�����ͯ������	-12.9824
▁��÷�����	-12.9834
▁���2	-12.9837
▁��ʾ	-12.984
▁���������˷	-12.9841
▁��¶��	-12.9846
▁�������˱�����	-12.9863
▁��¥�	-12.9864
����԰�	-12.9882
��������˶���	-12.9885
��ͦ��	-12.9887
�������˸	-12.9888
�����	-12.9899
����̷���	-12.9914
����	-12.9916
����񡣻�	-12.9916
����޼	-12.9917
▁���˿	-12.9923
���˾����	-12.9934
�����߼�	-12.9944
������ͬ���	-12.9945
��󾱣��	-12.996
��������	-12.9973
���˭�����	-12.9976
԰������	-12.9976
�1����	-12.9979
�󣬾����	-12.9989
¡�����	-12.9995
▁�˾����	-12.9996
����������޼��	-12.9996
�̣�˵��������	-12.9999
▁�߻	-13.0014
����������˵�	-13.0015
ɦãȻ	-13.0017
�಻�	-13.0018
�������˦	-13.0021
▁�����£����	-13.0029
�����˯�	-13.004
�ͨ������˵����	-13.0046
�����˵������	-13.0048
▁·��	-13.0049
������̸��	-13.0051
���޽��	-13.006
����޻���	-13.0064
�󣬺���	-13.0076
▁��˭�������	-13.0082
������ʿ	-13.0093
�����󾪣�	-13.0098
��������⹦�����	-13.011
��׾�������	-13.011
����޳���	-13.0111
▁������̧��	-13.0117
�˻������	-13.0131
�����ʻ	-13.0142
˵�˻���	-13.0147
�˼��£��	-13.0159
���	-13.0164
����̤����	-13.0171
᣿���	-13.0179
���3⁄4���	-13.019
����ׯ��	-13.0196
Ĺĵ	-13.0221
󼱣�������	-13.0224
���˵��˵�	-13.0227
▁���������	-13.0232
▁�˿�������	-13.0235
▁�԰�	-13.0235
;�����	-13.024
���1�����	-13.025
	-13.0253
�޾���	-13.0263
������񣬷�	-13.0274
������̨��	-13.0274
�󣬼����	-13.0275
▁����ͬ���������	-13.0278
�����˭���	-13.0294
���⬼�	-13.0305
���̫�����	-13.0314
�������	-13.0315
���̷����	-13.0316
▁���˷�����	-13.0322
�󣬷	-13.0325
���������԰׵	-13.0326
������⬼׵	-13.0332
�˼��£����	-13.0345
�ˮ�����	-13.0347
����﷢��	-13.0347
�ʿ�������	-13.0359
���̿	-13.0368
▁�޵��	-13.0375
��������±	-13.038
�����򹷰��	-13.0385
񣬸	-13.0388
����󣬻�	-13.0401
���๫���	-13.0405
˺�����	-13.041
úý	-13.0414
�̫����	-13.0416
˥	-13.0422
���1⁄2ׯ������	-13.0444
����˿�������	-13.0463
�����޸	-13.0466
˼���������	-13.0466
�����������	-13.0479
�򵹣�����	-13.048
���󺹶�	-13.0491
�˺�ˮ	-13.0497
�˺��£��	-13.0499
���⵺�	-13.0504
�����˹�����	-13.0516
�������	-13.0518
�߼�����	-13.0522
▁�͡�	-13.0527
󣬷	-13.0539
▁�������˼��	-13.0545
��˸�����	-13.055
▁��������������	-13.0553
�򣬾�	-13.0554
�ʿ΢	-13.0555
▁��΢�	-13.057
��������̩����	-13.0574
ʹ˱�������	-13.0578
▁ʿ����	-13.0604
�����˦����	-13.0605
���򡣡�������	-13.0605
�����˦��������	-13.0605
¥����	-13.0607
����������	-13.0608
�������˾	-13.0617
޸����	-13.0638
���3⁄4����	-13.0638
▁���˷����	-13.0647
����1⁄2ׯ	-13.0656
󲻵�	-13.0658
�������ٰ�	-13.0663
▁���˱��	-13.067
����׼���	-13.0674
�������������	-13.0676
�����¡����	-13.068
��⻵	-13.068
▁�˸	-13.0683
��޲�����	-13.0685
���������	-13.0687
▁�𴦻�΢	-13.0696
�����������	-13.0699
i	-13.0711
󹦣�����	-13.0713
󻼡���	-13.0713
▁�����	-13.0713
K	-13.0713
Ҧ	-13.0713
ب	-13.0713
ف	-13.0713
ᡭ	-13.0713
潻	-13.0713
硯	-13.0713
籩	-13.0713
����	-13.0713
�񻰣���	-13.0713
▁́󾪣��	-13.0713
䰡	-13.0713
dzdz	-13.0713
ϭ	-13.0713
ը	-13.0713
ڧ	-13.0713
ࣨ	-13.0713
ॵ	-13.0713
ᱱ	-13.0713
ᵹ	-13.0713
Ữ	-13.0713
▁ͧ�	-13.0713
▁׫��������	-13.0713
ⰲ	-13.0713
ⵤ	-13.0713
⿦	-13.0713
㱦	-13.0713
㳤	-13.0713
㻺	-13.0713
㼥	-13.0713
㾢	-13.0713
䳡	-13.0713
乥	-13.0713
京	-13.0713
沢	-13.0713
漼	-13.0713
澰	-13.0713
繳	-13.0713
罣	-13.0713
香	-13.0713
鰲	-13.0713
齦	-13.0713
곯	-13.0713
굱	-13.0713
꼺	-13.0713
뺨	-13.0713
뻢	-13.0713
뾪	-13.0713
촫	-13.0713
쵲	-13.0713
��䷹����	-13.0713
���������඾�	-13.0713
�������󵨣�	-13.0713
������񲣬���	-13.0713
�����񣬼�����	-13.0713
�����󡣻���	-13.0713
���򶫣�������	-13.0713
��𳤵���������	-13.0713
�𷢳�������	-13.0713
�񹦣��������	-13.0713
󱲵	-13.0713
డ	-13.0713
ฺ	-13.0713
༫	-13.0713
ཫ	-13.0713
Ὺ	-13.0713
峣	-13.0713
顭	-13.0713
�޴󰭡����	-13.0713
���1⁄2󣬰������	-13.0713
��������������	-13.0713
������������	-13.0713
��󲮸�����	-13.0713
񶷡���	-13.0713
󺺵�����	-13.0713
Z	-13.0713
A	-13.0713
P	-13.0713
com	-13.0713
ijdz	-13.0713
q	-13.0713
®	-13.0713
Ǣ	-13.0713
ʉ	-13.0713
ή	-13.0713
Ы	-13.0713
܏	-13.0713
ࣻ	-13.0713
વ	-13.0713
౨	-13.0713
อ	-13.0713
ิ	-13.0713
ູ	-13.0713
༱	-13.0713
ྣ	-13.0713
ྲ	-13.0713
ྵ	-13.0713
Ử	-13.0713
Ự	-13.0713
Ἰ	-13.0713
ῳ	-13.0713
▁���	-13.0713
Ⱞ	-13.0713
ⰵ	-13.0713
ⰹ	-13.0713
⿴	-13.0713
㲡	-13.0713
㲩	-13.0713
㲿	-13.0713
㳡	-13.0713
㳢	-13.0713
㻳	-13.0713
㾲	-13.0713
䱳	-13.0713
䶥	-13.0713
乫	-13.0713
山	-13.0713
峯	-13.0713
桭	-13.0713
梵	-13.0713
洬	-13.0713
涥	-13.0713
湰	-13.0713
溮	-13.0713
漸	-13.0713
澢	-13.0713
簡	-13.0713
粨ͤ	-13.0713
紩	-13.0713
綤	-13.0713
縮	-13.0713
縿	-13.0713
繥	-13.0713
红ͯ	-13.0713
罥	-13.0713
羮	-13.0713
翴	-13.0713
趼	-13.0713
趾	-13.0713
辵	-13.0713
鵹	-13.0713
鶨	-13.0713
鸡	-13.0713
黳	-13.0713
齭	-13.0713
鿳	-13.0713
ꡭ	-13.0713
ꪸ	-13.0713
갫	-13.0713
갲	-13.0713
괩	-13.0713
꺫	-13.0713
꼸	-13.0713
롯	-13.0713
뼡	-13.0713
뼺	-13.0713
뽸	-13.0713
뿴	-13.0713
조	-13.0713
첿	-13.0713
컶	-13.0713
콥	-13.0713
�..	-13.0713
�ꣿ���������	-13.0713
�﷫��������	-13.0713
��˶񶷣�	-13.0713
��຦��	-13.0713
����	-13.0713
���˭�͸�˭�����	-13.0713
���̾�˼�������˵	-13.0713
���⳵���	-13.0713
�������	-13.0713
������������	-13.0713
������ᷳ��	-13.0713
�������˷׷׷	-13.0713
�������������	-13.0713
���󾱡������	-13.0713
��𾪰����	-13.0713
��𾴡�	-13.0713
��񽣣��̺���������	-13.0713
��򲢷�	-13.0713
�򣬱�������	-13.0713
�򵹡�	-13.0713
�󲡣�����	-13.0713
𣿺	-13.0713
𱸵	-13.0713
𵶣��	-13.0713
򱱱	-13.0713
򵽻���	-13.0713
򸾣�������	-13.0713
󱳣�������	-13.0713
󲻸��	-13.0713
󴬼	-13.0713
󹦿	-13.0713
󽫶���	-13.0713
ʁdz	-13.0713
ౣ	-13.0713
౧	-13.0713
Ᵽ	-13.0713
侫	-13.0713
跹	-13.0713
꺺	-13.0713
뼸	-13.0713
첹	-13.0713
췽	-13.0713
�������������񣬼�	-13.0713
�������󺹲�	-13.0713
������񱼡���	-13.0713
��񷨣���������	-13.0713
�񲻻����	-13.0713
dzɰ	-13.0713
Ѭ	-13.0713
Ѯ	-13.0713
صحح	-13.0713
౼	-13.0713
ಣ	-13.0713
ಲ	-13.0713
೤	-13.0713
༭	-13.0713
ᵱ	-13.0713
ᾢ	-13.0713
▁�򵽻�	-13.0713
ⶨ	-13.0713
㡰	-13.0713
㱡	-13.0713
㳩	-13.0713
㴲	-13.0713
㴳	-13.0713
㵡	-13.0713
㶤	-13.0713
㷫	-13.0713
㸮	-13.0713
㸹	-13.0713
㺮	-13.0713
䰮	-13.0713
䱾	-13.0713
䲩	-13.0713
丸	-13.0713
伤	-13.0713
伮	-13.0713
估	-13.0713
屾	-13.0713
廹	-13.0713
手	-13.0713
械	-13.0713
棻	-13.0713
汦	-13.0713
汮	-13.0713
沽	-13.0713
浹	-13.0713
淽	-13.0713
漰	-13.0713
澫	-13.0713
生	-13.0713
磺	-13.0713
簴	-13.0713
緭	-13.0713
羴	-13.0713
诣	-13.0713
赹	-13.0713
軨	-13.0713
轥	-13.0713
辢	-13.0713
顯	-13.0713
高	-13.0713
鱣	-13.0713
鴽	-13.0713
鵣	-13.0713
鵶	-13.0713
鷥	-13.0713
麹	-13.0713
괹	-13.0713
긻	-13.0713
껱	-13.0713
꿴	-13.0713
롮	-13.0713
밵	-13.0713
봫	-13.0713
뺢	-13.0713
뻮	-13.0713
뼤	-13.0713
쾭	-13.0713
	-13.0713
�⶯�������	-13.0713
��������	-13.0713
��˶��񣬼��	-13.0713
��䷢��	-13.0713
��	-13.0713
�������	-13.0713
�����޷޵	-13.0713
�����໨	-13.0713
�����໰˵����	-13.0713
������	-13.0713
������������	-13.0713
����������򡣻����	-13.0713
��������򶨣����	-13.0713
������񣬶�	-13.0713
�����񣬳�	-13.0713
����󲻿���	-13.0713
��񿪡�	-13.0713
��򡣺����	-13.0713
�󡣵����	-13.0713
�󶴣����	-13.0713
�󷨰	-13.0713
𣚣	-13.0713
𹷵	-13.0713
񲻼	-13.0713
򿪷	-13.0713
󲿷	-13.0713
󾱵	-13.0713
ᄇ	-13.0713
▁���������	-13.0713
㽹	-13.0713
فى	-13.0713
å	-13.0713
Ʀ	-13.0713
ԏ	-13.0713
ծ	-13.0713
ຣ	-13.0713
໶	-13.0713
ᰴ	-13.0713
ᱲ	-13.0713
ỹ	-13.0713
ᾡ	-13.0713
ⴳ	-13.0713
ⷭ	-13.0713
㳲	-13.0713
㷹	-13.0713
㹣	-13.0713
䴩	-13.0713
䶴	-13.0713
塭	-13.0713
崩	-13.0713
嶷	-13.0713
檵	-13.0713
汿	-13.0713
沨	-13.0713
浱	-13.0713
渹	-13.0713
籨	-13.0713
罻	-13.0713
羭	-13.0713
鵱	-13.0713
곾	-13.0713
긴	-13.0713
꽥	-13.0713
봳	-13.0713
뼱	-13.0713
챧	-13.0713
춨	-13.0713
	-13.0713
�����������	-13.0713
��󷨡���	-13.0713
�𷢣���	-13.0713
�򳤵������	-13.0713
�󽫵�	-13.0713
𡱣	-13.0713
𣿿	-13.0713
񶷵	-13.0713
󵱡����	-13.0713
󺹷	-13.0713
ǿɺõú	-13.0713
嶨	-13.0713
辭	-13.0713
邑	-13.0713
麣	-13.0713
뺮	-13.0713
뺺	-13.0713
뼫	-13.0713
�໨���	-13.0713
����񶾵	-13.0713
�񾱣�	-13.0713
ڨ	-13.0713
▁ͤ���	-13.0713
㻵	-13.0713
붯	-13.0713
죻	-13.0713
𡣲	-13.0713
Ⱨ	-13.0714
▁���˷׷����	-13.0714
�»�̥�����	-13.0714
جحي	-13.0714
�2¿�������	-13.0714
���̴̵������	-13.0714
˳𲻿	-13.0714
▁1⁄2���̶��˼��	-13.0714
��󽫳����	-13.0714
ʹ˲������׵�	-13.0714
ͤ��ͤ�	-13.0715
2�͸�����	-13.0715
�׵񣬺�	-13.0715
������׺͹�����	-13.0715
˴󴬣��	-13.0715
حي	-13.0715
������1��¿�	-13.0715
��˰˾	-13.0716
DzŽ̺	-13.0716
������̨	-13.0716
ͭ�׾���	-13.0717
�����3˹���������	-13.0717
▁̧����򻰣��	-13.0717
޴���ͭ��	-13.0718
������ׯ԰�	-13.0718
���������̬��	-13.0718
�׾͹�	-13.0718
▁÷������1⁄2�˷��	-13.0718
�����˧���	-13.0718
���̬������ͬ���	-13.0719
̿ͣ�����	-13.072
▁�˴��̣�	-13.0721
���޶˶�	-13.0722
˿̺��	-13.0722
����˷׷����	-13.0722
ࡣ���ࡣ��	-13.0722
����2���̨����	-13.0723
�������˾���ͦ��	-13.0723
¥��¥������	-13.0723
����ʿͦ�	-13.0723
������˶԰	-13.0725
���˷�2�	-13.0725
���1⁄2ׯ��΢	-13.0726
˺�ͨ���	-13.0726
��·�򹷰������	-13.0727
˹��򡣡��	-13.0727
���˺͹������	-13.0728
�»���˭����������	-13.0729
˭����˵����˵�����	-13.0729
������޵����	-13.0729
����˺ͣ�����	-13.0729
��������˽�	-13.073
�˱�ׯ	-13.0731
▁������΢	-13.0734
��˰�����	-13.0736
���˴��ࡣ�	-13.0737
�˼�����������	-13.0737
���2�͸���	-13.0737
▁�������	-13.0739
ʹ˲������	-13.074
������1˲���	-13.0741
�԰׷��	-13.0743
�͸¶�����	-13.0743
▁ͨ�������˿���	-13.0743
��̷���˱�	-13.0745
�޻�˵����	-13.0745
��˰̣�	-13.0746
���������	-13.0749
쳤̾	-13.075
▁�˼��¡�	-13.0752
�����˿���	-13.0752
�ͣ�̾����������	-13.0753
▁�����	-13.0754
��3⁄4��˸��	-13.0754
�����˷�ʼ�	-13.0754
���ʿ׽	-13.0754
�£�ͭ���	-13.0755
▁�򣬽������	-13.0756
���𴦻�����ͭ�	-13.0757
�¡�����ͭ��	-13.076
��˱������������	-13.076
▁�����񣡡�	-13.0761
ͬ��ͬ�	-13.0766
▁����˭���	-13.0766
��1⁄2�ʿ���	-13.0767
�󲻵	-13.0769
��»��˼�	-13.0769
��¶¶��	-13.0771
˲����߽��	-13.0774
�˼�����1⁄4�����	-13.0776
������3⁄4��̣�	-13.0776
▁��˵��������	-13.0777
���˾�����	-13.0777
��������޿	-13.0779
ľï	-13.0779
▁���˺��˼����	-13.0779
����ʹ�ٰ���	-13.078
����󣬵	-13.0781
▁�󷨣�	-13.0781
��̫�̣�	-13.0783
¡��������°������	-13.0783
ոմ	-13.0784
⵽	-13.0786
�̣����߽��	-13.0789
���̵�ʿ	-13.079
������߽�	-13.079
����3⁄4�ʿ�	-13.0791
▁�˺	-13.0791
�̣���������΢�	-13.0791
▁����̸̸˵˵�����	-13.0792
���˵�������׶�	-13.0793
ͣ�˵��������	-13.0793
�˼������	-13.0794
�����¶��΢	-13.0795
������񣬲�	-13.0798
���£��˺��������	-13.0799
̺����	-13.0799
��1����	-13.08
�޴˵��������	-13.08
��˭�	-13.0801
▁�����˴�	-13.0801
��׽���𴦻�������	-13.0802
׶��£����	-13.0803
��ʹ�	-13.0806
ͽ̻	-13.0809
������˱�˵���	-13.0812
��˼���̫�����	-13.0813
▁�����˵���	-13.0815
���������˵����	-13.0817
���˼��	-13.0818
���ͬ�˹���	-13.0821
�1����	-13.0821
▁���1⁄4��	-13.0825
��̽��˶��	-13.0827
▁́����˻�	-13.0827
˿����¶��	-13.0829
Ǻúõ	-13.0831
��˹���ׯ�	-13.0833
��¥�¡�	-13.0833
��˭���	-13.0834
▁�˺��£���	-13.0838
�������ˮ����ʹ�	-13.0845
������΢΢��ʹ����	-13.0845
�̣����𴦻�����	-13.0845
����񲻶���	-13.0847
���ͬ�	-13.0847
���񡣡�����	-13.085
�����˿˿�	-13.0851
˸��˴��	-13.0852
��󻵵������	-13.0853
�󡹦��ͬ	-13.0853
�ͨ�󾪣�	-13.0858
�¡����	-13.086
����;��	-13.0864
ʹ�����׹�	-13.0867
�������ٰ�	-13.0872
��̵��˲��	-13.0873
���£����˰�	-13.0874
▁������̾��	-13.088
▁Ļ	-13.0884
����˼��̣��	-13.0888
�˳��˽	-13.0891
�£����������̵	-13.0896
���ˮ���˿������	-13.0897
ʿ��˭��	-13.0902
����׼	-13.0902
�˻��ͣ������	-13.0905
▁��¥	-13.0906
·�������1���	-13.0907
����˼����£����	-13.0908
▁�£����·��	-13.0909
˶��������˷��	-13.0912
�˦����������	-13.0913
��ʹ�˰��	-13.092
��˼���ˮ������	-13.0921
�������⵹���	-13.0926
▁���󾱣��	-13.0927
�˼�����˳	-13.0931
£���׼�������	-13.0931
��������	-13.0932
���	-13.0934
ʹ˳�	-13.0935
·΢�	-13.0937
▁ʽ�������	-13.0937
▁�������������󣬶	-13.0941
۹ؽ	-13.0941
▁�᲻����	-13.0944
�̾�˿���������˵��	-13.0945
���������˾��	-13.0945
���˴��	-13.0948
����1⁄2��£����	-13.0952
ͬɦʩ	-13.0953
���������	-13.0953
��˿������	-13.0953
��׼�˵�	-13.0954
ww	-13.0958
���ʺ���	-13.0958
�£�˭	-13.0958
���������ͥ	-13.096
���������¡���·��	-13.0962
׽�˲�	-13.0965
���������˵���˲��	-13.0966
▁�޺�	-13.0966
▁��������������	-13.0967
˵�˸���	-13.0968
���������£�¶�	-13.097
�¥�����£��	-13.097
���͡���˵�	-13.0973
΢������	-13.0976
����ͦ����	-13.0976
������	-13.0979
������˶	-13.0992
�͹���˵	-13.0997
�˼��������̨����	-13.0997
��ʹ�����	-13.1001
�ʹ�򹷰�����	-13.1002
��󷨣�	-13.1003
󿪣����	-13.1005
˵���	-13.1007
��߽	-13.1007
�1⁄4���˵�	-13.101
���𴦻�˵����	-13.1016
▁�������������	-13.1017
�����1⁄4	-13.103
�˵��˻��������	-13.1034
��԰�����	-13.1039
▁���﷢��	-13.1043
򣬰	-13.1049
����׼��	-13.1052
��ʹ������	-13.1057
▁�������������	-13.1058
ͭ�׷	-13.1058
��׽���	-13.1067
����·	-13.1075
˵˵��������	-13.1078
�£�˳�	-13.108
�¶����������£���	-13.1081
�񣬽���	-13.1083
�����3���	-13.109
��÷������ͬ	-13.1096
����󻹸���	-13.11
▁��⬼	-13.1103
ɰʯ	-13.111
�����3	-13.1115
üɮ	-13.1116
�˺���1⁄2���	-13.1117
̻������	-13.1119
�����ʹ˲�	-13.1121
��˼����˽����	-13.1123
̷���˽��	-13.1126
���ʿ������	-13.1131
����˼�����ˮ��	-13.1133
��ʼ���޷���	-13.1134
▁��˭˵���	-13.1135
����޺󻼡�	-13.1139
��˿̵���	-13.1143
ؿڱ	-13.1143
Ÿɲ	-13.1152
���̧�	-13.1158
׷�ͯ�	-13.1158
������񼣬	-13.1165
���°����	-13.1169
��󺹣���˵���	-13.1174
▁������������	-13.1177
�˵�����������˸��	-13.1185
▁���������⸱��	-13.1188
▁�1⁄4��	-13.1191
�������᷿��	-13.1192
�������󷨵	-13.12
ȴƫƫ	-13.1211
�ͨ��˭	-13.1215
�������������	-13.1215
▁���ٰ�	-13.122
�����͡����������	-13.1222
���񣬵�������	-13.1222
▁�𷢵�����	-13.1222
�����˹�������	-13.1225
����߿���	-13.123
�¶�����	-13.123
�£������˾��	-13.123
▁���̵	-13.1236
���޴���	-13.1238
�����ʼ	-13.1239
�����͸��	-13.1245
�������̾��������	-13.1252
▁˵���£���	-13.126
▁����ˮ���������	-13.1262
▁÷��������˵�����	-13.1269
ʹʹ���������	-13.127
�£������˼��	-13.1272
��˼��˵	-13.1278
�����±	-13.1285
÷��������÷����	-13.1287
źö	-13.1293
���������󺹽��	-13.1297
▁���	-13.1299
���𴦻�������¥	-13.1302
▁�˼��£�	-13.1303
�������˵�����	-13.1303
▁�����»��	-13.1304
�ͭ���	-13.1317
��˳��ˮ���	-13.1322
�˱��˵	-13.1325
ʹ�����3⁄4��	-13.1328
▁́�ͨ���	-13.1331
�̸��	-13.1331
򹷰�������	-13.1331
��˺�£���	-13.1339
▁į	-13.1341
���������߿��	-13.1348
������˴���	-13.135
▁�����̻��	-13.1353
̵Ķ	-13.1355
���������	-13.1355
�̾�˿�������	-13.1356
���1⁄2ׯ��̾�	-13.1357
��������˽	-13.1358
��˵�������͹�	-13.1362
������߽	-13.1368
�������̡����	-13.1368
��������񡣡����	-13.1378
·��ͬ�	-13.1385
▁�����������˳	-13.1389
͢��	-13.1392
��⻹��	-13.1394
˭����˵����������	-13.1399
������̤���߽��	-13.1401
�ͨ����������ͨ��	-13.1405
·������˿����	-13.1408
▁���޶	-13.1411
���򱱡��	-13.1412
▁����˵˵����	-13.1413
▁���⵹���	-13.1415
̼�����	-13.1415
�˶�·���	-13.1419
���򣿡���	-13.142
▁��ʹ����	-13.1421
���ʹ˱�����	-13.1422
▁̾�˿	-13.1422
����	-13.1432
�޷�����	-13.1446
����̽�	-13.1447
�������������	-13.1449
▁÷���������	-13.1452
�󵶣�����	-13.1453
▁���˸��	-13.1454
���˼���£���	-13.1456
▁��̤	-13.1459
▁���������᲻�	-13.1461
▁ê	-13.1468
͹��������	-13.1473
▁�׸�	-13.1474
��̣����	-13.1474
�̾�˿���	-13.148
�˵�����������޷��	-13.1486
��ʾ��	-13.1494
˼���˺�	-13.1494
�����̨�������	-13.1497
▁́�ͨ����	-13.1499
����˴��¡�	-13.1504
�������׿�˵���	-13.1505
�����˵������ʼ��	-13.1505
�������	-13.1512
▁�����̹��������	-13.1522
▁�߼�	-13.1522
·���𴦻���	-13.1523
▁·���	-13.1523
񣬶�����	-13.1527
��˵��˷���	-13.1534
▁��΢΢������	-13.1538
��̤ˮ�����	-13.1539
�˥�	-13.1544
▁�����˷	-13.1544
���͹�˭���	-13.1555
���̤��������	-13.1556
����˶�ʹ���	-13.1569
�߼������	-13.1571
�󵨣����������	-13.1582
�󣬶����	-13.1586
öǮ	-13.1586
���˵�˺	-13.1586
ɹź	-13.1587
�򣬹���	-13.1594
�£������˴��	-13.1598
�������಻�	-13.1602
�����˵�������˰��	-13.1605
▁�������˿	-13.1605
���׷��˵	-13.1612
����̴	-13.1615
�£�ͬ	-13.1617
�����������	-13.1619
▁���޽���	-13.162
▁�߾��	-13.162
�𿪣�	-13.1621
▁�ʼ��������	-13.1622
����͢���	-13.1634
▁�������˼	-13.1635
▁���2�����	-13.164
���¶����	-13.1641
޽�	-13.1643
��ʹ���	-13.1644
񣬵������	-13.1644
1�������	-13.1646
úŽ	-13.1652
����̯�	-13.1653
̣�����	-13.1655
֪̽	-13.1676
▁�¡��������	-13.1679
�˳�����£�	-13.168
�£����𴦻���	-13.1689
������	-13.169
������	-13.1693
�󣬶�����	-13.1694
���˥�	-13.17
▁ׯ�������	-13.1708
�������1⁄2	-13.1708
������̷���˵����	-13.1712
󣬶�����	-13.1713
3��£�	-13.1715
�������̨�	-13.1719
▁�ʹ˰��	-13.172
�����˼��£�	-13.1726
���񣬴�	-13.173
▁������̬������	-13.1732
▁;	-13.1733
̸̸˵˵������������	-13.1739
���̬�	-13.1746
�����������	-13.1751
������˾�	-13.1758
�����˻��	-13.1758
��������;��	-13.176
��򣬽���	-13.1766
��ʺ�	-13.1769
▁�󣬲��	-13.1771
񣬲���	-13.1773
ʺ������	-13.1777
�����˼��¡�����	-13.1782
��񣬾�����	-13.1784
ͨ�˵��	-13.1785
▁1⁄2ׯ��������	-13.1795
▁�̹	-13.1804
߸߹	-13.1813
�����ʼ�	-13.1816
���̺�	-13.1826
��3����˵���	-13.1826
����ͣ��	-13.1828
̣�������	-13.1829
���̱	-13.1829
▁ɳ̲	-13.183
▁̨���	-13.1839
����޴�	-13.1843
ѪҺ	-13.1846
�����޶��	-13.1846
��1⁄2ׯ����	-13.1849
�¶�����˵�	-13.185
·���������	-13.1851
��	-13.1862
▁���	-13.1864
▁�޳�	-13.1867
�˳���������	-13.187
���󺹣�����	-13.1878
򹷰���������	-13.188
▁�������˰��	-13.1883
�˵������̫��	-13.1886
󣬱	-13.1896
▁���	-13.1901
����������«���	-13.1902
��΢���	-13.1905
ķɳ	-13.1906
�׺���	-13.1907
˵���˻���	-13.1907
�⹦����	-13.1909
���¶���˵��	-13.1912
▁�����������1⁄4	-13.1921
������˭��	-13.1923
�¡��𴦻�����	-13.1927
����˵��������˭��	-13.1927
▁�¡�����	-13.1932
Ϊ̾	-13.1936
𷨣�����	-13.1936
�����̾�	-13.1938
�����׻�	-13.1941
��򣬸�����	-13.1943
���̾�˿�����	-13.1954
˼�������˲���	-13.1957
▁���������򹷰����	-13.197
▁�͹������������	-13.1976
������������	-13.1978
�����̨�����	-13.198
޼��	-13.198
������̬	-13.1982
󴬣����	-13.1994
▁́�������˵��	-13.1995
▁ū	-13.2001
ļƲ	-13.2002
����ʼ��	-13.2005
▁�����⹦��	-13.2019
����������	-13.2019
˵������������ͯ��	-13.2023
▁����������˵�	-13.2024
▁�򲻿��	-13.2024
▁�޶	-13.2027
���������	-13.2031
򲻹���	-13.2044
����	-13.2047
▁�׵������	-13.2052
��������˵���	-13.2052
ˮ�������	-13.2082
�⿪������	-13.2083
▁�����������	-13.2091
���񣬽	-13.2093
▁ԩ	-13.2093
��������򲻼�����	-13.2095
������˵�����	-13.2103
����᷿�	-13.211
ͷϸϸ	-13.211
▁ʿ	-13.2111
󼱱������	-13.2112
����׸�	-13.2122
▁�2��	-13.2127
�����˹���	-13.2132
�°�����	-13.2134
񣬺	-13.2144
�ʹ���޵	-13.2144
Ƴɵ	-13.2145
��ˮ�������£�	-13.2153
▁�ٰ�������������	-13.2154
�˵����	-13.216
������˥�	-13.2162
▁���˾������	-13.2165
�ٰ��	-13.2165
�����׵���	-13.2166
▁������ͯ�����	-13.2167
£�1⁄2�	-13.2168
���˵�˾	-13.217
�򡣡���	-13.2175
�¥�£���	-13.219
▁չ	-13.2196
�����������ͯ��˵�	-13.2197
�����£����	-13.2202
�������˻	-13.2205
ŵý	-13.221
ᵽɦ	-13.2213
˵���𴦻��	-13.2222
▁�������˶��	-13.2223
▁�������	-13.2225
▁�̶�	-13.2236
▁��׽�	-13.224
��𴦻������	-13.2243
·��˳�	-13.2247
��˽�����	-13.2254
���ٰ����	-13.2259
�������̸	-13.2262
▁��������¥	-13.2264
������˿��	-13.2267
̹���	-13.2273
▁���⿪�	-13.2275
���޵������	-13.2275
����󲻶���������	-13.2279
▁���������	-13.2296
�����˦���	-13.2303
▁��˯�	-13.2306
▁�̿	-13.2309
▁˿���	-13.2315
▁��׾����	-13.2316
��ͣ�����	-13.2316
▁����⬼	-13.2319
sŵ	-13.2321
���������	-13.2326
ŵĻ	-13.2335
▁�������ͣ�	-13.2338
�˸��׵	-13.234
ɫȫ	-13.234
������	-13.2343
޹���	-13.2354
ʹ�£�	-13.2356
߼	-13.236
�򵽣���	-13.2362
������򹷰��������	-13.2369
▁������˵�������	-13.237
����ͭ����	-13.2377
▁ɭ	-13.2377
ŵö	-13.2381
Ȼ̾	-13.2383
���������󺹴��	-13.2384
1⁄2�̶��	-13.2405
��ʻ�	-13.242
�������˼·��	-13.2427
�̬��	-13.243
▁��󡹦	-13.2441
�����̵��	-13.2444
·���˼�������	-13.2445
▁��«�	-13.2448
��↑��������	-13.2448
��ʺ����	-13.2448
▁����׷��	-13.2451
��������˵�˳�	-13.2457
񡭡���	-13.2476
�����̺��������	-13.2478
▁������	-13.2481
�������1�	-13.2484
▁ͯ��	-13.2485
▁�����������͡�	-13.2487
�ࡣ��˵�	-13.2492
ͨ�����	-13.2497
��󣬴�	-13.2508
�������3⁄4	-13.2517
���������	-13.2521
▁�����˾��	-13.2523
▁����������̨��	-13.2526
����󷨣�����������	-13.2538
�ͨ·����	-13.2546
▁̧�����	-13.2551
���ʻ	-13.2552
�̾�˿�����������	-13.256
��򣬺�	-13.2563
�����1��1⁄4�	-13.2579
����󡣡��	-13.2582
�������˸�����	-13.2591
▁������̾�˿	-13.2592
�󣬸���	-13.261
�˵������������	-13.2612
����������΢	-13.263
��̳���������	-13.2643
��̵������	-13.2649
�˼����������˼	-13.2651
�������	-13.2652
���񻷣��	-13.2667
▁���󣬵�	-13.2668
�������޹	-13.2678
���������󡣺��	-13.2678
��̫�	-13.2681
̨Ϊ	-13.2692
��£������˼	-13.2698
����1⁄2���̶���	-13.2699
����������𾢣���	-13.2699
���๦��	-13.2704
���̨�����	-13.2705
▁�������	-13.271
˵������	-13.2711
��޽��	-13.2713
��ͦ��˵�������	-13.2716
������ͦ�����	-13.2728
����󣬿�	-13.2731
ʹ˰�	-13.2733
��⹫�	-13.2738
���˵������΢	-13.2741
▁ͣ	-13.2752
������ˮ���	-13.2754
͸����˵	-13.276
▁1⁄4�	-13.2764
�����˶�����	-13.2766
����˳��	-13.2768
▁����������⬼	-13.2779
���ׯ��1⁄2ׯ��	-13.2781
▁��ʿ��������	-13.2789
ͦ������	-13.2801
�޸���	-13.2807
▁��������	-13.2811
▁�»	-13.2814
▁���»����������	-13.2815
󣬵�������	-13.2826
���񣬺�����	-13.2837
▁�����������׺	-13.2841
�����¥��	-13.2842
▁������	-13.2844
▁���������˼	-13.2857
��£����˶��	-13.2862
�̫�������	-13.2866
˿��������	-13.2874
˵����ͬ��	-13.2881
����޲����	-13.2882
���񣬲�������	-13.2889
����ͬʹ�����	-13.29
��˭���������	-13.2907
���ͣ�����	-13.2918
񣬺�	-13.2935
�˰��£�������	-13.2939
������˼���	-13.294
������޲���	-13.2941
▁���߻	-13.2947
���󲡡���	-13.2948
�򶫱���������	-13.2964
�󵨣���	-13.2968
���˥����	-13.2973
▁������ʽ��������	-13.2974
��	-13.2978
Ҫ̽	-13.298
§����	-13.298
▁��͢�	-13.2982
����̤���	-13.2982
������ʽ��������	-13.2985
▁�������̡�������	-13.2985
��⬼׵	-13.2989
��������󣬽������	-13.2994
▁��������̤���	-13.2999
�������͢����	-13.3018
�����̷��	-13.3034
�����ʻ��	-13.3053
����÷������	-13.3058
���ʹ�����	-13.306
ŵÿ	-13.3071
���������	-13.3075
����͸����	-13.3076
�����˲	-13.3081
���˹������	-13.3081
��ʿ���	-13.3082
ʾ�¡���	-13.3083
▁���������׺	-13.3093
�����˿�	-13.3104
ɵù	-13.3104
▁�����˾��������	-13.3109
򣬲���	-13.3114
������2�ͣ������	-13.3116
�÷��������	-13.312
�����˵������ˮ��	-13.3144
����⹷������	-13.3148
▁��˵�˵������	-13.315
�𷢵��������	-13.3169
���̸̸�������	-13.3175
���˿��������	-13.3175
������	-13.3176
�򣬰�	-13.3178
▁�����׶����	-13.3183
����׵�	-13.3183
▁�������޼��	-13.3188
�����΢΢	-13.3191
�����˽���	-13.3192
����԰���	-13.3201
ɽŰ	-13.3212
�ʺ���������	-13.3218
����������	-13.3223
���˴˴����������	-13.3229
����������򣬻�	-13.3234
���󾪣�	-13.3239
��׾����	-13.3247
�����񣡡�	-13.3262
▁�𴦻������	-13.3263
�󼪣�������	-13.3265
ľƺ	-13.3269
▁�ʺ�������	-13.3271
��̾�	-13.3276
󺹺�������	-13.328
▁׽	-13.3281
▁�˹���	-13.3281
����ࡱ����	-13.3282
����𴦻������	-13.3287
�����˶����	-13.3291
�̥���	-13.33
▁׼����������	-13.3302
ǵľ	-13.3309
������⹫��	-13.3315
�򣬷����������	-13.3319
����ʹ��˵�������	-13.3327
���ᷢ�	-13.3328
�����������˰��	-13.3329
���󵶣��	-13.333
▁����ʹ�	-13.3348
�����˵����ͣ��	-13.3355
▁�	-13.3368
������̹��	-13.3374
▁�����̴���	-13.3376
▁���˰�	-13.3376
���̨������̨	-13.3404
���������಻�����	-13.341
ʹ˻�	-13.3415
���򣬵������	-13.3429
�ͥ�����	-13.3429
�̰����	-13.3441
�͸�����	-13.3444
˵�˵��	-13.3447
▁�׵�	-13.3449
�¡����𴦻�������	-13.3456
󹦳���	-13.346
���ʼ���	-13.3463
����̬���	-13.3466
������°	-13.3467
�����˳��˵�	-13.3475
▁������ˮ�������	-13.3476
��˵�˼��	-13.3487
�������޿	-13.3495
▁�������׺	-13.3496
ڱص	-13.3497
���˦�	-13.35
������̸�	-13.3503
▁˵���������	-13.3504
���̽̽	-13.3505
����˵���˸	-13.3524
�������;	-13.3533
������󺹣����	-13.3536
ǹŹ	-13.3539
����������ʻ���	-13.3544
̡���˵	-13.355
��򣬶	-13.3553
�͢��	-13.3559
򣬾	-13.3561
���͡��	-13.3568
▁����ׯ�	-13.357
▁ͬ����	-13.3573
�ͯ�������	-13.3582
��ʺ���	-13.3592
�������׷	-13.3594
����򡣡�	-13.3595
▁���𴦻���	-13.3596
���������	-13.36
��������˰��	-13.36
����	-13.3601
�����������	-13.361
��߿���	-13.3628
©�����������	-13.3628
▁�������̼���	-13.3641
▁�����¶����	-13.3643
�����޵������	-13.3647
����󺹡�	-13.3649
����̼���	-13.3656
▁��̾�˿�����	-13.3657
����˲�˵	-13.3668
���˺����	-13.3671
▁������˭������	-13.3672
▁�����������޲�	-13.3685
����ࡣ	-13.3691
▁�����	-13.3695
▁�׽������	-13.3705
��������	-13.3707
�������͡�	-13.3717
▁������	-13.3719
������	-13.3719
������˳	-13.3723
▁�������󾪣�	-13.3729
�԰׵����������	-13.3734
⻹	-13.3736
�ࡣ������	-13.375
�򵹣�	-13.3753
��񡣡��������	-13.3757
׷˼	-13.3757
��˷������	-13.3763
Ǽǹ	-13.377
�˰˳�	-13.3787
▁���	-13.3791
��񣬰�	-13.3808
��͹����	-13.3809
▁̄������	-13.3815
�񿥣�����	-13.3816
˵����������˵���	-13.3819
���˵���˺	-13.3836
���˵���������˶�	-13.3857
˵����������ͯ���	-13.3864
��£�˵����	-13.3865
▁���˶��	-13.3869
▁�����1⁄4����	-13.3871
���̶̵	-13.3871
�£���˵�	-13.3874
▁̫��	-13.3875
����񣬹�����	-13.3876
���������ͯ���	-13.3881
▁÷�������������	-13.3893
▁���������˾���	-13.3894
������	-13.3897
▁���������	-13.3897
���߿	-13.3904
1⁄4����	-13.3912
������⵹���	-13.3919
������׷�	-13.3923
▁��¥��	-13.3925
�����1⁄2�	-13.3931
��ʿ����	-13.394
޳�����	-13.3945
�񱼣���	-13.395
▁�߻�	-13.3981
▁̲	-13.3987
▁�޴��	-13.3991
˻�����	-13.3993
��˸������	-13.3994
񣬿	-13.3998
��󡭡���	-13.4015
������1���	-13.4017
�˺��£���	-13.4035
��˭������	-13.4041
����˰�	-13.4045
��ͤͤ��	-13.4046
▁������΢΢������	-13.4049
▁������˯	-13.4052
�˷������	-13.406
▁�����׾	-13.4066
�󣬿	-13.4074
������1	-13.4074
�ˮ���£�	-13.4076
�׵��£���	-13.4095
��������	-13.4107
��᣿���	-13.4108
����������	-13.411
�������͸	-13.4117
˼�����£�	-13.4123
������¥����	-13.4124
▁�˾�������	-13.4131
�����	-13.4133
����޻��	-13.4134
��޶���	-13.4141
�£���ͨ	-13.4144
�˲������	-13.4145
��󺹽�	-13.4145
�������˽���	-13.4146
úȵ	-13.4148
�ʹ��ʹ	-13.4149
ǰ̽	-13.4157
�񣬰�	-13.4163
��׷�����	-13.4166
�����˵����÷��	-13.4179
�����§�	-13.4182
��������	-13.4182
���⴬��	-13.4189
▁���޻�	-13.42
▁��§	-13.4216
�����ͯ�����	-13.4218
аЦ	-13.4224
▁�������	-13.4242
̽̽����	-13.4247
▁��·���	-13.4267
▁���׷	-13.4267
▁�໥����	-13.4268
���᲻���	-13.4285
���⿪��	-13.4286
▁�����޷����	-13.4287
���˼˵�������	-13.4289
����¿���	-13.4295
▁���᲻�	-13.4298
˵������˵��	-13.4303
˯������	-13.4304
▁̈�����	-13.4307
������⴬�����	-13.4307
����๫���	-13.4313
��������̬	-13.4315
�˺�������˵	-13.4327
񡣹��������	-13.4327
���޳��	-13.4328
ɵû	-13.4328
▁������������ͭ�	-13.4329
󣬾�	-13.4332
�󣬰�����	-13.4355
��ͬ��������	-13.4355
�΢ͤ�����	-13.436
��޼����¡�	-13.4361
▁�޷�	-13.4366
��������	-13.4377
����������	-13.4377
▁������3�������	-13.4379
��޴���	-13.438
�����׶	-13.4382
▁�����ࡣ��	-13.4403
���	-13.4404
▁��ͬ	-13.4407
ǵü	-13.4407
�����	-13.4416
▁�����	-13.4416
�򲻹�����	-13.4422
����󲽣����	-13.4427
▁����������ͯ	-13.4435
����򡭡�����	-13.4443
񡭡���������	-13.4471
�������𴦻�	-13.4475
����������ˬ��	-13.4476
þƺ	-13.4485
�����˷����	-13.4496
������˻�	-13.4511
��������¶��	-13.4512
�޻���	-13.4517
▁˺����	-13.4532
⵶���	-13.454
������˷	-13.4541
�������1⁄2��	-13.4544
������2��	-13.4547
©����	-13.455
�๫����	-13.4563
���񣬾�����	-13.4569
¶������	-13.4573
����⵹��	-13.4595
▁�����͸����	-13.4596
������񣬽����	-13.4597
󿪣�����	-13.4603
ʹ˼	-13.4622
�����󣬸������	-13.4631
▁̤����������	-13.4637
������˳�����	-13.4644
�򣬷����	-13.4644
��ͦ������������	-13.4645
��˼�������	-13.4647
�͹���������	-13.4648
▁���ࡢ�	-13.4653
��˽����	-13.4653
�˭��˭�	-13.4655
··�	-13.4656
��⹦������	-13.4662
������΢�	-13.4664
▁�̼���	-13.467
������˷������	-13.4674
▁�����˸	-13.4684
����������	-13.4689
�����	-13.4692
▁��ׯ�	-13.4698
�����໥	-13.4703
׻���	-13.4715
����޲�	-13.472
�˵����	-13.4721
�������󲽣����	-13.4728
��ͤ����	-13.4734
�ٰ��ʹ��	-13.4738
▁���޹�������	-13.4738
��˷������	-13.4745
�񿥣��	-13.4751
��������	-13.4755
���������	-13.4755
�󣬿��	-13.4759
��̾�˿�������	-13.4776
▁˹�	-13.4779
�������޵	-13.4796
�΢ͤ�	-13.4797
��¡����������	-13.4807
󣬾	-13.4825
˷�����	-13.4826
��޼����¡����	-13.4827
�̾�˿	-13.4831
�����񣬵����	-13.4833
▁ͦ��������	-13.4836
��ʹ˼	-13.4841
�����๦��	-13.485
▁̈��	-13.4852
󣬹���������	-13.486
󵶣���	-13.4868
▁�׺	-13.4872
�����̣���	-13.4875
▁Ъ	-13.4878
����⴬�����	-13.4891
������΢¶	-13.4899
����������ͯ����	-13.4906
▁���1⁄4���	-13.4917
����2������	-13.4918
���������׺�	-13.4925
������񡣻��	-13.4929
񡣹�����	-13.4937
▁й	-13.4953
��򣬽��	-13.4968
▁��ˮ�������	-13.4978
�����޵���	-13.4978
��˻������	-13.4979
�������񣬰	-13.4988
▁����ͤ�	-13.4989
1⁄2󣬵�����������	-13.4991
�̱�	-13.501
�������ˮ�	-13.5017
��ͭ��	-13.5024
�󺹺�	-13.5024
��򣬵����	-13.5028
�򣬰����	-13.5032
����������	-13.5033
���������͸������	-13.5036
��޺�������������	-13.5039
�����󣬹����	-13.5044
�ٰ��ʹ�	-13.5051
▁Ź	-13.5051
▁ʿ�	-13.5052
����˭�������	-13.5057
����˵����˵	-13.5061
������⻵�������	-13.5062
����˵���	-13.5062
������ˮ	-13.5073
Ща	-13.508
�����	-13.5083
�����������׹�	-13.5108
▁�̶��	-13.5118
▁�޵	-13.512
󵨣����	-13.512
�3⁄4�ʹ����	-13.5131
�������������	-13.5131
���ˮ�������	-13.5131
���������΢	-13.5132
�ͤͤ���	-13.5134
▁ë	-13.5144
▁�໥�	-13.5146
���׷�����	-13.5161
�󡭡���	-13.5169
��	-13.5169
���ٰ�����	-13.5175
����˸����	-13.519
׵������	-13.5205
�����⵺�����	-13.5207
ض࣬	-13.5209
�̨����˵�	-13.5211
▁�����˾���	-13.5213
���������	-13.5215
�����׵����	-13.5224
�񱼣����	-13.5242
�±�����	-13.5259
���๥��	-13.5259
▁�����̡��	-13.526
▁���׸�����	-13.5264
▁���¿��	-13.5267
���£�˵������	-13.527
�����ͣ��	-13.5271
ͨ��������	-13.5271
���᣿������	-13.5278
������������	-13.5282
��������˴󾪣���	-13.5294
��˦�	-13.5296
�޷�������	-13.5297
���󡹦	-13.53
�򣬶�	-13.5305
▁����	-13.531
���˵��������	-13.5311
���׾���	-13.5321
▁���˾��	-13.5323
���򣬻��	-13.5325
▁��˭�����	-13.5325
�󺣣���������	-13.5331
̶̵�	-13.5333
▁ʼ�	-13.5335
������⻹	-13.5337
▁մ	-13.5338
���������˵��	-13.5344
▁������ʹ�����	-13.5347
����§	-13.5352
�������񣬲�	-13.5361
����׶�	-13.5376
�׻�������������	-13.5381
�󡣡���������	-13.5384
����£�˵����	-13.5402
�����̱	-13.542
��໥��������	-13.5424
▁�3	-13.5425
▁��˵����	-13.5426
������׵�	-13.5428
·�����	-13.5438
������׷�����	-13.5452
�򲻳	-13.5456
˵������������	-13.5463
▁���޴	-13.5468
�����������ͯ	-13.5476
������˥��	-13.5484
�˰˳	-13.5491
�����⻵	-13.5507
▁������˵	-13.5522
▁��	-13.5523
ҽҩ	-13.553
�������	-13.5532
��̧����	-13.5535
��򣬰	-13.5537
˵�˳�����	-13.5552
𿪣��	-13.5563
��������ࡣ��	-13.5571
▁̽������	-13.5577
��������﷢���	-13.559
�󣬷��������	-13.5604
����͸��	-13.563
▁�;����	-13.5638
����������	-13.564
̷���˵��	-13.5644
▁¶	-13.5647
����˽����	-13.565
�˼�����������	-13.5661
�����˹����	-13.5671
�����1���	-13.5679
�̣�˵����	-13.5687
����������ͧ	-13.5691
▁�����޵�����	-13.5698
���򲻳	-13.5701
▁���޴��	-13.5702
ɻö	-13.5704
˺������	-13.5706
��򣬹���	-13.5725
˵����˵��	-13.5734
�������˴󹦣����	-13.5743
�󺹱��	-13.5744
���΢΢�	-13.5758
ɼǵ	-13.5767
˸��������������	-13.5784
▁���˳	-13.5786
��๦������	-13.5787
��׷˼	-13.5788
����˼˵	-13.5794
����̥���������	-13.5801
�������˰�	-13.581
󹦳�����	-13.5825
����˴���	-13.5833
������ʹ���	-13.5835
������˯��	-13.5839
▁�޴�����	-13.5848
▁·��������	-13.5851
▁̲��	-13.5851
��𿪣�	-13.5856
������	-13.5865
�󣬾��	-13.5869
�������¥���	-13.5875
�����2��̣�	-13.5875
▁����׼��	-13.5876
▁�̻��	-13.5879
��1��1⁄4�	-13.5885
�������	-13.5893
�����������	-13.5903
▁�����ʺ��	-13.591
�����	-13.5914
������3⁄4��	-13.5915
▁�˺�������	-13.5932
▁�͡���	-13.5934
����������	-13.5937
Ҽ̳	-13.5941
�󣬴����	-13.5954
򲻿	-13.5957
���������˭�����	-13.5973
�󲻾����	-13.5977
���������⸱�	-13.5981
▁�������¡����	-13.5981
▁˳	-13.5989
��˵����������ͯ�	-13.5999
ʹ˻���	-13.6002
��˳������	-13.6006
򵹣�������	-13.6024
��1⁄2�˷�����	-13.6031
����˵�������	-13.604
���˼�˵���	-13.6041
����ʻ��	-13.605
�������󣬻���	-13.6055
▁�ʹ�����������	-13.6058
▁˿���������	-13.6067
�󣬽���	-13.6067
��򲻵�	-13.6068
�󼪣���	-13.6074
▁������¥����	-13.6081
�񣬾���	-13.6099
�󣬳��	-13.6111
󽫣�����	-13.6112
�����������£�	-13.6116
▁����������	-13.6117
�᣿����	-13.6128
▁�¶�����	-13.6138
̸�����	-13.614
����ࡱ��	-13.6141
��ˮ��ˮ��	-13.6142
��«������	-13.6165
▁����˯���	-13.6167
��񣬺��	-13.617
���򣬴��	-13.617
�1⁄2󣬵�����	-13.6179
�˶��񣬵���	-13.6181
▁˵�����	-13.6181
����ʿ����	-13.6182
���󡹦����	-13.6203
���׵��£���	-13.6206
▁�1⁄4���	-13.6209
▁��̤�	-13.6211
����򻰣�����	-13.6218
▁��ͨ��������	-13.6223
▁�׵�������	-13.6226
������⹷��	-13.6228
▁���1�	-13.6245
�����ˮ����	-13.6254
��͢��������	-13.6257
����󣬶	-13.6258
���ʺ�����	-13.6263
���̷�	-13.6271
����˼���£���	-13.628
��˴��£���	-13.6282
󣬸������	-13.6282
���𴦣�	-13.6294
��̷�	-13.6294
▁�����͡���	-13.6301
▁�̡������	-13.6311
͹�������	-13.6311
����2�ͣ����	-13.6314
�£�ʹ����	-13.6315
�����˼��˵���	-13.6337
ǵĴ	-13.6338
�¡����𴦻���	-13.6355
£�������	-13.6363
▁�����£������	-13.641
▁̨�	-13.641
���ʻ�����	-13.6414
�������	-13.6416
˵�˰	-13.6431
�𶯣���������	-13.6442
�������˵�����	-13.6445
��ͬʹ��	-13.6445
�����	-13.6448
�ͨ̾��	-13.645
·��£�	-13.647
����	-13.6474
��˹�������	-13.6476
��ͬ�����	-13.6485
�1�����	-13.6492
๦������	-13.6493
�ͨ̾������	-13.6498
�󡹦������	-13.6498
�����޹�	-13.6522
���ˮ��ˮ�	-13.653
▁�������»�	-13.6535
▁�����������̣��	-13.6539
ٰ����	-13.6565
����˷����	-13.657
��񣬱��	-13.6571
�����𴦻���������	-13.6581
▁̽�	-13.6582
��ʺ�����	-13.6585
±���	-13.6591
˱�����������	-13.6593
���ʻ�	-13.6593
▁����̾������	-13.6595
▁�޷���	-13.6599
���˵���	-13.6608
�߻���	-13.6611
��������˱	-13.662
▁���˲������	-13.6633
�������󷨣������	-13.6637
�ˬˬ���	-13.6669
�����⵱���������	-13.6673
̡���˵�	-13.6678
�����	-13.6682
����������	-13.6682
▁���������°���	-13.6695
����󲻽	-13.67
�����˥����	-13.6706
�˿�������	-13.6709
�̣�˵�����������	-13.671
▁��������˵�����	-13.6716
▁˹���	-13.6723
�������ͯ����	-13.6724
▁������;�	-13.6734
�׫��	-13.6735
▁�����׹���	-13.6754
�1⁄2���̶��	-13.6758
���˾�����	-13.6769
�3⁄4�ʹ	-13.6778
����˲����	-13.6786
▁����ͤ����	-13.6793
������	-13.6821
�˶�������	-13.6823
����𾢣���	-13.686
��������΢�	-13.6864
�£�ʹ�	-13.6869
����޴����	-13.688
����3⁄4���	-13.6881
��⵶���������	-13.6899
�޵��������	-13.6927
��£���������	-13.6961
ˮ��ˮ���	-13.6961
��񣬵�����	-13.6973
�¡���˵	-13.6977
▁�����˿�����	-13.6983
▁ʹ�������������	-13.6985
���̬���	-13.6997
▁����˵����	-13.7011
�򳤣�������	-13.7019
����˵������÷	-13.7022
▁���������£��	-13.7023
���������๫�	-13.7025
▁���޷�����������	-13.7031
��򣿡�������	-13.7034
▁΢΢��	-13.7044
▁�3⁄4������	-13.7071
������	-13.7075
����̸̸���	-13.7081
˵���˻�����������	-13.7095
˶˵�����	-13.7106
▁�������	-13.7108
▁�������͡�	-13.7122
���������£�	-13.7127
�3⁄4�ʹ������	-13.7135
������¡¡	-13.7136
�󺹣���	-13.7148
�����᲻	-13.7164
���������˺�	-13.7172
▁�����̣��������	-13.7175
▁����ʽ	-13.7179
���ʹ˶������	-13.7184
▁����������ͯ����	-13.7189
▁�°��	-13.721
˵�˲�	-13.7214
���󡣺��	-13.7219
������	-13.7225
����������	-13.7226
���⵹��	-13.7226
▁�������������˶	-13.7231
▁���׼�����	-13.7245
������˸�	-13.7264
������̡��������	-13.7267
▁����������	-13.7283
����������	-13.7292
������˭����	-13.7294
޿�����	-13.7295
��򣬱����	-13.7297
������˶�����	-13.73
˵�������󺹣���	-13.7308
��˵������������	-13.7313
▁���˾��������	-13.732
▁Բ	-13.7322
󣬺��	-13.7328
򣬴���	-13.7335
��1⁄2�̶��	-13.7341
������󺹴	-13.7346
����˯���	-13.7371
̾���������	-13.7374
�������2��	-13.7376
�������������	-13.7376
▁�������˿�	-13.7378
�˵��˵�	-13.7398
���̾	-13.7401
▁1⁄4��	-13.7405
����˹������	-13.7408
�񡣻���	-13.7411
����󣬴	-13.7416
󣬿	-13.7419
�����񣿡����	-13.7423
���󺹡������	-13.7431
�˵������÷��	-13.7434
��������˲������	-13.747
����˲�����	-13.7474
▁�˺��	-13.7477
��̫��	-13.7488
������ʿ�׷�	-13.75
���׿�˵	-13.7501
�̹��������	-13.7505
˵�˲��	-13.7507
▁׽�	-13.7508
���󲻶����	-13.7516
▁�������˹�������	-13.7518
䶼����	-13.7525
▁��ͯ����	-13.7528
▁˭�����	-13.7531
▁�1⁄2��������	-13.7532
▁́�ͨ�����	-13.7543
▁���˷�	-13.7551
���ˮ�����	-13.7552
�˵�˵	-13.7578
▁��1⁄4	-13.7591
����������¥�	-13.7595
▁����������̨���	-13.76
úû	-13.7606
���᣿���	-13.7622
̾����������	-13.7622
▁��;���	-13.7646
��������˼˵����	-13.7651
▁������ͯ	-13.7673
▁˿�����������	-13.7678
�񶷣�����	-13.7681
������̫	-13.7683
�����������˵	-13.7689
▁���˷���	-13.7701
▁ͯ�����	-13.7704
�ͦ��ͬ	-13.7713
�£�����˼���	-13.7719
�̥��	-13.7721
���˶������£����	-13.7738
▁�͸�	-13.7747
ʯɽ	-13.7755
�������£��	-13.7756
▁�̡��������	-13.7761
▁���������˹�	-13.7763
�������ᷢ�	-13.7771
�󣬱�����	-13.7772
▁��׼���	-13.7772
�����̵���	-13.7775
�£�������˵���	-13.7775
���˸��׵	-13.7779
������	-13.7782
·�������	-13.7782
�󼱱	-13.7796
1⁄2󣬵������������	-13.7804
�����	-13.7805
�񣬱�����	-13.7807
���¡���˵��	-13.7813
���̶	-13.7821
����������̨	-13.7822
�򣬵��������	-13.7838
���������«�	-13.7839
��������˼���£�	-13.784
����˵����������	-13.7841
↑	-13.7846
▁�������̲�	-13.7854
��ͣ������	-13.7868
��2����	-13.7876
ᷢ�����	-13.7883
��������߾	-13.7887
�����˼��˵	-13.7889
�������񡣹����	-13.7896
▁���׸��	-13.7896
�򣬺	-13.7898
��˿���������	-13.7902
��򣬾��	-13.7907
▁���˶	-13.7909
ææ	-13.7913
����ͦ���	-13.7925
▁��������˯����	-13.7929
▁���˲	-13.7941
��ʹ���޵	-13.795
▁͸�	-13.7956
������1⁄2ׯ	-13.7971
��׿��	-13.7995
���ׯ��1⁄2ׯ���	-13.7998
󴬣�����	-13.7998
�����¿�	-13.8003
��˾�������	-13.8009
���⵱���	-13.8018
▁���������˲��	-13.8025
�˵����ͬ��	-13.8043
������ͣ�	-13.8048
▁���޷�	-13.8056
����̹�	-13.8058
������˷��	-13.8073
��𴦣��	-13.8077
������޲��	-13.8081
�������	-13.8108
�������˿�	-13.8131
漴̧	-13.8141
��̫����	-13.8144
��¡���˵��	-13.8154
▁����	-13.8166
󡣡���	-13.8193
��񣬺�����	-13.8214
▁����ׯ�������	-13.8217
򣿡��	-13.8217
▁���±	-13.822
򣬺�	-13.8228
�����԰��	-13.8242
������޷���������	-13.8242
󺧣�������	-13.8244
▁���ʺ	-13.8245
▁̨������������	-13.8281
�������˺�	-13.8288
▁СС	-13.8289
������̾�˿������	-13.8292
�̸̸˵˵�����	-13.8303
▁���̲��	-13.8315
▁���¡����	-13.8335
˵�����˳�	-13.834
򣬾�����	-13.8355
��������⻹���	-13.8356
�����	-13.836
▁�ʺ�����	-13.8365
�����������޻��	-13.8373
����᷿���	-13.8376
�ͨ��˵�	-13.838
�΢���	-13.8411
▁Ϳ	-13.8412
����	-13.8414
˵�˻����������	-13.8416
����ʺ���	-13.8424
�������˼�	-13.8427
�����˭˵�����	-13.8446
��������˷�����	-13.845
����޷���	-13.847
���૵����������	-13.8475
▁������	-13.848
������ʹ��	-13.848
˳ˮ����	-13.8487
��߼�	-13.849
���������̨	-13.8503
▁���˺���	-13.8508
��˵�����£��	-13.8523
�����˵�˰	-13.8533
��ͤ������	-13.8536
�ͥ��	-13.8541
��̧���	-13.8551
ͯ����	-13.8586
�����⸱�	-13.8609
������׵���	-13.8611
▁�̡�	-13.8616
��˭��˭	-13.8617
���͡���	-13.8627
▁�޷�����	-13.8631
�𴦻�׷	-13.864
�⻹���	-13.868
���������˭�	-13.8682
▁���ࡣ���	-13.8694
▁�»�	-13.87
▁�򲻿�	-13.8707
�������񣬷�	-13.8714
▁�3�������	-13.8715
��1⁄2�˷���	-13.8717
▁�£������	-13.8724
������˿	-13.8726
��������޶��	-13.8727
�̰�����	-13.8732
▁�̻����	-13.874
��������򲻼��	-13.8764
�޶�������	-13.8767
̲��˯�	-13.8772
▁���˹��	-13.8776
�����������	-13.8781
▁�¶�	-13.879
▁ǰȥ	-13.8793
▁��������ׯ��	-13.8809
�����󺹣��	-13.881
��͹�˭�	-13.8848
񣬱	-13.8856
������3⁄4	-13.8864
�̤ˮ���	-13.8875
���򣿡�	-13.8876
�񣬶����	-13.8876
ȥŪ	-13.8928
��᷿�������	-13.8939
˯�����	-13.8942
�͹������	-13.8946
��׹���	-13.8951
�¥�£����	-13.8955
▁����������΢	-13.8971
▁��������̨�����	-13.8971
߿���	-13.9002
������׿�	-13.9003
▁���׼�������	-13.9015
���󺹺������	-13.9022
�£����˶�	-13.9022
�������������£�	-13.9029
��������񣬺���	-13.9043
󾪣����	-13.9046
���������˼	-13.9049
��򣬸������	-13.9056
�����˵��£�������	-13.9062
˵����������ͯ��	-13.9065
�����	-13.9068
��������˻�	-13.9069
���˽����������	-13.9079
▁���޹��	-13.9085
��¶������	-13.9093
�����˽��	-13.9101
▁���׹�	-13.9109
��򱱡����	-13.911
�򣿡������������	-13.9112
�ͭ�׷���	-13.9113
�������̤�	-13.9123
▁׷���	-13.9124
��๫�������	-13.9129
�๦�����	-13.9134
�����3⁄4�����	-13.9136
�⵶��	-13.9141
�����׷��	-13.9143
�������˵�˻���	-13.9146
�ͧ���	-13.9151
��̤���߽��	-13.9157
▁������	-13.917
���������򣿡�	-13.9171
���ׯ��1⁄2ׯ����	-13.9173
▁����̨�����	-13.9186
��򡣡���	-13.9195
�󺧣���	-13.92
����⻹��	-13.9201
«����	-13.9204
�����˰	-13.9205
���򣺡������������	-13.9212
▁�����߽�	-13.9213
�⹦�����	-13.9217
ͬ������	-13.9221
�߽��������������	-13.9234
����߿��	-13.9256
�˵���������˼	-13.9262
�����䶼����	-13.9264
���󺹡����	-13.928
������	-13.9291
▁��������̨	-13.9305
▁�޶�	-13.9305
▁���˿��	-13.9309
����׼����	-13.931
���󺧣�����	-13.9316
▁���̹�����	-13.9317
مم	-13.9329
��ͦ����	-13.9333
�����	-13.9349
ͨü	-13.9379
�̾���������	-13.9381
▁��ʾ�	-13.9381
�԰������	-13.9383
▁��������ͨ����	-13.9388
▁���᲻��	-13.939
���̬����	-13.939
󿪣������	-13.9397
ʹ˱���������	-13.9412
▁�󾪣�	-13.9424
�˵˵���	-13.9429
����⬼��	-13.9454
�򣬾	-13.9456
▁ʹ�����	-13.9466
·��ʹ	-13.9479
̸̸	-13.9499
�񣬿�����	-13.9509
▁�����˶��������	-13.951
▁���ʹ����������	-13.951
�𴦻�������¥�	-13.9519
����������˾��	-13.9526
��˴��¡���	-13.9529
▁ʿ������	-13.954
޹�����	-13.9541
˴󹦣���	-13.9552
���ͬʹ	-13.9552
����������	-13.9555
����	-13.956
�����󷨵�	-13.9563
▁�˴	-13.9564
�������׷׵�	-13.9565
�׵����˴	-13.9571
▁����������	-13.9573
▁����������2��	-13.9573
▁˺�����	-13.9574
▁����ͯ	-13.9576
▁����̽��	-13.9588
▁�׺��	-13.9594
������������	-13.9598
�򣬸���	-13.96
�������򲻼���	-13.9602
�ʹʹ�������	-13.9613
˭������	-13.9614
˵���£������	-13.9628
▁��÷����	-13.9637
񼣬	-13.9638
���޹����	-13.9653
▁�̼�����	-13.9673
�������̵�	-13.9676
���ͤ���	-13.9686
���󣬴����	-13.9692
˶���������	-13.9695
�������˶��	-13.9698
����޺󻼡���	-13.9698
▁�ʺ	-13.9707
��ʿ�	-13.9716
����񣬸������	-13.9718
��������ͣ��	-13.9723
▁�ٰ�	-13.9732
���ͯ���	-13.9737
▁����ͯ���	-13.9742
▁׼�����	-13.9746
���˿̵	-13.9748
����ͥ	-13.9755
��»�����	-13.9756
򣬷��������	-13.9757
ʼ���޷��	-13.9759
̣�˵	-13.9771
�׸�������	-13.9781
��¶�����	-13.9783
󻹸	-13.9785
����˻����	-13.979
��񡭡��	-13.9822
���������˶	-13.983
����������˵	-13.9831
���˵�����	-13.9832
�����;��	-13.9856
�ʹ˲��	-13.9863
���߻�	-13.9866
1⁄2�˷���	-13.9867
���׹�����	-13.9873
�����͸�	-13.9873
񣬻�����	-13.9894
�˳��ˮ��	-13.9898
��������򹷰��	-13.9908
���ͭ���	-13.9929
↑����	-13.9939
�����	-13.9942
▁�����˸��	-13.9952
����⵺���	-13.9953
��⹫��	-13.998
��£�������˵�����	-13.9994
▁���������	-13.9997
���׷׷	-14.0004
��󣬳����	-14.0011
▁���°	-14.0015
��͸����	-14.0066
���ʿ�����	-14.0087
▁�������ٰ�	-14.009
������˵��������	-14.0092
▁����	-14.0115
▁������	-14.0117
������ʻ����	-14.0183
▁�����˶	-14.0185
��������	-14.0191
������ʹ�򹷰���	-14.0191
�����񡣺��	-14.0191
▁�˿�������������	-14.0192
�����񣬱��	-14.0194
úó	-14.0204
�޿����	-14.0216
▁����ͭ�	-14.022
▁��������	-14.0221
��������˾	-14.0223
▁����������ˮ	-14.023
▁1⁄4����	-14.0252
▁�˸������	-14.0261
󡣺����	-14.0267
����׽��	-14.0279
▁��˵�������	-14.0289
���������	-14.0289
������������	-14.0303
�𴦣���	-14.0314
�˼���£�	-14.0331
������£�����	-14.0331
▁��������ͯ�����	-14.034
��ͬ������	-14.0349
▁�;�����	-14.0357
���󻵵�����	-14.0365
˵˵�����	-14.0373
�����޷����	-14.0375
�����̾	-14.0406
�������޷	-14.0416
▁�����˱��	-14.0421
�¥������	-14.0425
����������	-14.0431
������๦��	-14.0444
▁������ʽ��	-14.0444
���÷�������	-14.0445
▁���˱����	-14.0447
�������1��	-14.0451
������2	-14.046
������ͬ�	-14.0462
�󣬿���	-14.0462
�󣬲����	-14.0472
������	-14.0503
�˰׷�	-14.051
¶�˵������	-14.0514
▁����̫	-14.0533
��������©�	-14.0534
�£��������1⁄2���	-14.0547
�������̯�����	-14.0548
�߿���	-14.0573
������˦����	-14.0573
��������ࡱ��	-14.0579
��������3⁄4��	-14.0594
������±	-14.0603
��������׺����	-14.0604
׵�����	-14.0617
�������ׯ��	-14.0628
D	-14.0638
���ͯ����	-14.0649
�����󣬼��	-14.0656
���䶼��	-14.067
�˲�˵	-14.0679
򡣡�����������	-14.068
▁���1⁄4����	-14.0681
ᣬͬ	-14.0702
▁1⁄2ׯ�����	-14.0703
𲻿	-14.0711
Ģ	-14.0713
⸶	-14.0713
㶥	-14.0713
ɯ	-14.0713
๳	-14.0713
ḽ	-14.0713
⴩	-14.0713
㶸	-14.0713
御	-14.0713
橶	-14.0713
羢	-14.0713
m	-14.0713
ņ	-14.0713
ɟ	-14.0713
آ	-14.0713
ದ	-14.0713
ಮ	-14.0713
೾	-14.0713
൳	-14.0713
බ	-14.0713
໪	-14.0713
໯	-14.0713
༧	-14.0713
᡺	-14.0713
Ღ	-14.0713
ᷴ	-14.0713
Ḹ	-14.0713
ṧ	-14.0713
ⲹ	-14.0713
ⴲ	-14.0713
ⶥ	-14.0713
ⶵ	-14.0713
⹴	-14.0713
・	-14.0713
ㆪ	-14.0713
㵴	-14.0713
㹴	-14.0713
㺰	-14.0713
㻯	-14.0713
㼰	-14.0713
㽣	-14.0713
㽩	-14.0713
䰸	-14.0713
䴸	-14.0713
䷿	-14.0713
仧	-14.0713
仺	-14.0713
女	-14.0713
屡	-14.0713
峥	-14.0713
巢	-14.0713
巿	-14.0713
幦	-14.0713
平	-14.0713
桶	-14.0713
檡	-14.0713
涴	-14.0713
溢	-14.0713
粡	-14.0713
ม	-14.0713
༥	-14.0713
ᰡ	-14.0713
Ɒ	-14.0713
ⴿ	-14.0713
⸻	-14.0713
⻶	-14.0713
㶳	-14.0713
佾	-14.0713
巳	-14.0713
立	-14.0713
籼	-14.0713
縴	-14.0713
:	-14.0713
E	-14.0713
G	-14.0713
v	-14.0713
}	-14.0713
­	-14.0713
Æ	-14.0713
ā	-14.0713
Ţ	-14.0713
ȕ	-14.0713
ȧ	-14.0713
ʐ	-14.0713
ʝ	-14.0713
ʟ	-14.0713
ʭ	-14.0713
ˆ	-14.0713
ͩ	-14.0713
ѫ	-14.0713
Ҟ	-14.0713
զ	-14.0713
֢	-14.0713
ׅ	-14.0713
ה	-14.0713
٬	-14.0713
ژ	-14.0713
ڬ	-14.0713
ޒ	-14.0713
ࣩ	-14.0713
ॣ	-14.0713
ঽ	-14.0713
఼	-14.0713
౭	-14.0713
౲	-14.0713
౻	-14.0713
ನ	-14.0713
ೢ	-14.0713
೸	-14.0713
ഩ	-14.0713
ഽ	-14.0713
൨	-14.0713
൲	-14.0713
ථ	-14.0713
඼	-14.0713
෫	-14.0713
෹	-14.0713
฽	-14.0713
๾	-14.0713
໬	-14.0713
໭	-14.0713
༯	-14.0713
༷	-14.0713
༺	-14.0713
ཀ	-14.0713
ཥ	-14.0713
཭	-14.0713
ི	-14.0713
ྐ	-14.0713
ྪ	-14.0713
ྭ	-14.0713
ྻ	-14.0713
ᆳ	-14.0713
ᡡ	-14.0713
ᡯ	-14.0713
᣺	-14.0713
ᵺ	-14.0713
ḡ	-14.0713
ṩ	-14.0713
Ṵ	-14.0713
Ἧ	-14.0713
ὰ	-14.0713
ᾪ	-14.0713
↪	-14.0713
⣩	-14.0713
⧷	-14.0713
⬣	-14.0713
Ⱑ	-14.0713
ⱨ	-14.0713
Ɐ	-14.0713
ⱱ	-14.0713
ⱳ	-14.0713
Ɀ	-14.0713
Ⲩ	-14.0713
⳰	-14.0713
ⴥ	-14.0713
⵨	-14.0713
⵭	-14.0713
⵲	-14.0713
ⷤ	-14.0713
ⷿ	-14.0713
ⸯ	-14.0713
⸲	-14.0713
⸴	-14.0713
⸸	-14.0713
⺨	-14.0713
⺮	-14.0713
⺱	-14.0713
イ	-14.0713
サ	-14.0713
㡶	-14.0713
㰲	-14.0713
㰹	-14.0713
㱸	-14.0713
㱿	-14.0713
㳶	-14.0713
㳷	-14.0713
㴬	-14.0713
㴸	-14.0713
㶷	-14.0713
㸣	-14.0713
㸰	-14.0713
㸲	-14.0713
㸺	-14.0713
㸿	-14.0713
㻤	-14.0713
㻭	-14.0713
㻮	-14.0713
㻶	-14.0713
㼤	-14.0713
㼼	-14.0713
㽡	-14.0713
㽿	-14.0713
㿿	-14.0713
䎿	-14.0713
䡯	-14.0713
䰤	-14.0713
䰫	-14.0713
䲼	-14.0713
䲿	-14.0713
䳣	-14.0713
䳾	-14.0713
䵲	-14.0713
䶫	-14.0713
临	-14.0713
主	-14.0713
乶	-14.0713
乾	-14.0713
们	-14.0713
伲	-14.0713
伸	-14.0713
佹	-14.0713
侭	-14.0713
侲	-14.0713
俯	-14.0713
俼	-14.0713
壺	-14.0713
尡	-14.0713
岢	-14.0713
崣	-14.0713
崫	-14.0713
嶣	-14.0713
嶴	-14.0713
帣	-14.0713
广	-14.0713
庣	-14.0713
庮	-14.0713
弸	-14.0713
彻	-14.0713
徢	-14.0713
徭	-14.0713
忪	-14.0713
桒	-14.0713
桮	-14.0713
梸	-14.0713
梺	-14.0713
梽	-14.0713
梾	-14.0713
梿	-14.0713
檶	-14.0713
檸	-14.0713
檺	-14.0713
氡	-14.0713
水	-14.0713
汧	-14.0713
汱	-14.0713
沮	-14.0713
泰	-14.0713
洵	-14.0713
洺	-14.0713
浣	-14.0713
浭	-14.0713
涵	-14.0713
淿	-14.0713
湲	-14.0713
溫	-14.0713
滢	-14.0713
滮	-14.0713
漥	-14.0713
漺	-14.0713
潼	-14.0713
澱	-14.0713
澵	-14.0713
濦	-14.0713
濪	-14.0713
瓦	-14.0713
田	-14.0713
目	-14.0713
硶	-14.0713
篳	-14.0713
簵	-14.0713
籧	-14.0713
精	-14.0713
糵	-14.0713
絨	-14.0713
緳	-14.0713
緸	-14.0713
縯	-14.0713
纽	-14.0713
绰	-14.0713
绳	-14.0713
绽	-14.0713
缤	-14.0713
缫	-14.0713
罹	-14.0713
羽	-14.0713
翷	-14.0713
W	-14.0713
έ	-14.0713
༴	-14.0713
⴮	-14.0713
⹬	-14.0713
䱶	-14.0713
伣	-14.0713
纫	-14.0713
B	-14.0713
H	-14.0713
R	-14.0713
^	-14.0713
ȯ	-14.0713
Ɍ	-14.0713
̮	-14.0713
Τ	-14.0713
Ԭ	-14.0713
ٌ	-14.0713
ٍ	-14.0713
٭	-14.0713
ڮ	-14.0713
ߥ	-14.0713
ల	-14.0713
ా	-14.0713
౳	-14.0713
ศ	-14.0713
๬	-14.0713
ཬ	-14.0713
࿡	-14.0713
࿥	-14.0713
࿪	-14.0713
࿭	-14.0713
࿳	-14.0713
ᄉ	-14.0713
ᆰ	-14.0713
ᣩ	-14.0713
᫣	-14.0713
ᱳ	-14.0713
Ტ	-14.0713
ᳰ	-14.0713
Ḻ	-14.0713
ṫ	-14.0713
ᾯ	-14.0713
῿	-14.0713
⧲	-14.0713
⮽	-14.0713
ⱦ	-14.0713
ⱻ	-14.0713
ⲣ	-14.0713
ⳤ	-14.0713
⳾	-14.0713
ⷳ	-14.0713
⸺	-14.0713
⺣	-14.0713
⻺	-14.0713
⿣	-14.0713
㡮	-14.0713
㤣	-14.0713
㲹	-14.0713
㴰	-14.0713
㵢	-14.0713
㵳	-14.0713
㷳	-14.0713
㷺	-14.0713
㺣	-14.0713
㼫	-14.0713
㾴	-14.0713
㿹	-14.0713
㿼	-14.0713
䤱	-14.0713
䱴	-14.0713
䱿	-14.0713
䲨	-14.0713
䲽	-14.0713
䶮	-14.0713
䶶	-14.0713
䶷	-14.0713
䷸	-14.0713
乬	-14.0713
亣	-14.0713
価	-14.0713
侪	-14.0713
俦	-14.0713
俿	-14.0713
塤	-14.0713
奷	-14.0713
尾	-14.0713
屼	-14.0713
岿	-14.0713
嵫	-14.0713
己	-14.0713
幧	-14.0713
廧	-14.0713
廬	-14.0713
弤	-14.0713
徣	-14.0713
徫	-14.0713
梶	-14.0713
氦	-14.0713
汨	-14.0713
汸	-14.0713
没	-14.0713
洰	-14.0713
洳	-14.0713
浴	-14.0713
浶	-14.0713
温	-14.0713
渴	-14.0713
溺	-14.0713
漫	-14.0713
潣	-14.0713
潹	-14.0713
澸	-14.0713
濳	-14.0713
籯	-14.0713
籱	-14.0713
籾	-14.0713
糬	-14.0713
糺	-14.0713
絲	-14.0713
綫	-14.0713
緱	-14.0713
縫	-14.0713
纣	-14.0713
级	-14.0713
绤	-14.0713
缺	-14.0713
缾	-14.0713
罡	-14.0713
罵	-14.0713
>	-14.0714
٤	-14.0714
ݥ	-14.0714
૲	-14.0714
త	-14.0714
෢	-14.0714
๰	-14.0714
ྡ	-14.0714
ᄌ	-14.0714
᫵	-14.0714
᳡	-14.0714
ᷫ	-14.0714
ὡ	-14.0714
⵵	-14.0714
ⶶ	-14.0714
ⷱ	-14.0714
⺶	-14.0714
⺺	-14.0714
⿿	-14.0714
㶩	-14.0714
㾫	-14.0714
䡷	-14.0714
䱩	-14.0714
丿	-14.0714
伢	-14.0714
侢	-14.0714
壻	-14.0714
屪	-14.0714
嵴	-14.0714
嶸	-14.0714
梹	-14.0714
澣	-14.0714
㲱	-14.0714
罦	-14.0714
خم	-14.0716
��򡣡�1⁄2	-14.0719
▁��̫����	-14.0722
جح	-14.0723
ͨ��̤��	-14.0729
�̣���������	-14.0732
��̷���˵�����	-14.075
��޾����	-14.0753
̿�������	-14.0753
▁ͦ���������	-14.0758
�����1��1	-14.0759
��򲻵���	-14.0759
1�����	-14.0774
���޿���	-14.078
طم	-14.0785
������̱�����	-14.0788
▁D	-14.0789
�ࡣ�����	-14.079
���������̫	-14.0791
��𴦻�΢	-14.0806
�����������	-14.0814
▁�����̲	-14.0822
�����ͣ�����	-14.0828
̺ÿ	-14.083
·���������	-14.0831
���󺹽�	-14.0834
1⁄2�÷����	-14.0863
▁���������	-14.0867
▁����̤�	-14.0872
���ʹ��������	-14.0876
��̬�����	-14.0903
��ͯ��˵��	-14.0912
���⻵�	-14.0922
󣬱�	-14.0923
�����׼��	-14.093
˸��������	-14.093
▁��������˵��	-14.0951
�����׸	-14.0952
▁�������˴���	-14.0952
������ʽ�	-14.0958
���˳�����£�	-14.0963
�˵����������ͯ��	-14.0969
���񣬾���������	-14.0979
����1⁄2ׯ�������	-14.1011
��������̽��	-14.1027
󣬼������	-14.1042
���������	-14.1048
▁��·������	-14.1055
�˵��£��	-14.1072
��������̾��	-14.1078
�����̥��	-14.1085
˳ˮ���������	-14.1089
˲������׵	-14.1091
�������	-14.1097
���������	-14.1108
▁������̧	-14.1119
��򣬾������	-14.1135
������ׯ��1⁄2	-14.1136
�������̴���	-14.1145
�������������	-14.116
����˾�����	-14.1162
޵����˼��	-14.1169
�1⁄2�÷����	-14.1174
����������	-14.1176
⻹���������	-14.119
������˲�	-14.1192
�󺹡������	-14.1226
��˯�����	-14.1229
�������̸�	-14.124
̽��������	-14.1247
��������԰׵����	-14.1248
▁����ͦ�	-14.1251
�����˵�˼�	-14.1259
������󺹣��	-14.126
▁���£��	-14.127
▁��������3�	-14.127
�������°�	-14.1294
���������󣬲�	-14.1296
��߿�������	-14.13
▁��������ͥ	-14.1334
�����¡	-14.1335
������⬼��	-14.1343
�˳�����£���	-14.1348
񡣡�1⁄2	-14.1373
�˾���������	-14.1378
▁�̶���	-14.1388
���������	-14.1412
���ᷢ���	-14.1436
��������	-14.1453
��򲻹�	-14.1459
▁ˮ���	-14.1468
�˵��˹���	-14.1472
������󺹺�	-14.1481
��˵������1⁄2�	-14.1483
��޺�����	-14.1491
˵�����������	-14.1498
�����޻�	-14.1499
̶���	-14.1501
�����͸���	-14.1505
�£�˵�����������	-14.1513
▁����̾��	-14.1518
������¡���˵��	-14.1543
����«��	-14.1544
▁�˲�	-14.1548
�����˾���	-14.1548
޽�����	-14.1574
󾱷	-15.4117
󾪡	-15.4118
󾢼	-15.4119
󽭣	-15.412
󽭡	-15.4121
󽫿	-15.4122
󽫾	-15.4123
󽫽	-15.4124
󽫺	-15.4125
󽫹	-15.4126
󽫳	-15.4127
󽫡	-15.4128
󼲷	-15.4129
󼱹	-15.413
󼱴	-15.4131
󼪡	-15.4132
󻺻	-15.4133
󺹰	-15.4134
󹫼	-15.4135
󹦡	-15.4136
󸿣	-15.4137
󸿡	-15.4138
󷽷	-15.4139
󷽣	-15.414
󷭳	-15.4141
󷨰	-15.4142
󷢺	-15.4143
󷢣	-15.4144
󶴣	-15.4145
󶴡	-15.4146
󵨵	-15.4147
󴬷	-15.4148
󴬴	-15.4149
󴬱	-15.415
󴫳	-15.4151
󴡢	-15.4152
󲻼	-15.4153
󲻹	-15.4154
󱼳	-15.4155
󱯣	-15.4156
󣡡	-15.4157
󡱡	-15.4158
󡣳	-15.4159
󡢺	-15.416
򿪺	-15.4161
򿪴	-15.4162
򿪣	-15.4163
򾣬	-15.4164
򽫳	-15.4165
򻯣	-15.4166
򺣱	-15.4167
򸾵	-15.4168
򸾲	-15.4169
򸾡	-15.417
򷨣	-15.4171
򷢣	-15.4172
򶼲	-15.4173
򶫼	-15.4174
򶫡	-15.4175
򴬷	-15.4176
򳤡	-15.4177
򲻻	-15.4178
򲻶	-15.4179
򲢷	-15.418
򱱶	-15.4181
򡱵	-15.4182
񿪣	-15.4183
񻰣	-15.4184
񹦳	-15.4185
񹦡	-15.4186
񷨣	-15.4187
񴬣	-15.4188
񴦣	-15.4189
񲻽	-15.419
񲻴	-15.4191
񲪲	-15.4192
񡱵	-15.4193
񡱡	-15.4194
񡣿	-15.4195
񡣾	-15.4196
񡣵	-15.4197
𿪡	-15.4198
𾪰	-15.4199
𽭺	-15.42
𽥼	-15.4201
𻷣	-15.4202
𹷣	-15.4203
𹷡	-15.4204
𷣣	-15.4205
𷣡	-15.4206
𷢾	-15.4207
𷢼	-15.4208
𷢹	-15.4209
𷢴	-15.421
𶯡	-15.4211
𵽵	-15.4212
𳤸	-15.4213
𳤡	-15.4214
𲻵	-15.4215
𲻴	-15.4216
𱭣	-15.4217
𱨣	-15.4218
𱨡	-15.4219
￴	-15.422
︧	-15.4221
	-15.4222
	-15.4223
	-15.4224
	-15.4225
	-15.4226
	-15.4227
	-15.4228
	-15.4229
	-15.423
	-15.4231
鿼	-15.4232
红	-15.4233
⳶	-15.4234
໹	-15.4235
໵	-15.4236
๼	-15.4237
෽	-15.4238
෸	-15.4239
ࡷ	-15.424
࡭	-15.4241
ࡡ	-15.4242
׬	-15.4243
̭	-15.4244
c	-15.4245
_	-15.4246
@	-15.4247
󾱡	-15.4248
󽫶	-15.4249
󽫵	-15.425
󼸸	-15.4251
󼱱	-15.4252
󻵵	-15.4253
󺺵	-15.4254
󺹿	-15.4255
󺹲	-15.4256
󷭴	-15.4257
󵱡	-15.4258
󵨷	-15.4259
󴬵	-15.426
󲡣	-15.4261
󰭡	-15.4262
󡱣	-15.4263
򿪳	-15.4264
򻹲	-15.4265
򶨣	-15.4266
򵹡	-15.4267
򳤵	-15.4268
򲻸	-15.4269
򱱷	-15.427
򰶱	-15.4271
񿪡	-15.4272
񾱣	-15.4273
񽣣	-15.4274
񼼣	-15.4275
񹦵	-15.4276
񶾵	-15.4277
񶷡	-15.4278
񵲣	-15.4279
񲻻	-15.428
񲻳	-15.4281
񱳺	-15.4282
񣬳	-15.4283
𾴡	-15.4284
𷢣	-15.4285
𵶣	-15.4286
𵴣	-15.4287
𳤵	-15.4288
𲻳	-15.4289
𰡣	-15.429
	-15.4291
	-15.4292
	-15.4293
	-15.4294
	-15.4295
	-15.4296
	-15.4297
	-15.4298
	-15.4299
⶯	-15.43
⴫	-15.4301
ᷳ	-15.4302
ᳪ	-15.4303
࿴	-15.4304
຦	-15.4305
๸	-15.4306
඾	-15.4307
ث	-15.4308
׭	-15.4309
󽫲	-15.431
󼪣	-15.4311
󺺣	-15.4312
󺹹	-15.4313
󹦳	-15.4314
󷨡	-15.4315
󲽣	-15.4316
󲻵	-15.4317
󲡡	-15.4318
󱳣	-15.4319
󡱵	-15.432
󡭡	-15.4321
󡣵	-15.4322
򶫶	-15.4323
򲻴	-15.4324
򱱼	-15.4325
򱱡	-15.4326
򰡣	-15.4327
򡣻	-15.4328
򡣺	-15.4329
񱳣	-15.433
𷢽	-15.4331
	-15.4332
	-15.4333
	-15.4334
	-15.4335
	-15.4336
	-15.4337
	-15.4338
	-15.4339
䷨	-15.434
䷢	-15.4341
䶾	-15.4342
⴦	-15.4343
⳵	-15.4344
໰	-15.4345
󺹾	-15.4346
󺹴	-15.4347
󺹱	-15.4348
󷨵	-15.4349
󲻿	-15.435
󲻸	-15.4351
󲻶	-15.4352
󲮸	-15.4353
󡣺	-15.4354
򸾣	-15.4355
򶫱	-15.4356
򵽻	-15.4357
򵽣	-15.4358
򣬹	-15.4359
񻷣	-15.436
񣬷	-15.4361
񣬰	-15.4362
𾴣	-15.4363
𾢣	-15.4364
𷨣	-15.4365
𷢷	-15.4366
𳤽	-15.4367
	-15.4368
	-15.4369
	-15.437
	-15.4371
	-15.4372
᳦	-15.4373
ུ	-15.4374
໨	-15.4375
໤	-15.4376
̈	-15.4377
󽫣	-15.4378
󻼡	-15.4379
󺹽	-15.438
󵶣	-15.4381
󴬡	-15.4382
󲻾	-15.4383
򳤣	-15.4384
򲻼	-15.4385
򱱣	-15.4386
񲣬	-15.4387
񱼣	-15.4388
񱼡	-15.4389
񣬶	-15.439
񡭡	-15.4391
񡣺	-15.4392
𷢳	-15.4393
﷫	-15.4394
	-15.4395
	-15.4396
ꣿ	-15.4397
䷹	-15.4398
⹷	-15.4399
ᷢ	-15.44
ࡱ	-15.4401
󿪣	-15.4402
󾱣	-15.4403
󡣻	-15.4404
򶫣	-15.4405
򣬻	-15.4406
򡣹	-15.4407
񿥣	-15.4408
𿪣	-15.4409
𷢡	-15.441
鿴	-15.4411
࿹	-15.4412
󺹺	-15.4413
󺹶	-15.4414
󹦸	-15.4415
󹦣	-15.4416
󵨣	-15.4417
󴬣	-15.4418
󣿡	-15.4419
򵽡	-15.442
򣬼	-15.4421
򣬸	-15.4422
񺫱	-15.4423
񹦣	-15.4424
񲻶	-15.4425
񣬹	-15.4426
񡣹	-15.4427
𻰡	-15.4428
𶯣	-15.4429
⻵	-15.443
⹫	-15.4431
᷿	-15.4432
๦	-15.4433
򣬿	-15.4434
򣬷	-15.4435
򣬶	-15.4436
򡭡	-15.4437
	-15.4438
	-15.4439
󺣣	-15.444
󣬸	-15.4441
󡣹	-15.4442
򲻵	-15.4443
񣿡	-15.4444
񣬼	-15.4445
񣬻	-15.4446
񡣻	-15.4447
	-15.4448
⴬	-15.4449
๥	-15.445
򣬴	-15.4451
񶷣	-15.4452
	-15.4453
	-15.4454
	-15.4455
૵	-15.4456
ق	-15.4457
󲻽	-15.4458
򣬱	-15.4459
䶼	-15.446
򵹣	-15.4461
⵺	-15.4462
󣬼	-15.4463
򻰣	-15.4464
񣬾	-15.4465
񣡡	-15.4466
﷢	-15.4467
	-15.4468
̯	-15.4469
󺧣	-15.447
󷨣	-15.4471
򣬲	-15.4472
𴦣	-15.4473
	-15.4474
⵹	-15.4475
᣿	-15.4476
ࡢ	-15.4477
׫	-15.4478
򣡡	-15.4479
񣬴	-15.448
	-15.4481
󼱣	-15.4482
󣬰	-15.4483
񣬲	-15.4484
	-15.4485
	-15.4486
򣺡	-15.4487
󣬴	-15.4488
򣿡	-15.4489
⵱	-15.449
󺹡	-15.4491
๫	-15.4492
̄	-15.4493
⸱	-15.4494
͢	-15.4495
򣬽	-15.4496
򣬵	-15.4497
޾	-15.4498
󡣡	-15.4499
񡣡	-15.45
	-15.4501
⹦	-15.4502
໥	-15.4503
󣬻	-15.4504
󣬺	-15.4505
󣬶	-15.4506
󣬹	-15.4507
򲻹	-15.4508
	-15.4509
̩	-15.451
𻰣	-15.4511
񣬵	-15.4512
׻	-15.4513
󣬲	-15.4514
	-15.4515
	-15.4516
ˬ	-15.4517
󡹦	-15.4518
𷢵	-15.4519
޸	-15.452
᲻	-15.4521
಻	-15.4522
޻	-15.4523
	-15.4524
	-15.4525
	-15.4526
󣬵	-15.4527
̻	-15.4528
	-15.4529
ͤ	-15.453
ͧ	-15.4531
̬	-15.4532
ۇ	-15.4533
󺹣	-15.4534
򡣡	-15.4535
̰	-15.4536
޴	-15.4537
׸	-15.4538
̳	-15.4539
򹷰	-15.454
׶	-15.4541
󾪣	-15.4542
޶	-15.4543
޹	-15.4544
͡	-15.4545
޲	-15.4546
ͅ	-15.4547
	-15.4548
̡	-15.4549
ا	-15.455
»	-15.4551
̲	-15.4552
޷	-15.4553
ٰ	-15.4554
޵	-15.4555
́	-15.4556
̽	-15.4557
J	-15.4558
̾	-15.4559
4	-15.456
d	-15.4561
̣	-15.4562
	-15.4563
ͣ	-15.4564
˺	-15.4565
𴦻	-15.4566
¡	-15.4567
z	-15.4568
⁄	-15.4569
1	-15.457
£	-15.4571
