<unk>	0
<s>	0
</s>	0
�	-1.54947
��	-1.91717
���	-2.37151
����	-2.89487
�����	-3.36205
һ	-3.84845
������	-3.91463
�������	-4.44389
֮	-4.86022
��������	-5.0349
С	-5.09363
Ҳ	-5.16662
ֻ	-5.20144
Ů	-5.27691
ȥ	-5.28754
ɦ	-5.3915
Ȼ	-5.4081
x	-5.43775
ô	-5.48023
ͷ	-5.52292
Ҫ	-5.64197
���������	-5.64557
֪	-5.67225
ȴ	-5.68656
ʦ	-5.71106
ǰ	-5.82335
У	-5.88426
▁��	-5.89074
l	-5.91105
֣	-5.97753
Ϊ	-6.0324
ã	-6.0589
˫	-6.08727
ס	-6.10895
Ц	-6.12719
Լ	-6.16439
ʮ	-6.20424
е	-6.2127
û	-6.31844
ɻ	-6.35465
ӣ	-6.35727
����������	-6.36447
Ī	-6.39343
ȫ	-6.40055
ģ	-6.42675
ֵ	-6.44295
ϣ	-6.44555
ţ	-6.44727
־	-6.46554
ɽ	-6.46818
죬	-6.47975
أ	-6.51151
ֱ	-6.51538
ܽ	-6.52808
ת	-6.52819
գ	-6.54904
ĵ	-6.57527
δ	-6.59504
⣬	-6.61628
▁�	-6.62632
Σ	-6.63071
ς	-6.63904
书	-6.64114
ָ	-6.66279
λ	-6.66854
ƽ	-6.67146
䣬	-6.69256
ε	-6.73665
Ĺ	-6.74217
ĸ	-6.75214
ƣ	-6.75547
ߣ	-6.76372
Խ	-6.76746
ɵ	-6.7749
ͻ	-6.78315
ң	-6.8024
ǣ	-6.82106
▁����	-6.82758
Ծ	-6.82863
ɫ	-6.82895
ܲ	-6.84135
Dz	-6.85005
ǧ	-6.85295
ǿ	-6.89284
ʯ	-6.90045
ǵ	-6.90094
�����������	-6.91282
ɱ	-6.92365
ľ	-6.92463
Ӣ	-6.9269
ԭ	-6.93172
ҵ	-6.93193
ڣ	-6.93813
ۣ	-6.94237
▁	-6.94823
ҡ	-6.97373
ɣ	-6.98585
վ	-6.9873
Զ	-6.98853
ܣ	-7.0083
ڵ	-7.01607
ġ	-7.02816
L	-7.05477
ȣ	-7.05636
ף	-7.05796
룺	-7.05954
Щ	-7.06815
ǹ	-7.07602
㣬	-7.08201
Ǵ	-7.09458
ҩ	-7.10186
ŭ	-7.1089
ص	-7.12133
ȵ	-7.13141
Ǹ	-7.15219
ַ	-7.15828
ȡ	-7.16995
ԣ	-7.17068
ֹ	-7.17961
ǡ	-7.17961
飬	-7.18322
Ǻ	-7.1892
ѵ	-7.1941
ᣬ	-7.22182
ù	-7.2315
▁���	-7.23625
æ	-7.25034
μ	-7.26198
ߵ	-7.26913
ʣ	-7.27178
ӵ	-7.27379
ɹ	-7.27856
ڴ	-7.28368
ö	-7.28378
磬	-7.28753
á	-7.28968
д	-7.30178
ò	-7.30576
ۼ	-7.3079
DZ	-7.30994
Ե	-7.31909
Ը	-7.3223
Ĵ	-7.32249
ʤ	-7.33189
ӡ	-7.34532
ǽ	-7.35471
࣬	-7.3722
͵	-7.38952
֡	-7.41563
ж	-7.41792
ѧ	-7.42244
ŵ	-7.42288
Ү	-7.43399
Ⱥ	-7.43682
м	-7.44802
ؤ	-7.45275
ü	-7.45321
㲻	-7.45747
л	-7.46699
ÿ	-7.4708
Ѩ	-7.47426
ѣ	-7.47662
ϡ	-7.47662
б	-7.48635
Ѱ	-7.49181
Ƶ	-7.49634
ء	-7.5011
к	-7.5186
������������	-7.51897
·�	-7.52132
꣬	-7.52368
ŷ	-7.54508
õ	-7.54542
棬	-7.54935
Ѫ	-7.55194
٣	-7.55194
ͽ	-7.55448
Ķ	-7.55527
ǻ	-7.55619
ϸ	-7.55867
Է	-7.55981
Ļ	-7.5615
·	-7.56741
ҹ	-7.56922
š	-7.57567
ֽ	-7.58372
Ľ	-7.58871
Ǿ	-7.58916
ա	-7.59182
ݣ	-7.60001
в	-7.60368
ĺ	-7.60871
dz	-7.6154
ı	-7.6208
ڶ	-7.62424
ֲ	-7.62493
Ӧ	-7.62776
ڹ	-7.62778
Բ	-7.63624
壬	-7.64189
룬	-7.64478
Ƕ	-7.65051
Ǽ	-7.66477
߹	-7.67677
ұ	-7.67972
Ƭ	-7.68035
Ƿ	-7.68746
ơ	-7.68863
�˵	-7.69329
�£�	-7.69426
κ	-7.70223
Ҵ	-7.71898
Դ	-7.72108
ײ	-7.72541
ս	-7.74713
ȭ	-7.76958
Թ	-7.77204
㡣	-7.77279
Ӱ	-7.77282
Ҷ	-7.77283
Ӵ	-7.78591
չ	-7.78917
⡣	-7.7925
а	-7.80251
ޣ	-7.816
�ͨ	-7.82633
���˵�	-7.82669
Ӳ	-7.82886
ú	-7.83047
Ź	-7.83058
▁�����	-7.83593
��˵�	-7.83693
˵�	-7.8371
ƺ	-7.84306
▁С	-7.8441
Ų	-7.84705
һЦ	-7.84926
ʧ	-7.85277
w	-7.85703
ij	-7.85715
ʁ	-7.86458
仰	-7.87185
н	-7.87186
о	-7.87188
裬	-7.87546
ɲ	-7.87758
Ϣ	-7.87906
ܵ	-7.87907
ϳ	-7.90473
뵽	-7.90844
Һ	-7.91219
Ұ	-7.91867
ү	-7.91999
ߡ	-7.93103
ɮ	-7.93805
϶	-7.93871
▁������	-7.93879
Ħ	-7.94254
s	-7.94478
Ƽ	-7.95014
ֳ	-7.96158
Ҹ	-7.96198
й	-7.96591
ڡ	-7.97383
·��	-7.97514
ű	-7.97753
Ժ	-7.97783
ں	-7.98141
ð	-7.98709
ִ	-7.98954
ȶ	-7.99798
ؿ	-8.00422
ҽ	-8.00844
ش	-8.01013
ķ	-8.01576
ӹ	-8.03485
˵	-8.06159
ɡ	-8.06537
ѹ	-8.06899
Ϸ	-8.06974
ֺ	-8.07854
İ	-8.09068
ӿ	-8.09146
Ʋ	-8.09186
ֶ	-8.09589
ѩ	-8.09634
Θ	-8.10083
��1⁄2��	-8.10258
�������������	-8.10597
ý	-8.1089
Ƥ	-8.1237
IJ	-8.12682
Ż	-8.12727
�£���	-8.13219
Ѳ	-8.13299
Ѿ	-8.13301
ڽ	-8.13766
ƿ	-8.13767
Ʒ	-8.15573
˵��	-8.16495
벻	-8.16612
ּ	-8.16615
�ͨ�	-8.1703
ն	-8.17099
ƴ	-8.171
۵	-8.17585
г	-8.18072
ȷ	-8.18326
ο	-8.18385
�£��	-8.18755
ž	-8.19414
ѽ	-8.19548
ζ	-8.20048
ܡ	-8.20545
и	-8.21051
ͬɦ	-8.21162
ʕ	-8.21485
ڰ	-8.21553
ø	-8.22945
ñ	-8.2295
β	-8.23086
ƾ	-8.23418
Ա	-8.24642
ʩ	-8.25047
ڻ	-8.25162
Ӷ	-8.25164
װ	-8.25164
ض	-8.25597
ھ	-8.2569
�1⁄2��	-8.25914
߰	-8.26125
ɳ	-8.2622
ӳ	-8.26221
Ͼ	-8.27821
з	-8.27827
ۡ	-8.28363
Ž	-8.28721
弓	-8.28906
ԡ	-8.28907
Ӻ	-8.28909
Ƴ	-8.30287
ץ	-8.30314
Ҿ	-8.30976
յ	-8.32213
ѱ	-8.3223
j	-8.32443
ɷ	-8.32796
ó	-8.3326
Գ	-8.33362
ѡ	-8.33932
ְ	-8.34463
Ͳ	-8.34509
ֿ	-8.34512
䡣	-8.35087
��˵	-8.35255
ץס	-8.35621
ļ	-8.35669
·���	-8.35962
�ͨ��	-8.36646
ؼ	-8.3684
ղ	-8.36842
Ѹ	-8.36844
ӽ	-8.37432
ρ	-8.38029
Χ	-8.38029
Ҽ	-8.38517
պ	-8.38628
ز	-8.39835
֦	-8.39836
ڳ	-8.41046
ؽ	-8.41061
졣	-8.41676
黨	-8.41679
ҿ	-8.42785
r	-8.42901
ҳ	-8.42922
�˵��	-8.43696
ռ	-8.44186
α	-8.4482
Ͻ	-8.44821
Ӥ	-8.45464
���˵	-8.46071
ų	-8.46109
漴	-8.4611
顣	-8.46757
ޱ	-8.4741
ӻ	-8.47414
Ͷ	-8.47751
��˵��	-8.48705
ϧ	-8.49396
ر	-8.50746
�˵�	-8.51091
΢	-8.51177
ع	-8.51324
ʡ	-8.51424
ػ	-8.51425
يٴ	-8.51429
Ȳ	-8.52111
ƶ	-8.52111
ҧ	-8.52483
貨	-8.52802
o	-8.53493
ƻ	-8.53494
Ŵ	-8.5412
Ϻ	-8.54188
ط	-8.54193
ϼ	-8.54898
ҷ	-8.54899
˵���	-8.55578
ż	-8.55609
▁�������	-8.55801
ڲ	-8.56972
Ի	-8.57042
ź	-8.57524
ι	-8.57764
ᡣ	-8.57766
ƹ	-8.58452
ܿ	-8.58496
�£����	-8.59453
ڱ	-8.59927
䲻	-8.59975
ʹ�	-8.60109
ӱ	-8.60718
ݵ	-8.62866
߳	-8.6299
ټ	-8.62992
���˵��	-8.63401
ħ	-8.63762
ٺ	-8.64503
п	-8.65314
Ѵ	-8.65316
ڿ	-8.66056
▁��������	-8.66643
ٲ	-8.66897
Ȧ	-8.67243
Ĭ	-8.685
ٿ	-8.68506
Ṧ	-8.69318
ڼ	-8.70135
Ѷ	-8.70137
ɴ	-8.70138
اٴ	-8.70964
þ	-8.71496
Ⱦ	-8.71797
��������������	-8.72097
΢΢	-8.7227
ư	-8.72573
״	-8.7261
ȸ	-8.72634
����˵�	-8.73308
ͼ	-8.73485
ճ	-8.74312
Ρ	-8.74337
Ű	-8.7434
1⁄2��	-8.75028
ɾ	-8.75056
۾	-8.752
档	-8.75201
۽	-8.75201
ͳ	-8.75203
ϻ	-8.76071
Ȱ	-8.76071
˵����	-8.76644
۶	-8.76945
١	-8.76948
ѳ	-8.76948
ݶ	-8.76948
ӭ	-8.7783
ڷ	-8.77832
ذ	-8.77835
Ʊ	-8.78647
ܴ	-8.78725
Х	-8.79625
ɹž	-8.79759
jô	-8.80345
وٴ	-8.80536
ѷ	-8.80536
���1⁄2��	-8.80658
▁ֻ	-8.81226
γ	-8.8145
h	-8.82355
س	-8.8331
ݡ	-8.83311
ӷ	-8.83312
ܹ	-8.84258
Ӿ	-8.84259
ɨ	-8.84262
ڸ	-8.85207
ٱ	-8.85208
ߴ	-8.8614
롣	-8.86171
Ϳ	-8.86172
ȹ	-8.86242
Ŷ	-8.87111
�ͬ	-8.87165
𣿡	-8.88118
ܺ	-8.88122
ɼ	-8.88122
�¡�	-8.88145
عم	-8.88267
�	-8.88725
ܸ	-8.89111
�˳�	-8.8916
��˵�������	-8.89577
ؾ	-8.90009
ѻ	-8.90115
ԶԶ	-8.90782
۹	-8.9112
ⷬ	-8.91122
ܻ	-8.91124
��¡�	-8.91454
Ÿ	-8.91989
ⲻ	-8.92139
ɸ	-8.92143
�˵�������	-8.92425
ƭ	-8.93175
ܶ	-8.94214
˵������	-8.94249
ʹ	-8.94799
ɢ	-8.95267
쳣	-8.95269
Ӽ	-8.9527
�˵������	-8.95558
��˵������	-8.95599
�̣�	-8.96162
ɥ	-8.96181
ޡ	-8.96329
㡭	-8.96331
Ϯ	-8.96333
�˵����	-8.96794
۴	-8.97408
Я	-8.98484
ʬ	-8.98491
鵤	-8.98493
Կ	-8.98496
ƫ	-8.99048
ܾ	-8.99593
ٴ	-9.007
ܼ	-9.00701
�ͨ���	-9.00856
ٽ	-9.01825
֧	-9.01826
��£�	-9.02317
ƥ	-9.02725
տ	-9.02932
ȱ	-9.02963
塣	-9.02965
硣	-9.0411
ѿ	-9.04111
梣	-9.04114
Ӹ	-9.04115
ɺ	-9.04117
▁1⁄2��	-9.04633
���̵	-9.05588
㼴	-9.06447
Ū	-9.06455
��	-9.07547
ܳ	-9.07641
ߺ	-9.07641
η	-9.07642
ۻ	-9.07643
ν	-9.07644
භ	-9.07644
�ͨ����	-9.08003
غ	-9.08845
Ϫ	-9.08846
㵽	-9.08849
��˵��������	-9.0893
Ӫ	-9.10062
����˵	-9.10463
�ʹ�	-9.10795
մ	-9.11302
շ	-9.11302
Ͽ	-9.11304
߶	-9.12552
��˳�	-9.13293
ظ	-9.13815
ɶ	-9.13817
ȼ	-9.13818
لإ	-9.151
ɰ	-9.15104
�˹�	-9.15772
b	-9.1591
ꡣ	-9.16401
˵�����	-9.17606
ٻ	-9.17673
ױ	-9.17715
Ƚ	-9.17718
��˵�����	-9.18658
ì	-9.19046
澭	-9.1905
��ʹ�	-9.19698
׳	-9.205
ۇٴ	-9.21767
▁һ	-9.22686
˵�������	-9.22906
ϯ	-9.23155
ξ	-9.23159
綾	-9.2316
㽫	-9.24566
ۺ	-9.24567
ܷ	-9.24568
常	-9.24569
ɹŴ	-9.2472
Ѽ	-9.25222
▁ͅ	-9.25498
׷�	-9.26046
�˱��	-9.26454
ʼ�	-9.26837
ݺ	-9.27393
ϥ	-9.27439
۷	-9.27445
ë	-9.27447
ް	-9.27448
�̲�	-9.27503
Ȥ	-9.2886
�˵�����	-9.28873
ͱ	-9.28919
ʢ	-9.30316
ٹ	-9.30403
߲	-9.30404
ȳ	-9.30406
ݼ	-9.30406
></	-9.30409
�˵���	-9.30618
ʹ���	-9.31489
ʹ��	-9.31916
ٳ	-9.3192
Ԫ	-9.31921
·����	-9.32633
Ʈ	-9.32926
�˭	-9.33354
仯	-9.33461
>	-9.337
�˽	-9.34735
߸	-9.34887
��˹�	-9.3533
��	-9.35781
�˶	-9.35985
�£�����	-9.36306
ĥ	-9.36606
ջ	-9.36609
ཻ	-9.36612
�˵��������	-9.36922
׷	-9.38008
��£��	-9.38271
СС	-9.38719
˵��������	-9.38841
����˵��	-9.38946
t	-9.39847
ۿ	-9.39861
ί	-9.39866
治	-9.39867
�׵	-9.40197
���	-9.40418
��˵���	-9.40637
���������������	-9.4087
▁́�	-9.40952
ɿ	-9.41528
𡣡	-9.41528
㻹	-9.41534
ˮ�	-9.42484
��˼��	-9.42717
��΢	-9.43053
ܱ	-9.43222
�˲��	-9.44192
��˼	-9.44248
�˼��	-9.44682
�ͣ�	-9.44809
���˼	-9.4488
Ȣ	-9.4621
Ƹ	-9.46703
ע	-9.46705
�¡���	-9.46877
ʹ����	-9.46884
�	-9.47026
�����˵	-9.4727
�3�	-9.48238
ձ	-9.48489
��˵����	-9.48617
ȫȻ	-9.50292
𣬵	-9.50305
⺢	-9.50306
ݲ	-9.50309
a	-9.52118
⻰	-9.52158
ո	-9.52159
겻	-9.5216
۱	-9.52161
�ʹ	-9.5256
��̫�	-9.54032
Ԯ	-9.54047
�˼�	-9.54693
Ĩ	-9.55967
�˸��	-9.57034
�˼	-9.57396
ɩ	-9.5792
跨	-9.57928
���˵���	-9.58178
�˿	-9.59601
�ʼ�	-9.60534
˲	-9.60622
��˺�	-9.63098
�˲�	-9.63299
ܰ	-9.64056
�˺	-9.66095
é	-9.66179
Ѻ	-9.66181
Ƨ	-9.66182
θ	-9.66182
ar	-9.66208
���˶��	-9.66738
�ʹ���	-9.67025
ȿ	-9.68304
衣	-9.6835
߱	-9.68356
㣿	-9.68356
i	-9.68693
�����˵�	-9.68719
�΢	-9.68791
Ъ	-9.70057
˿	-9.7032
��˿	-9.70402
m	-9.70574
Ƣ	-9.70584
��	-9.70616
Ю	-9.72414
���	-9.72593
뿪	-9.7285
㵱	-9.7285
ݴ	-9.72851
·�����	-9.72978
̧ͷ	-9.73296
˼	-9.73414
�˾	-9.73449
���˳�	-9.7379
ҲҪ	-9.7457
�޹	-9.74984
��ʹ��	-9.75116
�˴��	-9.75123
쿴	-9.75173
ΰ	-9.75175
���˶	-9.75233
���˹�	-9.75252
¶��	-9.76665
��˼�	-9.7676
��£���	-9.77428
�̣��	-9.77698
ɹŹ	-9.78083
˯�	-9.78267
ƽɦ	-9.78958
�̼��	-9.79078
▁���������	-9.79198
Ԩ	-9.79923
ԩ	-9.79989
ᵽ	-9.79997
ʫ	-9.79998
Ч	-9.79999
▁́��	-9.80386
�ʿ	-9.80525
<	-9.80735
�˶��	-9.80786
��3�	-9.81484
̣��	-9.8151
�˰��	-9.81512
Ψ	-9.82488
Υ	-9.82495
��˰	-9.82796
͹	-9.83238
�̵	-9.83715
��ʹ	-9.84038
�ʹ��	-9.84054
׵	-9.84425
���˼��	-9.84762
��΢΢	-9.85046
ѯ	-9.85057
𣬽	-9.8506
첽	-9.85061
۲	-9.85062
΢�	-9.85302
˼�	-9.8624
ƮƮ	-9.87046
˴�	-9.87609
Ũ	-9.87623
��ˮ�	-9.87652
뷨	-9.87692
𣬴	-9.87692
棿	-9.87693
߾	-9.88255
�����˼	-9.88465
ȡʤ	-9.88762
ˮ��	-9.89207
���	-9.89331
�˺��	-9.89386
���ʹ�	-9.89461
�˾��	-9.89483
�	-9.89651
���˺	-9.89715
粻	-9.90398
Ǯ	-9.90399
����1⁄2��	-9.90758
��ʼ�	-9.91648
▁́	-9.92163
˲��	-9.92418
��ʿ�	-9.92513
��˶��	-9.92897
־̹	-9.93308
��¡���	-9.93317
ͨ�	-9.93594
.	-9.93709
�޳	-9.94803
���˼�	-9.94817
���˵������	-9.9576
������˵	-9.95891
Ͱ	-9.95928
߷	-9.95939
ݳ	-9.96031
ⶾ	-9.96032
ݽ	-9.96037
ɦȴ	-9.96756
1	-9.96849
����˵����	-9.97625
▁ͻ	-9.98316
۸	-9.98967
塢	-9.98967
龰	-9.98969
Ϥ	-9.98971
֫	-9.98971
ݸ	-9.98973
ʦĸ	-9.992
˿��	-9.99572
��˭	-9.99805
˲�	-9.99938
����˼	-10.0014
ͣ�	-10.0025
ɹŵ	-10.0026
̧��	-10.0167
Ω	-10.0199
u	-10.02
嶾	-10.02
㵹	-10.02
Ь	-10.02
۰	-10.02
ʥ	-10.02
ժ	-10.0201
⣿	-10.0201
�԰	-10.024
��˵���������	-10.0259
���	-10.031
ࡣ	-10.0338
���	-10.0359
����������������	-10.0394
��˸�	-10.0444
�׷	-10.0444
˿�	-10.047
˼��	-10.048
���˵����	-10.0511
ʨ	-10.0512
ר	-10.0512
ݻ	-10.0513
թ	-10.0513
生	-10.0513
ů	-10.0513
����	-10.0548
�˴�	-10.0579
��̫	-10.0583
���£�	-10.06
��˰��	-10.0604
������˵�	-10.0617
�˳��	-10.064
>��	-10.0651
͸�	-10.0652
ҡҡ	-10.0803
ש	-10.0835
첻	-10.0835
𣬺	-10.0835
˼������	-10.0867
��	-10.0876
����	-10.0883
˽	-10.096
��˴��	-10.0989
���˶�	-10.099
צ	-10.0993
��ʹ���	-10.1006
��˿�	-10.1019
����˶��	-10.1037
��ͬ�	-10.104
��	-10.1117
ç	-10.1167
Ӯ	-10.1169
潣	-10.1169
��£����	-10.1172
�΢΢	-10.1192
򹷰���	-10.1204
˵���������	-10.1253
�ʿ�	-10.1307
�	-10.1309
▁����������	-10.1311
�޶�	-10.1424
ʿ��	-10.1428
3�	-10.1508
ʪ	-10.1513
ὣ	-10.1513
��˶	-10.1513
죿	-10.1514
𣺡	-10.1514
뷷	-10.1514
��˽	-10.1539
▁́�ͨ���	-10.1556
�˴	-10.1615
▁ͅ�	-10.1621
▁́�ͨ��	-10.1636
bd	-10.1641
��̨	-10.1654
Ť	-10.1749
���˸��	-10.175
������˵��	-10.1759
��̨�	-10.1813
�1⁄2	-10.1836
�ͨ�������	-10.1839
Ԥ	-10.187
ǫ	-10.187
م	-10.1919
���	-10.1924
ʼ��	-10.1949
���˵�����	-10.2001
һЩ	-10.2002
̣�	-10.2009
׽��	-10.2041
��˷�	-10.2071
���£���	-10.2073
���˽	-10.208
�¶�	-10.2115
�ͣ��	-10.2131
˭	-10.2131
▁̧��	-10.2165
ɵô	-10.2171
���	-10.2175
�¶��	-10.2177
˳	-10.2213
ͬȥ	-10.2236
Ȭ	-10.224
ݹ	-10.224
ⳡ	-10.224
v	-10.2241
𣬲	-10.2241
⡰	-10.2241
ҫ	-10.2241
湦	-10.2241
ͬ�	-10.2288
�̶�	-10.2297
��׷	-10.2304
ˮ	-10.2316
ϸϸ	-10.2322
̽�	-10.2333
ɽʯ	-10.2334
׷��	-10.2376
�߽	-10.2388
˶��	-10.2449
�˻��	-10.2462
�̨�	-10.2486
�˵���������	-10.249
���	-10.2519
�̣�����	-10.2561
����˹�	-10.2585
"	-10.2622
裡	-10.2625
뵱	-10.2625
𣬾	-10.2625
𣬻	-10.2626
۳	-10.2626
��˺	-10.2629
�˿�	-10.2644
¶	-10.2647
�����	-10.2666
ɵð	-10.2747
▁�����������	-10.2813
����˶	-10.2834
����	-10.2844
��<	-10.2861
��ͬ��	-10.288
˳�	-10.2897
��˽�	-10.2897
▁́�ͨ	-10.2902
�͡�	-10.2943
�±��	-10.2956
��°	-10.2973
▁ͅ��	-10.2973
趯	-10.3025
岻	-10.3025
㣡	-10.3025
հ	-10.3025
ƨ	-10.3026
Ȩ	-10.3026
�˺�	-10.304
���3�	-10.3047
�˯�	-10.3053
�ʹ����	-10.3066
͹�	-10.313
�̣����	-10.3162
���˴��	-10.3208
��ͬ	-10.3253
�˼���	-10.3325
����ʹ�	-10.3334
����	-10.3347
͸���	-10.3358
�̣���	-10.3426
ѭ	-10.3441
Ҥ	-10.3441
㱼	-10.3442
ĩ	-10.3442
k	-10.3442
խ	-10.3442
�˰	-10.3457
�˸	-10.3491
���˰	-10.3539
˼�����	-10.3541
͵͵	-10.3572
׽	-10.3597
��̲�	-10.3607
˾	-10.361
���̲�	-10.3642
▁̧	-10.3642
�����	-10.3646
���¡�	-10.3667
���޵	-10.3686
�2�	-10.3725
�׶	-10.3734
͸	-10.3742
��˶�	-10.38
�������˵	-10.3812
ǰȥ	-10.3821
亹	-10.3877
پ	-10.3877
ت	-10.3877
鲻	-10.3877
뷢	-10.3877
梷	-10.3878
Ǧ	-10.3878
䣿	-10.3878
����˳�	-10.3903
�����˵��	-10.3909
˳��	-10.3986
��˲	-10.3994
򹷰����	-10.3995
˴���	-10.4028
�1���	-10.4049
��£�����	-10.4067
���¿	-10.4078
̫�	-10.4111
��𴦻��	-10.414
��ʿ	-10.4163
�ͬ��	-10.422
�̨	-10.422
˭�	-10.4242
�޷����	-10.4251
��˽��	-10.431
�1�	-10.4315
٤	-10.433
e	-10.4331
y	-10.4331
ɤ	-10.4331
֥	-10.4331
䵶	-10.4331
ᵶ	-10.4332
梵	-10.4332
��˯�	-10.4344
˼���	-10.4396
ͣ	-10.4418
����˵�����	-10.4423
�	-10.4461
�����	-10.4494
�£������	-10.4496
����˼��	-10.4519
�˴������	-10.4555
��ʹ����	-10.4569
�����	-10.4595
������˼	-10.4643
˴����	-10.4648
�̡�	-10.467
��ʿ���	-10.4685
3	-10.4688
ȴû	-10.4767
�ͨ������	-10.4769
˰��	-10.4785
˻�	-10.4798
��¶��	-10.4801
㶼	-10.4806
ي	-10.4806
ӯ	-10.4807
㶫	-10.4807
⡭	-10.4807
뻳	-10.4807
Ϧ	-10.4807
鳼	-10.4807
ݷ	-10.4807
ദ	-10.4808
�����3�	-10.481
ݺݵ	-10.4814
��޿��	-10.4836
�˳	-10.4849
̾	-10.4892
ͨ��	-10.491
��˭�	-10.493
�£��������	-10.4964
˹�	-10.4981
÷��	-10.5008
����˵������	-10.5058
�ͬ�	-10.5129
���˶���	-10.5148
�˷��	-10.5152
▁́���	-10.5168
�<	-10.52
�����˲��	-10.5293
n	-10.5307
df	-10.5308
g	-10.5308
Į	-10.5308
鶯	-10.5308
벽	-10.5308
鼱	-10.5308
q	-10.5308
𣬱	-10.5308
���˻�	-10.5326
���˸�	-10.5376
���ʿ	-10.5399
����˵���	-10.5401
���˰��	-10.5429
����׷�	-10.5436
�˿���	-10.5436
�˸���	-10.5483
˰	-10.5502
���˾	-10.557
����˲��	-10.5575
�£�������	-10.5585
�ͣ����	-10.567
̣���	-10.5684
ԽԶ	-10.5753
�����˳�����	-10.5754
�˱	-10.5811
��˸	-10.5825
𣡡	-10.5833
컨	-10.5834
쵽	-10.5834
ݿ	-10.5834
棺	-10.5834
֭	-10.5834
إ	-10.5834
Ϩ	-10.5834
䵽	-10.5834
ݱ	-10.5834
빫	-10.5834
��ͬ���	-10.5834
̡���	-10.5839
��˸��	-10.5846
����˻	-10.5848
>�	-10.5862
���ͣ�	-10.5877
˴��	-10.589
�¿�	-10.589
üɮ	-10.5924
����ʹ��	-10.5943
һҾ	-10.5966
▁́�ͨ�	-10.5971
1⁄2	-10.5979
�˭���	-10.6014
�ʼ��	-10.6031
�˹�����	-10.6043
��˿��	-10.605
ͣ��	-10.6083
���ʹ	-10.6112
�2��	-10.6117
úÿ	-10.6124
�ͬ���	-10.6126
̽��	-10.613
���˳	-10.6131
���˯	-10.6147
�׷�	-10.6151
˯���	-10.6208
���׵	-10.6213
��𴦻�	-10.6218
���˷	-10.6269
�������˼	-10.628
��˾	-10.6294
Ө	-10.631
ࡣ��	-10.6331
·������	-10.6357
��¶�	-10.6369
鶴	-10.6389
촽	-10.6389
ഫ	-10.6389
ه	-10.6389
佫	-10.639
لجم	-10.639
Ȫ	-10.639
�����˹�	-10.6394
��	-10.6459
��΢�	-10.6481
�����	-10.6489
��߽�	-10.649
��˲��	-10.6492
˯	-10.6543
����˵�������	-10.6568
�˻�	-10.6602
�׵�	-10.6621
ʼ	-10.6662
�΢�	-10.6708
���˿	-10.6708
��˴�	-10.677
��̣�	-10.6777
��˿���	-10.6801
���ͣ���	-10.6812
����˾��	-10.6819
׸	-10.6841
�˸�	-10.6868
����˭	-10.6884
���ͣ��	-10.6894
��ˮ��	-10.6901
�¶	-10.6903
�˴���	-10.6916
�̾��	-10.6922
�޴��	-10.6923
c	-10.6944
鷿	-10.6977
梡	-10.6977
㱾	-10.6977
飿	-10.6977
硢	-10.6978
仨	-10.6978
롢	-10.6978
ũ	-10.6978
𣬷	-10.6978
>..</	-10.6978
�±�	-10.6993
޲��	-10.7
����˰��	-10.7013
�̫�	-10.7021
ʿ	-10.7043
˼����	-10.7056
���1���	-10.7087
˹	-10.7094
˸��	-10.7141
͸��	-10.7169
�˶�	-10.7175
̶�	-10.7179
���ʿ��	-10.7185
��˼���	-10.7189
ͨ���	-10.7218
̤�	-10.7234
���˿�	-10.7241
���ʹ��	-10.7243
˶	-10.728
�¿	-10.729
�˵����������	-10.733
���˵��������	-10.7364
�˲	-10.7365
˻��	-10.7408
ʿ���	-10.7409
��׷�	-10.7448
��޲���	-10.7451
▁̧���	-10.7472
����ͯ�	-10.7498
�ͣ���	-10.7499
óȻ	-10.752
��𴦻����	-10.7547
�����	-10.7555
���˵�������	-10.7579
�͹�	-10.7589
������	-10.7589
ͨһ	-10.759
𣬶	-10.7602
㰮	-10.7602
峿	-10.7602
㶯	-10.7602
ɭɭ	-10.7602
߯	-10.7602
䱸	-10.7602
ࣿ	-10.7603
죺	-10.7603
㿪	-10.7603
㶨	-10.7603
˪	-10.7603
Ǩ	-10.7604
ӥ	-10.7604
Ѭ	-10.7604
�ˮ��	-10.7609
�˹	-10.7619
�±	-10.7641
ʢŭ	-10.7641
���̵�	-10.7672
�÷��	-10.772
�˾�	-10.7737
�����˭	-10.7757
��ׯ�	-10.7761
�ʿ���	-10.7772
�ʹ�����	-10.7809
�׼�	-10.7815
ȫƾ	-10.7835
������΢΢	-10.7851
���׷�	-10.786
������΢	-10.789
˺	-10.7908
һͬ	-10.793
▁˵��	-10.7937
�����˳�	-10.7977
��ͣ��	-10.798
��˻	-10.7997
��	-10.8037
����1⁄2	-10.8055
����ʹ	-10.8056
�˿����	-10.8209
úõ	-10.821
����˵��������	-10.8214
ͦ���	-10.8224
���˾��	-10.8233
��ͯ	-10.8245
��˭���	-10.8259
�˴����	-10.8265
/	-10.8266
侹	-10.8267
į	-10.8268
뻯	-10.8269
㸸	-10.8269
罫	-10.8269
֤	-10.8269
赲	-10.8269
మ	-10.8269
Ⱛ	-10.827
㾡	-10.827
ج	-10.827
⡢	-10.827
ᡱ	-10.827
㰡	-10.827
㷢	-10.827
ը	-10.827
ݰ	-10.827
է	-10.8271
���𴦻�	-10.8272
ab	-10.8274
��˳��	-10.8291
��˲�	-10.8315
�˿��	-10.8335
ͭ�	-10.8349
it	-10.8381
2	-10.839
����˶�	-10.839
��������	-10.8408
�̨��	-10.8435
˾��	-10.848
��̤�	-10.8494
����	-10.8499
̫��	-10.8544
ãȻ	-10.8545
��˱�	-10.856
��˾��	-10.8561
̺	-10.8565
һҹ	-10.857
▁����΢΢	-10.859
�����˴	-10.8591
����˽	-10.8593
�3⁄4�	-10.8598
��˿�����	-10.861
�����£�	-10.8615
�޷	-10.8621
�޵	-10.8621
ʹ�����	-10.8637
�����˾��	-10.865
�����	-10.866
��˻�	-10.8698
�	-10.8709
�߼��	-10.8711
˿���	-10.873
̣����	-10.8732
���£��	-10.874
�̿	-10.8766
̾��������	-10.88
�׼	-10.8806
�׾�	-10.8813
������ʹ�	-10.8816
���¡���	-10.8821
��̨��	-10.8824
��������˵	-10.8826
���¶��	-10.8831
��޷	-10.8858
���̤��	-10.8861
̵	-10.8871
׷���	-10.8872
����΢΢	-10.8884
ͬ���	-10.89
������ͯ�	-10.8924
ƫƫ	-10.8945
�ͣ�����	-10.8946
ʯĹ	-10.8957
¶�	-10.8977
𡭡	-10.8981
򹷰��	-10.8982
絶	-10.8983
㹦	-10.8983
ݾ	-10.8983
𣬸	-10.8983
p	-10.8983
Ȯ	-10.8984
㱧	-10.8984
뽫	-10.8984
춯	-10.8984
Ὣ	-10.8984
𣬰	-10.8984
ά	-10.8984
嵽	-10.8984
泩	-10.8984
赣	-10.8985
ū	-10.8985
hr	-10.9001
��1⁄2	-10.9019
�����˱	-10.9021
��̾	-10.9053
�̴	-10.9104
���̵��	-10.9111
ССһ	-10.9127
úú	-10.9128
�˷	-10.9163
���˭	-10.918
▁ͅͷ	-10.9192
ͣ���	-10.9195
▁�𴦻��	-10.921
����˷	-10.9225
���¶�	-10.9232
�¡��	-10.9268
����˽�	-10.9279
�ˮ	-10.9301
��˴	-10.9325
ãã	-10.9329
һҧ	-10.933
ɻɻ	-10.9338
�	-10.9348
���ʿ�	-10.9355
����΢	-10.9355
˾�	-10.9413
���˺�	-10.9437
�߻�	-10.947
˴	-10.948
���˳��	-10.949
���������˹�	-10.9544
˺�	-10.9545
�����಻�	-10.959
��˺��	-10.9591
���΢΢	-10.9598
�˳�����	-10.9601
�������˵�	-10.9644
˴�����	-10.9649
쳤	-10.9752
൱	-10.9752
ᱡ	-10.9752
��𴦻�������	-10.9752
֬	-10.9753
ى	-10.9753
롰	-10.9753
㵣	-10.9753
鷨	-10.9753
𣬹	-10.9753
Т	-10.9753
洫	-10.9753
ӯӯ	-10.9753
ⷨ	-10.9753
è	-10.9754
�󣬲�	-10.9769
˶˵	-10.977
���˱	-10.9773
ճյ	-10.9778
��˳	-10.9798
˽�	-10.9803
�3��	-10.9831
��ˮ	-10.9839
��˱��	-10.9842
̲�	-10.9848
�2	-10.9856
�޷���	-10.9857
�ͨ�����	-10.9863
����2��	-10.9883
���̶�	-10.9888
�1	-10.9914
	-10.9915
͡���	-10.9925
���˲��	-10.9926
�����ͯ	-10.994
���̣�	-10.9945
�������˵��	-10.9974
��	-10.9978
ˮ���	-10.9991
����˸��	-11.0003
��˭����	-11.0055
�಻�	-11.0071
̸��	-11.0073
׷����	-11.0075
�׹	-11.0087
��ʿ����	-11.0142
¿�	-11.0153
���<	-11.0154
����˲	-11.0154
�޵�	-11.0156
�˱����	-11.0165
�󡹦���	-11.0174
���߿	-11.0176
�̵�	-11.02
�¥�	-11.0205
ʽ�	-11.0211
��˯	-11.0212
�����ʹ�	-11.025
򲻹��	-11.0256
ʾ	-11.0306
����	-11.0329
�����˾	-11.0355
�����˰��	-11.0366
̨��	-11.0379
���ʹ���	-11.0394
�˱�	-11.0401
̡��	-11.0451
��˼�����	-11.0457
��޼	-11.0513
ɬ	-11.0523
����˾�	-11.0524
�����˺�	-11.0526
����	-11.0541
�����˶	-11.0571
���̨	-11.0575
���˲	-11.058
ef	-11.0585
棡	-11.0585
⣺	-11.0585
Ф	-11.0586
ī	-11.0586
粽	-11.0586
ڨ	-11.0586
༤	-11.0587
廨	-11.0587
顢	-11.0587
�˹���	-11.0597
▁����ͨ	-11.0599
֮״	-11.0612
˵�����������	-11.0627
▁�𴦻���	-11.0632
�׽�	-11.0636
▁̄�	-11.064
��������˵�	-11.0647
9	-11.0659
�����ʹ	-11.0667
ڲ࣬	-11.0672
��3⁄4	-11.0691
���˹	-11.072
�𴦻��	-11.0744
�͹��	-11.0752
�׽���	-11.0784
λε	-11.0793
��¿	-11.0813
����̫�	-11.0823
�ࡣ	-11.0826
ǹŹ	-11.0828
�¡�����	-11.0895
������˵���	-11.0896
׹	-11.0897
���˴�	-11.09
�᲻�	-11.0905
�˷�	-11.0909
¡�	-11.093
�»��	-11.0932
˹���	-11.0952
޵	-11.0952
ɲɦ	-11.0954
����˿�����	-11.0966
��ʾ�	-11.0976
�����1⁄2��	-11.0984
�˲����	-11.0991
��˹	-11.1015
���1⁄2	-11.1016
�¿��	-11.1039
ԭҲ	-11.1088
��ͦ�	-11.1129
������˺	-11.1156
�������΢	-11.1158
ͦ�	-11.1162
����˷��	-11.1168
�������˹�	-11.1169
����̾	-11.1169
���޷�	-11.1182
�̽��	-11.1194
�̤��	-11.1201
���ͬ�	-11.1207
�°	-11.1214
��˻��	-11.1218
�⹫��	-11.1222
�޲��	-11.1233
ŭɫ	-11.1237
����˰	-11.1241
���˽��	-11.1254
����˿�	-11.1259
�1⁄4�	-11.1281
����׵	-11.1282
������ʹ��	-11.1283
��¡����	-11.1284
▁́�����	-11.1292
���˵�������	-11.131
�����΢�	-11.1342
��	-11.1342
�3	-11.1348
��໥	-11.1351
����˻��	-11.1358
˳�����	-11.137
ŵû	-11.1384
ùõ	-11.1388
����޵	-11.1392
���޷����	-11.1415
��˵�����������	-11.1418
�޿	-11.1447
�3⁄4	-11.1449
����˯�	-11.146
�˼����	-11.1487
ɭ	-11.1495
췭	-11.1495
֩	-11.1495
ծ	-11.1495
塱	-11.1495
Ȿ	-11.1495
콫	-11.1495
콣	-11.1495
?</	-11.1495
絽	-11.1495
뻹	-11.1495
䳲	-11.1495
𡣹	-11.1495
䡰	-11.1496
紵	-11.1496
佬	-11.1496
긾	-11.1496
練	-11.1496
鼤	-11.1496
ҭ	-11.1496
革	-11.1496
Ϊͽ	-11.1527
▁ת	-11.153
�����˼�	-11.1533
��2�	-11.1541
ͦ	-11.1542
�ʼ	-11.1554
��޿	-11.1554
£���	-11.1561
�������޹	-11.1583
���˼���	-11.1594
��̽�	-11.1607
����3�	-11.1617
����˺�	-11.1625
3⁄4��	-11.1627
԰�	-11.1629
����̾��	-11.1638
�˯��	-11.1641
ɵþ	-11.1642
̽ͷ	-11.1671
˵����������	-11.169
>�����	-11.1706
�޼���	-11.1709
ɵó	-11.1712
�˽�	-11.1723
�ʾ	-11.1723
ڶ࣬	-11.1737
���˿�����	-11.1793
��������˵��	-11.1804
�޲����	-11.1809
˭��	-11.1831
��׼	-11.1831
�3⁄4��	-11.1846
���˸	-11.1853
ͣ�����	-11.1858
�޶��	-11.1866
��̤��	-11.1891
̫	-11.19
Ȼʧ	-11.1919
�°�����	-11.1931
��׺	-11.1942
�˯	-11.1958
�̶	-11.1974
�߿	-11.1986
�������	-11.1987
�ͭ�	-11.1993
�̤���	-11.2011
������	-11.2013
��»	-11.2025
�޶����	-11.2034
��૵	-11.2054
�˭�	-11.206
�߿��	-11.208
�ͦ	-11.2081
˻	-11.2095
�1⁄4	-11.2098
ˮ�����	-11.2102
׼�	-11.2107
���޲��	-11.2111
԰	-11.2111
£�	-11.2116
.</	-11.2119
ʺ	-11.2139
�͹���	-11.2141
̫Ҳ	-11.215
�ٰ	-11.2156
�ʿ��	-11.2218
��޷��	-11.2226
���޲���	-11.2226
�޾��	-11.2252
���˴	-11.2263
˲����	-11.2284
�»���	-11.23
�ʿ�����	-11.2302
���𴦻��	-11.2303
�໥����	-11.2315
˸���	-11.2328
�̳�	-11.2329
�������߻	-11.2329
���̽��	-11.2349
�����	-11.2389
����˴��	-11.2417
��˱���	-11.243
������˹�	-11.2452
�𴦻�	-11.2459
��˸���	-11.249
鱦	-11.2495
>������</	-11.2495
Ὥ	-11.2495
붾	-11.2495
鷳	-11.2495
徻	-11.2495
ἰ	-11.2495
𣬿	-11.2495
糱	-11.2495
㴦	-11.2496
裿	-11.2496
㼸	-11.2496
㼱	-11.2496
齣	-11.2496
𣬼	-11.2496
㻰	-11.2496
鴫	-11.2496
ⰵ	-11.2496
游	-11.2496
磿	-11.2496
෴	-11.2497
붨	-11.2497
>.</	-11.2497
׿����	-11.2513
˶�	-11.2522
÷����	-11.2525
��1⁄4�	-11.2539
�2����	-11.2542
����ʿ	-11.2556
�����ͯ�	-11.2561
▁̧����	-11.258
̫ƽ	-11.2596
�����˶��	-11.262
����¿�	-11.2627
̹����	-11.2631
׼	-11.2642
̨�	-11.2643
ɹŻ	-11.2653
;��	-11.2653
���޶	-11.2681
��1�	-11.2683
�������˰��	-11.2721
�������΢΢	-11.2761
�˻	-11.2768
˸�	-11.2775
���׼	-11.2778
��1⁄2�	-11.2808
�󡣡�	-11.282
���1⁄4	-11.2855
��̫����	-11.286
���ʼ�	-11.2861
ٰ��	-11.2869
����ʹ���	-11.2872
򹷰�������	-11.288
��޽	-11.288
▁́������	-11.2912
��£������	-11.2936
�󣬵���	-11.2937
�����1⁄4�	-11.2939
�̾�˿�����	-11.2946
��1���	-11.2959
���˶����	-11.2988
򹷰�	-11.299
�̧��	-11.2997
���ʹ����	-11.2999
����������˵	-11.3
����ʹ����	-11.3002
���ͣ����	-11.3007
▁̄��	-11.3027
����£��	-11.3042
�̽	-11.3042
▁>	-11.3044
̾��	-11.306
§	-11.3089
ͯ�	-11.3109
�޹��	-11.3139
����	-11.3147
��򡣡�	-11.3155
	-11.3163
�̴�	-11.3164
�¡����	-11.3186
������	-11.3194
2��	-11.32
�˻����	-11.3206
˷	-11.3216
�����˱��	-11.3219
��޵	-11.3219
jŵ	-11.324
�̼�	-11.3245
ʿ�����	-11.325
����	-11.3264
̫���	-11.3272
ׯ��	-11.3298
▁̧�	-11.3299
⿪	-11.33
ׯ�	-11.3308
��޲�	-11.331
�߽�	-11.3341
������ʹ	-11.3354
������˵�����	-11.3382
������¶��	-11.339
����˴	-11.3402
������˵������	-11.3406
�̳���	-11.3409
����˴�	-11.3451
�����£���	-11.3469
���£����	-11.347
▁�����󾪣�	-11.3474
���̫	-11.3491
���᲻�	-11.35
˳����	-11.3524
�����˵���˴�����	-11.3565
��·����	-11.3566
������˲��	-11.3569
ͣ����	-11.3588
ǯ	-11.3606
붯	-11.3606
ä	-11.3606
쾮	-11.3606
ŧ	-11.3606
桱	-11.3606
涯	-11.3606
硱	-11.3606
轣	-11.3606
赭	-11.3606
㱨	-11.3606
ĭ	-11.3606
㡱	-11.3606
𡣻	-11.3606
嶥	-11.3606
蹷	-11.3606
롱	-11.3607
㺦	-11.3607
ꡢ	-11.3607
ԥ	-11.3607
䣺	-11.3607
㿴	-11.3607
鲼	-11.3607
족	-11.3607
糣	-11.3607
첮	-11.3607
׽�	-11.3607
⻨	-11.3607
֯	-11.3607
桢	-11.3607
ⴲ	-11.3607
곤	-11.3607
⡱	-11.3607
٩	-11.3608
طمح	-11.3608
㡢	-11.3608
���¿�	-11.3626
sss	-11.3643
ʽ	-11.3653
��˰�	-11.3659
��¡�������	-11.366
�˯���	-11.3662
�߿���	-11.3667
����	-11.3672
���¶	-11.3673
���޴	-11.3685
�������˼��	-11.3693
˱��	-11.3695
����˭����	-11.3715
̨���	-11.3723
��ͣ�	-11.3736
���̧��	-11.3744
���૵	-11.3744
��׽��	-11.3776
���±��	-11.3787
�������˶	-11.379
ʿ�	-11.3854
�׼��	-11.3866
���̼	-11.3873
�¶���	-11.3874
ԹԵ	-11.3883
�����΢΢	-11.3898
���1	-11.391
����˺	-11.3926
��׶	-11.393
▁́����	-11.3944
�1��	-11.3968
▁����ͨ����	-11.3969
��˺���	-11.3969
�˷���	-11.3973
��˷��	-11.3996
˲���	-11.4004
��£�˵�������	-11.4009
Ҳ̫	-11.4009
˹��	-11.406
�̾�������	-11.4075
����¶��	-11.409
�಻	-11.409
�߽����	-11.4092
������˭���	-11.411
��;�	-11.4128
ͬ��	-11.4155
▁������������	-11.4158
�3���	-11.4159
˽���	-11.4167
򹷰������	-11.4168
�׽��	-11.4171
��׷��	-11.4172
�ͯ	-11.4173
����˸�	-11.4191
�����ࡣ	-11.421
����׼	-11.4212
���	-11.422
�����˵����	-11.4225
��1��	-11.423
����	-11.4235
��޲	-11.4243
������	-11.4252
���¡��	-11.4253
̾�������	-11.4253
����˻�	-11.4294
�̾	-11.4304
��3	-11.4314
���˳�����	-11.4317
������	-11.4329
�����2��	-11.4351
�������˶��	-11.4383
di	-11.4384
�������˺	-11.439
¶���	-11.439
ʾ�	-11.4394
̿	-11.4403
󺹵�	-11.4456
˰�	-11.4456
�˵�����������	-11.4456
��˽���	-11.4465
����˱�	-11.4487
�����ͨ�	-11.4496
�̨���	-11.4512
�˵�˵���	-11.4522
��ͯ�	-11.4538
�����˲	-11.4591
˦����	-11.4597
̸	-11.46
��ͭ�	-11.4602
�˾����	-11.4603
�������	-11.4635
������߽���	-11.4638
���˿��	-11.4647
÷	-11.4652
������	-11.4672
�˺���	-11.4701
������˼�	-11.4702
±�	-11.4714
��಻	-11.472
������£��	-11.4768
�������������	-11.4786
������޼	-11.4793
���	-11.4796
▁1���	-11.4813
����˭���	-11.4821
߿	-11.4823
���°	-11.4835
�����׹���	-11.4837
����˹	-11.4843
������	-11.4845
�׵����	-11.4848
����˾���	-11.485
ح	-11.485
߾�	-11.4851
㱣	-11.4853
붼	-11.4855
f	-11.4855
ḧ	-11.4856
磡	-11.4856
فخم	-11.4856
㱳	-11.4856
쿪	-11.4856
볤	-11.4856
կ	-11.4856
侫	-11.4856
壿	-11.4856
类	-11.4857
ⶼ	-11.4857
อ	-11.4857
༪	-11.4857
䴦	-11.4857
Ὺ	-11.4857
뾡	-11.4857
䶨	-11.4857
ᴦ	-11.4857
ಽ	-11.4858
㷴	-11.4858
��˯��	-11.4858
ෳ	-11.4858
���˵�˼��	-11.4867
������˵��������	-11.488
���ʿ���	-11.4884
▁ͅ���	-11.4887
£��	-11.4889
Ũü	-11.489
jŶ	-11.4895
��˻�����	-11.4897
ƽ̵	-11.4902
���2���	-11.4904
▁<	-11.4904
����̾�˿�����	-11.4911
�������£�	-11.4915
ss	-11.492
����˷�	-11.4929
�𻰣�	-11.4929
������˼��	-11.494
�����˷��	-11.4953
�����¶��	-11.4956
��̱�	-11.4957
���̸�	-11.4963
̳�	-11.4986
ȥɱ	-11.5013
�󣬲��	-11.5015
̾�˿�����˵������	-11.5053
ʿ����	-11.5061
	-11.5067
��̡�	-11.5087
õĺ	-11.5096
˻����	-11.51
��׽�	-11.5107
����˭�����	-11.5118
Ǻú	-11.5127
�׻��	-11.5132
���׼�	-11.5133
�˽��	-11.5134
���˱���	-11.5148
׿	-11.515
���಻	-11.5151
�����˹	-11.5159
��˭��	-11.5161
�������	-11.5162
̾�˿��������	-11.519
�;	-11.521
�󣬶��	-11.5222
̶	-11.5226
������	-11.5241
��ͬ�����	-11.525
���߽���	-11.5275
ͨ����	-11.5283
�ʿ����	-11.5295
���̤�	-11.5307
ƮȻ	-11.5308
��׷����	-11.5311
�����	-11.5312
õú	-11.5327
��΢΢��	-11.5354
�ʹ������	-11.5361
�˿�����	-11.5374
����˿	-11.5382
�����˾�	-11.5393
�߻���	-11.5402
�ʾ��	-11.5428
ŵĹ	-11.545
����ʼ��	-11.5451
��᲻�	-11.546
����ˮ�	-11.5465
�����£��	-11.5476
▁����ͨ�������	-11.5487
ǹù	-11.5506
���࿹��	-11.5508
ɵĺ	-11.5509
���2��	-11.5523
������ʿ	-11.553
�÷������	-11.5531
ͦ����	-11.5531
̳	-11.5534
�����˿	-11.5555
��˭�������	-11.5572
�����¡�	-11.5572
޽	-11.5581
󺺵������	-11.5612
�׷��	-11.5622
÷���	-11.5626
�׿	-11.563
�޷�	-11.5638
�˽����	-11.5649
�˭��	-11.5672
ֱָ	-11.5685
ڵص	-11.5701
��1	-11.5705
�޵����	-11.5709
׽����	-11.572
��˼����	-11.5725
̨	-11.5736
���ͦ�	-11.5741
˺���	-11.5761
�̸	-11.5767
�͸�	-11.5774
�׷����	-11.5774
1���	-11.578
����˶���	-11.5784
�߽���	-11.5787
·�������	-11.5795
�޴	-11.5825
����	-11.5827
�����»	-11.5847
������˾�	-11.5856
����ͬ���	-11.5862
���޲�	-11.5863
��§	-11.5866
�̼���	-11.5872
����˳��	-11.5891
�̻�	-11.5893
������ͨ�	-11.5906
����	-11.5919
�޶���	-11.5931
Ȼû	-11.5937
��¥	-11.594
�����˺	-11.5941
�˵�˵�����	-11.5942
���޹	-11.5944
���޴��	-11.5972
��⹦���	-11.5976
����˱	-11.6005
�׺��	-11.6023
���£�����	-11.603
��2	-11.6033
>���	-11.6033
ʼ���	-11.6058
���3⁄4���	-11.6059
�÷	-11.6066
���˭���	-11.6072
�������	-11.6074
��������΢	-11.6081
�˦��	-11.6092
������	-11.6109
̤��	-11.6109
���߽����	-11.6109
޺޵	-11.6116
˿����	-11.6126
����¿��	-11.6128
�׺�	-11.6132
�����˻	-11.6137
����1���	-11.6147
ʹ�������	-11.6156
1��	-11.6173
��ͣ���	-11.6174
׮	-11.6188
¿	-11.6197
��̽	-11.6198
˷��	-11.6201
˯��	-11.624
خ	-11.6283
㡰	-11.6284
಼	-11.6284
㷲	-11.6284
涼	-11.6284
켫	-11.6284
𡣵	-11.6284
㳤	-11.6284
ن	-11.6285
㵨	-11.6285
깦	-11.6285
忪	-11.6285
梳	-11.6285
뵺	-11.6285
뻨	-11.6285
大	-11.6285
ⳤ	-11.6285
梱	-11.6285
绨	-11.6285
䡱	-11.6286
徲	-11.6286
䰵	-11.6286
å	-11.6286
ഥ	-11.6286
֢	-11.6286
浽	-11.6286
衱	-11.6286
뿹	-11.6286
����ˮ	-11.6286
䵭	-11.6286
Яͬ	-11.6292
���˲�	-11.6299
�׼���	-11.6309
˿�����	-11.6313
ɹŻɻ	-11.6313
��ͣ	-11.632
Ͱ͵	-11.6323
����ˮ��	-11.6336
˵�˰	-11.6337
���3	-11.6342
���΢	-11.635
��˼��£���	-11.635
�˽���	-11.6373
�󣬹�	-11.638
��࿹��	-11.6381
���	-11.6393
�����˵���	-11.6397
��±�	-11.6412
�󣬺���	-11.6418
�����˳��	-11.6451
����˭������	-11.6461
�����	-11.6463
򸾣��	-11.6471
����ʿ�	-11.6512
�����	-11.6533
ׯ	-11.6546
�޷��	-11.655
������˵����	-11.6572
�˳���	-11.6581
����<	-11.6583
̲��	-11.6589
���	-11.6593
޵����	-11.6594
��ͭ��	-11.6616
���ͬ��	-11.6627
�޻��	-11.6629
����	-11.6641
���⬼	-11.665
�������ʹ�	-11.6659
����»��	-11.6665
̣�����	-11.6669
�ͣ	-11.6672
úô	-11.6677
�����ͯ���	-11.6685
�˼�����	-11.6691
ЩҰ	-11.6695
�˭����	-11.672
���˺��	-11.6728
�����˻�	-11.6763
��ʼ��	-11.6767
̣������	-11.6777
̹Ȼ	-11.6786
ùù	-11.6799
�޿�	-11.6802
����	-11.6833
��¡���������	-11.6838
ςο	-11.6853
▁���˽���	-11.6856
ࡣ���	-11.6859
�������	-11.6863
����˵���������	-11.6867
��̬	-11.6874
���·����	-11.688
���ˮ�	-11.689
�󣬾��	-11.6892
�򸾡���	-11.6893
ɵú	-11.6894
���⿪	-11.6913
���ͬ	-11.6924
󣬺	-11.6932
����̶�	-11.6937
����̨�	-11.6942
ǵı	-11.6947
�𴦻�������	-11.6953
˭���	-11.6956
�����˳	-11.697
̼��	-11.6973
��	-11.6984
������ͯ���	-11.6986
��̧��	-11.6989
ǵõ	-11.7005
��˷	-11.7008
�̣�������	-11.7008
޺	-11.7024
��˭�����	-11.7036
����𴦻���	-11.7041
��̨����	-11.7049
��1⁄4���	-11.7058
��ʼ���	-11.7089
����׿	-11.7095
�̳	-11.7138
������¡�	-11.7184
�ͦ��	-11.7196
▁́�ͨ����	-11.7201
�������	-11.7206
�¡	-11.7227
������˵�����	-11.7229
�󣬼�	-11.7237
���¡����	-11.7251
ׯ����	-11.7283
�׵��	-11.7294
��ˮ���	-11.7295
����̨��	-11.7295
˰���	-11.7319
����˭�	-11.7341
����˺��	-11.7342
������1⁄2��	-11.7344
��	-11.7361
̳�����	-11.7364
͸�����	-11.7365
˹�����	-11.7387
£�����	-11.7397
���������˵	-11.7407
��̾��	-11.7416
��˵����������	-11.7423
▁����΢	-11.7429
���޳	-11.7436
Ů̧	-11.7438
��˱����	-11.7439
�����߽���	-11.7444
�����3⁄4��	-11.7454
�󣬿	-11.7455
ʹ������	-11.7456
���°�	-11.746
����˸	-11.7463
����ʾ�	-11.7466
һ̽	-11.7482
�߿�	-11.7502
�������׽�	-11.7506
׶�	-11.7518
�������	-11.7534
����ʽ���	-11.7535
���˯��	-11.7553
������£�	-11.7554
Ⱥɽ	-11.7561
��׿	-11.7567
�䷿�	-11.7581
Ƭɦ	-11.7582
�������ͯ�	-11.7592
��޲��	-11.7593
��¿�	-11.7595
ʽ��	-11.7622
�����ͯ��	-11.7638
�̣������	-11.7653
򣬺	-11.7686
����޳�	-11.7709
�׾��	-11.7711
������˭�	-11.7716
������˿	-11.7727
��ʺ��	-11.7729
�����˸��	-11.775
�˴�����	-11.7752
�׸�	-11.7762
��ٰ�	-11.7762
�̧�	-11.778
Сү	-11.7784
�޺	-11.7803
���˱�	-11.7803
��߽���	-11.7803
��������	-11.7825
���˾���	-11.7833
�������˭����	-11.7857
�����΢	-11.7858
������	-11.7869
���̫�����	-11.787
�����ʿ�	-11.7874
�����˴��	-11.7884
�ˮ�	-11.7887
���§�	-11.7889
���޿	-11.7932
='21	-11.795
d	-11.795
㹥	-11.7951
뱾	-11.7951
㶮	-11.7951
뽣	-11.7951
㷣	-11.7951
谵	-11.7951
塰	-11.7951
౨	-11.7951
첼	-11.7951
꣡	-11.7951
ᡢ	-11.7951
ⷴ	-11.7951
弱	-11.7951
㱻	-11.7951
ƪ	-11.7951
ύ	-11.7951
淨	-11.7951
ⴳ	-11.7951
鰮	-11.7951
⺷	-11.7951
밲	-11.7951
鳡	-11.7951
찡	-11.7952
㷭	-11.7952
뷮	-11.7952
ق	-11.7952
峤	-11.7952
䡢	-11.7952
籼	-11.7952
㾹	-11.7952
涷	-11.7952
⡮	-11.7952
転	-11.7952
졢	-11.7952
â	-11.7952
ⱦ	-11.7952
靑	-11.7952
梶	-11.7952
뵹	-11.7952
쬵	-11.7952
鴽	-11.7952
㰲	-11.7952
죡	-11.7952
綷	-11.7952
ئ	-11.7952
辵	-11.7952
𣬳	-11.7952
ᵱ	-11.7952
価	-11.7952
ॡ	-11.7952
㣺	-11.7952
㳵	-11.7952
㲩	-11.7952
糤	-11.7952
귽	-11.7952
穣	-11.7952
鵽	-11.7952
𵶺	-11.7952
㶾	-11.7953
촦	-11.7953
㵥	-11.7953
㲦	-11.7953
鼫	-11.7953
سح	-11.7953
Ⲣ	-11.7954
>.	-11.7956
�������޵	-11.7964
����ͬ��	-11.7976
̶��	-11.798
߸߰	-11.7986
߷ߵ	-11.8003
��˹��	-11.8013
▁����ͨ��	-11.8018
©	-11.8028
�˱�����	-11.8035
��׵	-11.8037
���÷��	-11.8048
�����͡�	-11.8051
·��������	-11.8062
�°��	-11.8066
��˾�	-11.8069
jű	-11.8081
�⿪���	-11.8083
���˾�	-11.8094
�����ˮ��	-11.8109
�˷������	-11.8114
ɹź	-11.8155
�䶼�����	-11.8158
̵�	-11.8167
�����ʹ����	-11.819
���˽�	-11.8193
�̤����	-11.8195
�ͨ��������	-11.8197
��	-11.8203
ٰ	-11.821
̣��������	-11.8216
;�	-11.8223
��߾�	-11.8223
�񣬵��	-11.8232
���̶	-11.8233
⿪����	-11.826
򡣡���	-11.8272
?	-11.8283
�˲���	-11.8285
�ʽ���	-11.8287
¡��	-11.8293
Ҽҵ	-11.8303
���޳�	-11.8303
˶���	-11.8312
����°��	-11.8327
;����	-11.8329
���˵���������	-11.8335
��3⁄4��	-11.8338
��󷨡���	-11.8338
��ʺ���	-11.8341
εε	-11.8347
����˾	-11.8354
ʩɱ	-11.8358
���񣬾��	-11.8365
����1	-11.8366
������˵�������	-11.8389
������	-11.8392
򹷰�����	-11.8392
�ʾ�	-11.8392
�󣬶�	-11.8396
�����˼��	-11.8406
Źù	-11.8408
����߽���	-11.8416
�̡���	-11.8416
̣�������	-11.8444
����˿���	-11.845
�󾪣�	-11.8459
�����͹�	-11.8461
˫˫	-11.8483
��2��	-11.8496
�󣬹���	-11.8498
�򲻹�	-11.852
󺹵	-11.8526
���͡�	-11.8528
���	-11.8542
͸����	-11.8553
�޲���	-11.856
ͣ������	-11.8575
����׵�	-11.8576
��˶���	-11.859
�������	-11.86
������±��	-11.8617
�¡������	-11.8619
��޶��	-11.8626
��������£�	-11.863
����˼�	-11.8638
��˯����	-11.8639
������2	-11.8641
�˾���	-11.8647
£����	-11.8655
׷�����	-11.8658
�£�˵�������	-11.8659
�޳��	-11.8676
��������˺	-11.8678
�����	-11.8692
ǴƵ	-11.8696
��͹�	-11.8722
�ʹ���򹷰����	-11.8727
���ʽ�	-11.8759
ͨҡ	-11.876
��޻	-11.8764
▁�𴦻����	-11.8771
���	-11.8773
������͸�	-11.8784
���಻����	-11.8785
�����޵	-11.879
��̸�	-11.8792
��¥�	-11.8809
����ͯ��	-11.8819
�ͯ��	-11.882
�򣬸��	-11.882
��׶��	-11.8825
�ͬ����	-11.8831
�����˭�	-11.8837
ɵı	-11.8868
�̥�����	-11.8869
˼�������	-11.887
޶��	-11.8871
��;����	-11.8877
����������	-11.8877
˻���	-11.8898
�̼�������	-11.8901
�ʽ�����	-11.892
��̽��	-11.8926
���ͣ�����	-11.8927
��ʹ������	-11.8932
ùý	-11.8938
�����˵�������	-11.8968
�˶������	-11.8974
��򣬵�	-11.8988
̼�	-11.9006
�����»��	-11.9011
׵�	-11.9012
���˭��	-11.9041
õı	-11.9073
̹�	-11.9075
����̤�	-11.9086
�����˯�	-11.9092
����̲�	-11.9097
����	-11.9099
���1⁄4��	-11.9102
��¡�����	-11.9104
�׾���	-11.9122
����ʺ��	-11.9125
������˼��£�	-11.9146
���̶��	-11.915
����	-11.9161
��������	-11.9173
̴�	-11.9179
	-11.9185
򸾣�	-11.92
����˿��	-11.921
�̷���	-11.9216
���޷��	-11.9225
˵��������	-11.9241
�̴��	-11.9246
����	-11.9249
����˲�	-11.928
಻���	-11.9282
��˰˾	-11.9307
�̧����	-11.9315
���޶˵	-11.9315
������˺�	-11.9334
�2���	-11.9343
��ͯ��	-11.9355
���˸���	-11.9374
��ʹ�����	-11.938
��̻	-11.9383
�̳��	-11.9391
̶���	-11.9397
��޷�	-11.9399
��£	-11.9403
߾��	-11.9408
��͸��	-11.9447
�̺	-11.9464
���˻��	-11.9471
���˻	-11.9483
��̨���	-11.9485
̼	-11.9488
�����ʹ��	-11.9502
�1⁄2�	-11.9507
߼�����	-11.9508
▁���˼�	-11.9511
˿��������	-11.9513
���޷���	-11.9514
���˳���	-11.9517
����˭��	-11.9518
����ͬ�	-11.952
���÷�	-11.952
��ʿ��	-11.9529
�����׽�	-11.9551
▁�𴦻�������	-11.9554
▁����̾�˿�����	-11.9557
�򵹣��	-11.957
����޹�	-11.9582
>?	-11.9586
�����˵�����	-11.9597
������񲣬	-11.96
�����˻��	-11.9614
���ͣ	-11.9615
¶����	-11.9619
��;��	-11.963
򲻿��	-11.9649
▁���˼	-11.9661
���޷	-11.9662
���˹��	-11.9664
�̣��������	-11.969
÷�	-11.9692
������°	-11.9693
��˻���	-11.9693
򵹣�	-11.9706
�����ʿ	-11.9712
�ˮ����	-11.9713
���߿���	-11.9728
ŵĻ	-11.9733
��໥���	-11.9757
ײ֮	-11.9785
▁>��	-11.9814
���̨�	-11.9823
�ͥ����	-11.9826
��ࡣ	-11.9831
'>��	-11.9865
��	-11.9879
�����ͯ�����	-11.9884
���1⁄2�	-11.9885
�ˮ���	-11.989
���˻���	-11.9891
󣬲��	-11.99
�����˶���	-11.9901
¥�	-11.9906
�����׵	-11.9907
̱��	-11.991
˧�	-11.9917
�˺��£���	-11.9928
̾������	-11.9934
0	-11.9949
㾪	-11.9951
ل	-11.9951
ꪣ	-11.9951
澹	-11.9951
費	-11.9951
㲣	-11.9951
ᾢ	-11.9951
䱼	-11.9951
㯣	-11.9951
緹	-11.9951
輰	-11.9951
뿴	-11.9951
ⲿ	-11.9951
統	-11.9951
౧	-11.9951
챦	-11.9951
춷	-11.9951
ൢ	-11.9951
ཫ	-11.9951
ⶴ	-11.9952
䳤	-11.9952
飺	-11.9952
佣	-11.9952
굽	-11.9952
ف	-11.9952
Ἰ	-11.9952
뺣	-11.9952
彫	-11.9952
桭	-11.9952
㻺	-11.9952
伫	-11.9952
ⶨ	-11.9952
칤	-11.9952
뷿	-11.9952
ᱮ	-11.9952
㾫	-11.9952
白	-11.9952
汸	-11.9952
乭	-11.9952
빥	-11.9952
財	-11.9952
洦	-11.9952
Ŭ	-11.9952
⣻	-11.9952
꼸	-11.9952
뷹	-11.9952
뱼	-11.9952
㲽	-11.9952
밵	-11.9952
Ἲ	-11.9953
ԧ	-11.9953
൲	-11.9953
亱	-11.9953
쵣	-11.9953
梸	-11.9953
ྴ	-11.9953
⣡	-11.9953
㽭	-11.9953
⺮	-11.9953
䵱	-11.9953
쳹	-11.9953
뽭	-11.9953
硭	-11.9954
龳	-11.9954
꺺	-11.9954
▁6	-11.9956
�򣬴�	-11.9962
lib	-11.9963
�̡������	-11.9972
���ͯ�	-11.9983
����;��	-12.0004
񣬲����	-12.0018
�̰	-12.0031
�̤	-12.0032
˷�	-12.0041
�����˽	-12.0059
�˭�����	-12.006
�������˶�	-12.0071
�߾��	-12.0072
�������޿	-12.0073
��̸����	-12.0075
��׸	-12.0085
���໥	-12.0096
����3	-12.0097
������˭��	-12.0107
̬��	-12.0126
úŽ	-12.0145
��˴���	-12.0146
���׼����	-12.0147
����԰	-12.0152
⿪�	-12.0152
���񲻶���	-12.0153
�͸	-12.0156
�޶�����	-12.016
�������	-12.0173
ùþ	-12.0182
������޴	-12.0188
�������	-12.0189
���ʿ����	-12.019
����������	-12.0194
�����÷�	-12.0196
��޳���	-12.0216
��	-12.0221
���¥	-12.0225
ǰ̤	-12.0226
����˵�����	-12.0231
�	-12.0236
������˴	-12.0267
�̽����	-12.0291
����΢�	-12.0302
߰ߵ	-12.0304
������	-12.0307
�̶��	-12.0327
���񡣡�	-12.0332
�΢��	-12.0345
�̷�	-12.0346
�˹����	-12.0361
��������׵	-12.0369
���������˵�	-12.037
׮�	-12.0383
▁���˺�	-12.0409
޹�	-12.0417
õĶ	-12.042
ʮƥ	-12.0431
�����ʹ���	-12.0431
dzdz	-12.0432
▁����˵��	-12.0436
ʮö	-12.0447
���߽	-12.0449
2����	-12.0464
�޺޵	-12.0474
ӲҪ	-12.0494
���ࡢ	-12.0496
׶	-12.0503
������˰��	-12.0506
ҽ̵	-12.0512
�����˽�	-12.0521
˺��	-12.0529
�3⁄4����	-12.0533
�����˷	-12.0536
���̽���	-12.0537
��׽	-12.0548
ؿڵ	-12.0549
�̱��	-12.0553
����𴦻�	-12.0556
ǵİ	-12.0567
̫����	-12.0571
��𴦻���	-12.0571
·���������	-12.0575
�������̾��	-12.0594
����˵���������	-12.0596
���;	-12.0608
���̸���	-12.0608
������	-12.0611
�̸��	-12.0625
�����	-12.0628
ȥ̽	-12.0633
�������˸���	-12.0634
▁���˻	-12.0641
�˳����	-12.0649
▁���˰��	-12.0651
�˭˵�	-12.0661
��׼�������	-12.0679
ƵĴ	-12.0687
�׽	-12.0688
��ʾ���	-12.069
�������;���	-12.0692
�ͯ����	-12.0692
���̻�	-12.0697
�������������	-12.0707
˼��������	-12.0714
˷���	-12.0715
���������	-12.0724
���ͦ	-12.0738
��°��	-12.0738
����ͭ��	-12.0747
�ͯ�	-12.0755
���������	-12.0761
��̣���	-12.0761
��͡�	-12.0769
���׷	-12.0775
�������¡���	-12.0785
�����˺��	-12.0788
�������¶	-12.0789
��޺޵	-12.079
����˼���	-12.0798
�̹���	-12.0803
�����˵������	-12.0813
�߼����	-12.0816
̾�˿�����˵�������	-12.0823
����̤��	-12.0827
����2�	-12.0851
���	-12.0862
���޵����	-12.0865
▁�������˰��	-12.0869
��ʽ	-12.0884
�ׯ�	-12.0886
���¥�	-12.0889
���ͦ���	-12.0898
���1�	-12.0902
���𴦻����	-12.0916
�����˭����	-12.0918
ʽ����	-12.0921
������˾��	-12.0922
ͦ�����	-12.0923
ʹ˰��	-12.0931
����޼	-12.0932
�����񱼣�	-12.0936
���̨���	-12.0948
��󾪣�	-12.0956
�˼������	-12.0961
�̾�˿	-12.0987
�����1⁄2	-12.0999
���׺��	-12.1003
⹫���	-12.1007
�̿��	-12.1008
��̹���	-12.1019
�����׻�	-12.1022
����˹��	-12.1035
׼��	-12.1048
����ͦ	-12.106
�������°	-12.1061
����̱�	-12.1066
�޴�	-12.1075
�����������	-12.108
��԰�	-12.1081
����	-12.1082
�����޳�	-12.1108
�󣬸��	-12.1108
���׺	-12.1122
�̹�	-12.1129
˱�����	-12.1136
�̺��	-12.1166
Ǻõ	-12.1169
�������˻	-12.1178
����׾	-12.119
��̫��	-12.1191
úý	-12.1193
����ʹ�����	-12.1209
���̾	-12.1215
▁��������˵�	-12.1222
�׷�����	-12.1225
��������˼	-12.1248
���¡�����	-12.1265
��������ʹ�	-12.1281
�˺����	-12.1284
����¶	-12.1291
��׷���	-12.1309
�񣬽��	-12.1309
�ʻ���	-12.1314
�߼�	-12.1317
��£�������	-12.1317
�;�	-12.134
ǵĴ	-12.1347
߼	-12.1355
����̽�	-12.1376
����񣬲�	-12.1381
�˰�	-12.1386
�����޾�	-12.1398
԰����	-12.1407
������	-12.1411
�������	-12.1413
΢�����	-12.1415
���÷���	-12.142
���˭�����	-12.1422
�׵���	-12.1441
��޳�	-12.1442
���������	-12.1451
˭��˭�	-12.1456
�°���	-12.1467
��ͣ�����	-12.147
�ˬ�	-12.1485
�������	-12.15
���ͯ��	-12.1518
¥��	-12.1519
����̬	-12.1527
��	-12.1549
�̷��	-12.1553
����񲻶���	-12.1568
�̹����	-12.1582
��ͦ	-12.1586
���������޺	-12.1588
̤���	-12.1589
���̧�	-12.1605
᲻�	-12.1609
�̵��	-12.161
���˻����	-12.1623
�΢����	-12.163
������	-12.1638
3⁄4����	-12.1641
������˷��	-12.1654
�������˸	-12.1664
�˵���������	-12.1666
����	-12.167
��£��������	-12.1683
����̨	-12.1685
�����̽�	-12.1689
ͦ��	-12.1691
���̱�	-12.1699
��»����	-12.1705
�ʻ�����	-12.1725
�󣬽	-12.1725
�࿹����	-12.1726
������̾	-12.1733
̹	-12.1739
�����¶�	-12.1761
��޵��	-12.1772
���޻��	-12.1779
̵����	-12.1787
���̰�����	-12.1789
���׽�	-12.1815
��2���	-12.1818
������𶯣���	-12.1818
��������§	-12.1826
࿴�����	-12.1842
������	-12.1843
��׼��	-12.1858
����̸�	-12.1874
������	-12.1883
▁�������������	-12.1886
▁������������	-12.1898
�ˮ̶�	-12.1916
����������˵�	-12.1944
���׼��	-12.1949
����񣬾��	-12.197
����ͬ	-12.1972
���򹷰���	-12.1974
޳�	-12.1975
ˮ������	-12.1985
��������;��	-12.1988
�˶���	-12.1992
�׶�	-12.2001
���̴��	-12.2006
���˴����	-12.2029
�̵��������	-12.2036
�˸����	-12.2041
˴������	-12.2045
��˯���	-12.2049
̵Ĺ	-12.2055
����׽	-12.2069
�ʺ�	-12.2074
��	-12.2081
▁>�	-12.2096
��ͦ����	-12.2106
▁�𴦻�	-12.2127
�󣬽��	-12.2152
�󣬻�	-12.2153
�������2��	-12.2189
�����󾪣���	-12.219
���˶�����	-12.2196
�׸	-12.22
�������������	-12.221
�������˭���	-12.2227
��̰�	-12.2251
����̻	-12.227
̸���	-12.2282
���̻���	-12.2291
����˽��	-12.2302
���޺�	-12.2318
���򣬽	-12.232
���⵱�	-12.2325
�����˸	-12.2326
�������˸��	-12.2337
�2������	-12.2342
��̴	-12.235
̸����	-12.2355
�񣬾�����	-12.2363
������	-12.2366
���������ͯ�	-12.24
7	-12.2402
�޲�	-12.2403
�������ͨ�	-12.243
󺺺	-12.2434
8	-12.2439
5	-12.2439
�͡��	-12.2441
Q	-12.2442
��࿹���	-12.2443
���񣬵���	-12.2443
�����˶�	-12.2444
皿	-12.2449
⡶	-12.245
㽥	-12.245
㴩	-12.245
��񿥷	-12.245
巿	-12.245
䱮	-12.2451
漰	-12.2451
Ầ	-12.2451
گ	-12.2451
䶯	-12.2451
Ʀ	-12.2451
㵲	-12.2451
봹	-12.2451
ྪ	-12.2451
䣡	-12.2451
䴩	-12.2451
ડ	-12.2451
Ǥ	-12.2451
㻨	-12.2451
䵥	-12.2451
뷭	-12.2451
ï	-12.2451
ⴸ	-12.2451
罩	-12.2451
�����򸾶��	-12.2451
פ	-12.2451
뽻	-12.2451
梴	-12.2451
羰	-12.2451
齫	-12.2451
븸	-12.2451
Ự	-12.2451
㻶	-12.2452
缸	-12.2452
Ӭ	-12.2452
䵹	-12.2452
漸	-12.2452
뼸	-12.2452
ᡭ	-12.2452
ᡰ	-12.2452
㴫	-12.2452
㽻	-12.2452
伸	-12.2452
꾹	-12.2452
ຮ	-12.2452
仹	-12.2452
ᄍ	-12.2452
屻	-12.2452
汼	-12.2452
羴	-12.2452
뼤	-12.2452
칦	-12.2452
ᰡ	-12.2452
田	-12.2452
䡭	-12.2452
28	-12.2452
Э	-12.2452
جحى	-12.2452
㷽	-12.2452
㹫	-12.2452
䱻	-12.2452
輸	-12.2452
𡣶	-12.2452
㻯	-12.2452
塯	-12.2452
⻪	-12.2452
㹻	-12.2452
嶼	-12.2452
룿	-12.2452
㼣	-12.2452
涫	-12.2452
᳦	-12.2452
編	-12.2452
졭	-12.2452
����	-12.2452
伱	-12.2452
谡	-12.2452
潫	-12.2452
濴	-12.2452
ɧ	-12.2452
춼	-12.2452
ⲽ	-12.2452
峺	-12.2452
彣	-12.2453
伢	-12.2453
黯	-12.2453
估	-12.2453
ಫ	-12.2453
츴	-12.2453
澰	-12.2453
뵤	-12.2453
㿳	-12.2453
ꡱ	-12.2453
籨	-12.2453
黳	-12.2453
ᰴ	-12.2454
뼱	-12.2454
�񣬲��	-12.2455
��������	-12.2455
ƫ̻	-12.2455
�����׽���	-12.2456
�¥���	-12.2457
��1⁄4	-12.246
�޹˼	-12.246
▁8	-12.2461
̻壬	-12.2463
��	-12.2468
������˳�	-12.2468
��׹��	-12.2473
��˼�	-12.2476
��׹��������	-12.2493
ߴߴ	-12.2495
󵨣����	-12.25
��	-12.2515
����񣬵���	-12.2517
ѧԨ	-12.2536
���޲����	-12.2557
▁���˹���	-12.2563
jź	-12.2567
���׶	-12.2589
cl	-12.2604
ؿڱ	-12.2608
������ʹ����	-12.2622
�����̣�	-12.2624
ࡣ����	-12.2648
������������	-12.2659
˧	-12.266
��̫�����	-12.2668
�̨����	-12.2691
ѹѹ	-12.2702
���𴦻�������	-12.2705
�£�˵�����������	-12.2717
�£��˿�	-12.2719
��������˥�	-12.272
�����」�	-12.2729
��»�����	-12.2738
����̸	-12.2738
ؿں	-12.2744
�����˼���	-12.2745
���򣬵������	-12.2753
�̫���	-12.2754
�����¶���	-12.2774
����¥�������	-12.2783
̤	-12.2786
�˳ˮ���	-12.2792
��������˶�	-12.2807
�̺�	-12.2813
���˹���	-12.2815
�����˿��	-12.2819
���������£�	-12.2819
׺��	-12.282
��˾���	-12.2843
ijƺ	-12.2845
޵��������	-12.2845
���̤���	-12.2884
�������˴�	-12.2893
�����¡���˵��	-12.2895
�����˵��������	-12.29
�˶����	-12.2901
⵶���	-12.2906
����ͯ	-12.2941
��������	-12.2946
���໤���	-12.2948
�˵�������������	-12.2949
ȥŤ	-12.2955
Ʒò	-12.2955
¿��	-12.2965
���˯�	-12.2972
�£���������	-12.2973
Dzź	-12.2974
˵�˼��	-12.2974
��޷���	-12.298
���3⁄4�	-12.2988
��˼˵����	-12.3
ҪЮ	-12.3005
�����	-12.3009
���⹦��	-12.3023
�󣬴�	-12.3029
��÷������	-12.3033
�͸���	-12.3049
����̴	-12.3059
���޴�	-12.3063
������˵�˳������	-12.3066
޵�	-12.3078
�������	-12.3085
�󣬵������	-12.3096
��񣿡�	-12.31
�𻰣��	-12.31
1⁄4	-12.31
�ͨ����������	-12.3108
¡���	-12.3112
▁���˶���	-12.3117
���ͯ�����	-12.3122
���̬���	-12.3127
��������˹�	-12.3133
�̷	-12.3147
��͸�	-12.3147
�����˭��	-12.3163
����°���	-12.3172
���˯����	-12.3173
▁����ͨ�	-12.3186
����׷	-12.3192
��񣬲���	-12.3193
��˵������������	-12.321
=	-12.321
���ˮ��	-12.3213
���޿��	-12.3216
����׸��	-12.3227
��󲻽	-12.3235
ŵĺ	-12.3241
��̾��������	-12.3242
ǵĵ	-12.3243
��˼��£�	-12.3246
������޿	-12.3247
�������󣬵�	-12.3258
ɵø	-12.3263
���̡������	-12.3267
�÷�	-12.3275
޿	-12.3284
�󣬱�����	-12.3285
����������ͯ	-12.3287
�˷׷	-12.3297
����	-12.3303
�����」���	-12.3311
�󵨣���	-12.3325
������̫	-12.3326
�̤�����	-12.3343
�߽��	-12.3349
�߿����	-12.3354
�̰����	-12.3382
������	-12.3387
����˻�����	-12.3393
��̧	-12.34
������;��	-12.3416
�԰��	-12.3422
���ʾ���	-12.3443
޿����	-12.3447
�⵱��	-12.3459
�����¿	-12.3462
׸�	-12.3481
���̫�	-12.3491
���ꣿ����	-12.3494
���	-12.3515
���׽��	-12.3523
�����	-12.3525
����޹	-12.3539
�����׺�	-12.3562
ͨ�����	-12.3572
▁�������˴��	-12.3585
��ͬʹ����	-12.361
�̫	-12.3614
���������˼	-12.3623
�ˮ��������	-12.3624
󣬹	-12.3637
߼��	-12.3638
���͢�	-12.3643
�̽�	-12.3645
���2����	-12.3667
̻����	-12.3668
��������������	-12.3683
�������˵���	-12.3695
�̡��	-12.3698
���������	-12.3701
������	-12.3702
�࿹���	-12.3712
�޺�	-12.3714
����޷����	-12.3716
��3���	-12.3717
΢������	-12.3724
̷�������	-12.3732
��˹����	-12.3734
�򲻶����	-12.374
����」���	-12.3756
�ʿ������	-12.376
�����������	-12.376
����̬���	-12.3763
᲻	-12.3764
��̸�����	-12.3775
�̣�����������	-12.3778
����޿	-12.3785
�ͯ���	-12.3789
��͸���	-12.379
���3�����	-12.3837
��˺�������	-12.3841
����˭�������	-12.3857
������˻�	-12.3868
��̶�	-12.3876
�̾��������	-12.3881
򲻹�	-12.389
˭�����	-12.3892
񶷣��	-12.3899
�����˿�����	-12.3899
�����ٰ����	-12.39
�׭��	-12.3903
���޺	-12.3905
�ͦ����	-12.392
����1⁄2�	-12.3921
ǵĶ	-12.3921
����˸�����	-12.3927
ùú	-12.3936
�׶��	-12.3937
������͹���	-12.3939
κε	-12.3949
1⁄2��ׯ���	-12.3954
�����	-12.3958
򣬲������	-12.3961
�̼����	-12.3971
�����̡���	-12.3973
�����3⁄4�	-12.3982
▁̄������	-12.3992
����ʿ����	-12.3993
������˸	-12.4004
�󣬰	-12.4008
������׷	-12.4008
����ʼ�	-12.4014
�����˺���	-12.4027
�򡣡�	-12.4031
�������	-12.4034
���	-12.4041
�̶���	-12.4043
�����ͭ�	-12.4058
��̣����	-12.406
צץ	-12.4061
����˶����	-12.4063
ٰ�	-12.4065
��ٰ��	-12.4073
�������˲	-12.4075
�����ࡢ���	-12.4078
��̤����	-12.4098
��˿����	-12.4103
�񣬵������	-12.4104
��������	-12.4108
СѼ	-12.4111
�󾪣��	-12.4119
����˱��	-12.4121
�����˭˵�	-12.4125
��ͣ����	-12.4125
��˵�˵�������	-12.4127
����ˮ����	-12.413
׵���	-12.4135
˵��������������	-12.4148
���	-12.415
�£���˵�	-12.4151
�������ͭ	-12.4161
�򹷰�����	-12.4164
▁̧�̨��	-12.4172
�����󲽣��	-12.4173
�	-12.4181
󾪣���	-12.4193
ǻĹ	-12.42
󣬺�	-12.4206
����̸��	-12.4218
����˵����������	-12.4231
���˲����	-12.4236
䶾���	-12.4246
��˼������	-12.4246
���	-12.4249
�������§	-12.4254
�󣬷���	-12.4257
�̸�	-12.4259
�������⹫	-12.4268
���������⿪��	-12.4287
��̶	-12.4291
����ͣ���	-12.4294
▁�����߽�	-12.43
�������˽��	-12.4303
����޴󰭡�	-12.4303
�̫�����	-12.4331
�׷׵��	-12.4336
���޶��	-12.4339
����ʿ���	-12.4339
ɵü	-12.4349
̾���������	-12.4368
԰��	-12.4373
˶�����	-12.438
䶷	-12.4384
������������	-12.4386
޵��	-12.4394
������」������	-12.4404
�����̫�	-12.4415
�������͡�	-12.4419
�����˶����	-12.4419
߽���	-12.4428
򣬵������	-12.4439
˾����	-12.444
1⁄2��ׯ	-12.4441
�����˲�	-12.4453
Ϊς	-12.4462
��¡	-12.4506
�����̤��	-12.4508
����̤�����	-12.4514
׼�����	-12.4515
�޼᲻�	-12.4522
����»	-12.4545
���˵���˴���	-12.4546
�󣬵�	-12.4548
��ͥ�	-12.4561
�¶����	-12.4561
޴	-12.4566
���񼼣�	-12.4574
���������ʽ���	-12.4576
�ʹ���������	-12.4593
▁���˳	-12.4599
���񹦣��	-12.4599
��𴦻�����	-12.46
����˵����˵�	-12.4607
��±��	-12.4615
���������˰��	-12.4617
��˺����	-12.4619
�󣬾����	-12.4623
��ʽ���	-12.4624
���̣��	-12.4634
�ʼ���	-12.4636
������	-12.4649
������˿���	-12.4652
����1⁄4�����	-12.4657
�£�˵�����	-12.466
�������޴	-12.4662
�����1⁄4	-12.467
���˶�˵�	-12.4681
2���	-12.4686
�������	-12.4689
׮���	-12.47
��������������	-12.4709
�����<	-12.471
ԼԼ	-12.4728
���ˮ	-12.4741
�������¡�	-12.4747
������󾪣��	-12.4749
�����±	-12.4751
▁ͅ�������	-12.476
򣬴	-12.476
���̨��	-12.4775
����񣬵�	-12.4807
���£��������	-12.4837
��˵����������ͯ	-12.4871
�޸�	-12.4877
���̤	-12.4894
ҪѰ	-12.4903
��˵�������	-12.4916
�˻���	-12.4924
�����˸�	-12.4934
͹����	-12.4937
�	-12.4949
��������ʹʹ�����	-12.4954
������׿	-12.4966
����������	-12.4966
��	-12.4976
�����̤	-12.4978
���ׯ	-12.4981
����������	-12.4985
▁ͅ¿�	-12.4993
�������˱	-12.4997
���޽��	-12.5001
��������	-12.5007
���񣬱	-12.5018
󣬹���	-12.503
���	-12.5032
�޽	-12.5043
������ˮ��	-12.5043
�ʻ	-12.5049
˦	-12.505
�����������˺	-12.5055
Ȼ̾	-12.5062
���࿹���	-12.5063
��������¡���	-12.5076
�������ͯ	-12.5078
�������̫	-12.51
򣬵���	-12.5102
�󣬻��	-12.5104
򣿡����	-12.5108
󣬶���	-12.5111
�����߽��������	-12.5114
�ͦ�����	-12.5121
��ˮ̶	-12.5125
����2	-12.5129
��̤���	-12.5131
��԰��	-12.5134
����̷������	-12.5139
һ̧	-12.5142
��������˵������	-12.5154
ʽ�����	-12.5154
�޿��	-12.5156
ʻ���	-12.5164
��ͦ���	-12.5175
�󣬽�����	-12.5176
ˮ����	-12.5187
��޹�����	-12.5195
�ׯ���	-12.5195
ʿ�������	-12.5195
ti	-12.5197
�˶�����	-12.5199
����̧��	-12.5199
�̩�����	-12.5207
���޺�����	-12.5213
��׹�����	-12.5213
̹��	-12.5219
̧	-12.5224
�⸱�	-12.5228
©��	-12.5228
▁�������˼��	-12.5241
���2	-12.5247
�򣬽	-12.5253
�������˾	-12.5254
;���	-12.5259
�����˭�����	-12.5263
��޶�	-12.5275
��˵�������������	-12.5279
������˵���������	-12.5281
𲻿	-12.5288
�󣬳��	-12.5291
�񡣡�	-12.5307
�����	-12.5307
����������˼	-12.5311
������	-12.5311
�������޲	-12.5317
��˻����	-12.5321
õò	-12.5323
�������˳�	-12.5324
����;	-12.5327
������໥�	-12.5334
�����ͯ����	-12.5337
����˳	-12.5343
಻	-12.5343
����׶	-12.5343
˱����	-12.5345
׷׸	-12.5363
���1⁄4�����	-12.5367
̰��	-12.5372
��¥��	-12.5376
���˵����������	-12.5377
��˥��	-12.5385
��ˬ��	-12.5397
׼���	-12.5398
�����˦	-12.5401
�����¶	-12.5411
�޺���	-12.5418
��񡣡�����	-12.5426
���̴�����	-12.5428
����࿹��	-12.5428
��2������	-12.5428
���	-12.543
�������ʹ��	-12.5432
������׾	-12.5432
���̡���	-12.5435
�󣬺�����	-12.544
�����𴦻��������	-12.5448
�᣿�	-12.5449
��£�˵�����������	-12.5453
������̾�˿�����	-12.5458
����ͯ���	-12.546
�±������	-12.5465
����������˵��	-12.5468
�̶������	-12.5471
���;��	-12.5474
▁���˼�����	-12.5477
����¥	-12.5478
���򣬱	-12.5486
񣬺��	-12.5487
ٰ���	-12.549
�1⁄4��	-12.5511
▁���˲�������	-12.5513
��ͦ��	-12.5516
����˱������	-12.5534
�����	-12.5537
����������⹫����	-12.5545
���ͣ��������	-12.5546
����޵����	-12.5558
�¥��	-12.5575
��÷��	-12.5575
��⹦��	-12.5578
�������˽	-12.5578
▁5	-12.5582
����̾�˿���������	-12.5587
�������3�	-12.5591
����󷨣����	-12.5602
�̬	-12.5618
����ࡡ�����	-12.5621
�����	-12.5631
▁���˾	-12.5637
�����ͬ��	-12.5649
����̦����	-12.5653
��׺�	-12.5655
��ʻ���	-12.5669
�����..���	-12.569
߻	-12.5703
������߽��	-12.5704
����񲻶�����	-12.5705
������	-12.5713
©���	-12.5714
̸�����	-12.5717
�����˹���	-12.5722
���������׶��	-12.5723
����ͭ�����	-12.5724
�����������˼	-12.5725
��󣬳�	-12.5739
��2����	-12.575
�����׹��	-12.5767
4	-12.5769
�����̸�����	-12.5769
6	-12.5773
罥	-12.5781
�˵��������	-12.5782
و	-12.5782
حي	-12.5782
糾	-12.5782
Ϭ	-12.5782
뺮	-12.5783
㱸	-12.5784
�󼲷��	-12.5784
绢	-12.5784
衢	-12.5784
볡	-12.5784
'>��������	-12.5784
龹	-12.5784
綯	-12.5784
త	-12.5784
䰮	-12.5784
緶	-12.5784
Ἣ	-12.5784
佱	-12.5784
巢	-12.5784
Ѯ	-12.5784
㽣	-12.5784
뷳	-12.5784
첹	-12.5784
봫	-12.5784
ɪ	-12.5784
챧	-12.5784
����򸾳��	-12.5784
࣡	-12.5784
顱	-12.5784
󺣱	-12.5784
䲮	-12.5784
䴫	-12.5784
趼	-12.5784
糿	-12.5784
飡	-12.5784
꾡	-12.5784
󿪴	-12.5784
ال	-12.5784
鱾	-12.5784
ౣ	-12.5785
⻬	-12.5785
檣	-12.5785
穡	-12.5785
赡	-12.5785
齶	-12.5785
༥	-12.5785
俰	-12.5785
殣	-12.5785
쵰	-12.5785
ศ	-12.5785
㱡	-12.5785
羭	-12.5785
鷢	-12.5785
໶	-12.5785
粨	-12.5785
���	-12.5785
𡱣	-12.5785
緢	-12.5785
鳤	-12.5785
鴤	-12.5785
뱻	-12.5785
컬	-12.5785
����޺󻼣���	-12.5785
���������󡣬������	-12.5785
齥	-12.5785
콵	-12.5785
򱧲	-12.5785
羢	-12.5785
ة	-12.5785
ⶸ	-12.5785
㻳	-12.5785
佭	-12.5785
徭	-12.5785
沢	-12.5785
෨	-12.5785
ѫ	-12.5785
浱	-12.5785
辶	-12.5785
츦	-12.5785
梺	-12.5785
쵱	-12.5785
٬	-12.5785
㽩	-12.5785
뱧	-12.5785
컹	-12.5785
='2	-12.5785
౯	-12.5785
ಢ	-12.5785
ิ	-12.5785
㺮	-12.5785
黭	-12.5785
�๥��	-12.5785
Ἧ	-12.5785
䰫	-12.5785
뾭	-12.5785
����������ࡰ�	-12.5785
>.99����	-12.5786
ౡ	-12.5786
㵶	-12.5786
㼤	-12.5786
洿	-12.5786
淴	-12.5786
㷳	-12.5786
侭	-12.5786
嵫	-12.5786
Ǭ	-12.5786
ȧ	-12.5786
ధ	-12.5786
⻭	-12.5786
淢	-12.5786
米	-12.5786
衭	-12.5786
볾	-12.5786
챾	-12.5786
�󺹡���	-12.5786
𪣬	-12.5786
彡	-12.5786
뼬	-12.5786
لآ	-12.5786
ࣺ	-12.5786
ൽ	-12.5786
㻻	-12.5786
	-12.5786
ỹ	-12.5786
㰵	-12.5786
梽	-12.5786
梾	-12.5786
澢	-12.5786
羡	-12.5786
诵	-12.5786
밡	-12.5786
���	-12.5786
Ԣ	-12.5786
⻮	-12.5786
㾭	-12.5786
빪	-12.5786
X	-12.5786
似	-12.5786
뼯	-12.5786
̲	-12.5786
뱸	-12.5786
任	-12.5787
嵭	-12.5787
滮	-12.5787
紺	-12.5787
볣	-12.5787
䰡	-12.5787
굱	-12.5787
Ɱ	-12.5787
乫	-12.5787
컯	-12.5787
I	-12.5787
ضحي	-12.5787
鸡	-12.5787
鼸	-12.5787
��¡¡���������	-12.5787
ⵤ	-12.5787
ʝ	-12.5787
ⱱ	-12.5787
⿴	-12.5787
鼮	-12.5787
ᴫ	-12.5787
渴	-12.5787
龫	-12.5787
춦	-12.5787
㵭	-12.5787
屾	-12.5787
㡮	-12.5788
嵴	-12.5788
༫	-12.5788
쾭	-12.5788
ⷽ	-12.5789
>?</	-12.5789
걾	-12.5789
��𴦻�̾��������	-12.5791
>��9	-12.5792
󾪣����	-12.5792
an	-12.5792
˽�ͭ���	-12.5793
�˿̹�	-12.5795
▁4	-12.5795
����̶��׽��	-12.5797
�������������	-12.5798
�����1˲��	-12.5798
���˸�ͦ���	-12.5804
�󣿡�	-12.5806
������˼������	-12.5808
񣿡�����	-12.5809
̤ѩ	-12.5813
���1⁄2��ׯ�	-12.5819
׽�˿	-12.5821
��������	-12.5833
ͦͦ��	-12.5841
�÷��1⁄2�	-12.5847
������3⁄4���	-12.5848
���׿	-12.5849
�����§�	-12.5856
׮��	-12.5863
��˼��£�˵��������	-12.5865
�����˵�����̨�	-12.5867
�£�˵����	-12.5868
�¶������	-12.5873
��˱�˵���	-12.5882
�ͨ�͹���	-12.5885
�����⬼	-12.5887
�����̶��	-12.5887
��΢���	-12.589
▁˯����	-12.5891
���̤����	-12.59
����	-12.5905
�������԰	-12.5911
ٻش	-12.5912
�����˽��	-12.5914
ǸȻ	-12.5923
���޹�	-12.5923
▁���˲������	-12.5924
����������	-12.5927
▁���˳���	-12.593
��˳������	-12.5931
��񣬺	-12.5932
ŵĶ	-12.5938
����3⁄4	-12.5944
����	-12.595
΢�ͣ�	-12.5951
�̰������	-12.5954
��಻�	-12.5954
▁ͅõ	-12.5954
��	-12.5959
���̣����	-12.5964
ùõĺ	-12.5971
▁�����ʹ	-12.5978
Ǻúõ	-12.5992
�£�˭	-12.6004
ɹŵĹ	-12.6011
�£�1⁄2��	-12.6015
žž	-12.6017
��̳���	-12.6023
���˭�	-12.6031
1⁄2ׯ��������	-12.6032
�������ͣ�	-12.6034
�ʹ�������	-12.6039
󣬴��	-12.6043
����޶��	-12.6052
��򣬾������	-12.6055
��̶��	-12.607
������	-12.6071
����	-12.6086
���������˱�	-12.6091
����޼�	-12.6096
��˭˵�	-12.6098
�׼�����	-12.6099
��������˼��£��	-12.6111
�����������	-12.613
▁�������1⁄4��	-12.6131
����ࡡ�	-12.6133
�˭������	-12.6135
úó	-12.6147
�󣬴������	-12.615
�����޻��	-12.616
������𲽼��	-12.6162
��	-12.6163
�������	-12.6167
ҽӿ	-12.6169
����̻�	-12.6175
ֳֶ	-12.6186
��������������	-12.619
����	-12.6193
�໥��	-12.6195
ؾص	-12.6202
�������˺�	-12.6204
���������«��	-12.6205
ɹþ	-12.6212
��������󡹦�	-12.6214
�����˿�	-12.6219
���̼�	-12.6243
�˵�˵������	-12.6245
�ٰ����	-12.6249
�̹��	-12.6253
��������	-12.6267
▁���˷����������	-12.6278
��������	-12.6287
�͸��	-12.6299
��˵��������˵���	-12.6322
��׻��	-12.6325
���	-12.6326
̥�������������	-12.6333
����������	-12.634
�׻���	-12.6347
Ȼʕ	-12.6349
��̾��˵������	-12.6352
СӨ	-12.6354
ɥĸ	-12.636
����������͸�	-12.6368
������˺��	-12.6371
���׷����	-12.6372
�����޷	-12.6379
���ʻ�	-12.6385
᣿��	-12.6386
ŵñ	-12.6396
���˼����	-12.6397
󣬶�	-12.6398
�����˰	-12.6403
󣬶��	-12.6408
▁������̾	-12.641
��򣬵����	-12.6414
�޻�	-12.642
�¥	-12.642
ʻ��	-12.6433
�������޽�	-12.6441
󣬼�	-12.6443
ɦŤ	-12.6453
������񱼡�	-12.6453
����˥���	-12.6455
򣬿	-12.6461
��̽���	-12.6467
�̸����	-12.6474
▁���˻���	-12.6475
������˥���	-12.6476
���	-12.6493
�����˾���	-12.6503
���������	-12.6507
���˿����	-12.6518
▁�˴���	-12.6518
�����޻������	-12.6519
�޽���	-12.652
����������	-12.654
����°	-12.6544
��������˵�����	-12.6576
�ͦ�	-12.6581
���ࡢ����	-12.6597
ǷǷ	-12.6603
���⸱�	-12.6605
�������˿	-12.6621
�ࡣ����	-12.6628
��������˵���	-12.6629
���	-12.6658
�����	-12.6658
׽���	-12.6664
����̬��	-12.667
���ꣿ��	-12.6673
��������˵�������	-12.6687
�����	-12.6688
��̵	-12.6691
	-12.6696
·�������	-12.6697
���͸�	-12.6712
Ъһ	-12.6713
���޼	-12.6713
2�͸�������	-12.6721
˼�˵�������������	-12.6722
��̾�������	-12.6729
���˴���	-12.673
▁����̾�������	-12.6732
�����������޸	-12.6737
·��ˮ	-12.6742
򶫻��������	-12.6747
ɹs	-12.6747
ùð	-12.6752
������񣬹�	-12.6752
޾���	-12.6763
����˾������	-12.6765
��1⁄2��ׯ��	-12.6774
񡣡��	-12.6788
�����󣬽������	-12.6793
���」���������	-12.6802
�������๼������	-12.6807
���󲻶�������	-12.6808
������˶	-12.6812
DzŽ	-12.6814
����ͯ����	-12.6815
�£����˼	-12.6831
�󣬸���	-12.6833
��ʻ��	-12.6836
������˵�	-12.6838
����񹦡�	-12.6867
�򸾡�	-12.6872
�򣺡��������	-12.6878
���������񶷣���	-12.6889
ȵù	-12.6894
ʾ����	-12.6895
��������3⁄4�	-12.6906
˿̵��	-12.6915
�򣬺������	-12.6918
�������̾�˿�����	-12.6923
��񡣡�	-12.6924
������˭	-12.6929
���¡������	-12.6938
̤�����	-12.6948
������˿��	-12.6995
�ͣ������	-12.6999
�񣬷����������	-12.7
׹��������������	-12.7005
������˭�����	-12.7006
񣿡������	-12.7014
˵˵������	-12.7019
�䷨����	-12.7025
�������ͬ��	-12.7041
����˵�����£��	-12.7042
��������3�	-12.7042
ͭ	-12.7048
���������˵��	-12.7065
���̲	-12.7086
�����˭������	-12.7096
��񣬴�	-12.7098
��������	-12.7099
����૵	-12.7099
����̴�	-12.7101
������̸�	-12.7108
����ͣ�����	-12.7117
��޷����	-12.712
��¿��	-12.7124
�˿��������	-12.7127
�������˼��¡���	-12.7129
������˿�	-12.7131
����	-12.7132
�̾�˿�����������	-12.7147
��˷������	-12.7149
���̦��	-12.7149
ɵIJ	-12.7153
�󣬼���	-12.7157
▁1⁄2�	-12.7157
��󹦡����������	-12.7158
̣�˵���������	-12.7161
˼���������	-12.7163
�󣬴�����	-12.7163
1⁄2�	-12.7167
���̱���	-12.7169
���˿���	-12.7171
�¡�1⁄2����	-12.718
�ͨ�����������	-12.7186
▁���˸�	-12.719
▁���1	-12.719
�󺣣�	-12.7214
��������˵����	-12.7215
������ͣ��	-12.7224
��������˭	-12.7226
������޾�	-12.7241
����˵������˭	-12.7251
��£�˵	-12.7256
�����޹	-12.7265
�����ˮ�	-12.7265
������ͭ���	-12.7266
õö	-12.7269
�˺�����	-12.7275
����ͣ	-12.7275
���˵���˻����	-12.728
ʿ������	-12.7293
��������	-12.7293
▁����̾��������	-12.7294
�ٰ��	-12.7301
���񣬽	-12.7302
�˽������	-12.7307
���򲻻��	-12.7311
�����򸾣���	-12.7311
;������	-12.7317
̷	-12.7317
��򣬱���	-12.732
˵˵����������	-12.735
���..���	-12.7354
��˿������	-12.7356
�˻������	-12.7357
󣬵�	-12.7364
�󣬴�������	-12.7371
>����	-12.7373
������˽��	-12.7375
��͡��	-12.7377
�����˴�	-12.7379
��޴	-12.7403
��˶����	-12.7406
��3����	-12.7425
�󷨣�	-12.7433
������	-12.7443
಻�	-12.7446
��޾��	-12.7455
▁���˿�	-12.7461
���˲���	-12.7461
������񣡡�	-12.7465
▁ͯ�	-12.7478
᲻��	-12.7479
�˸�̨��������	-12.7481
�����������򲻸	-12.7481
����޴󰭣�����	-12.7484
��������˿�	-12.7493
���񹦣����	-12.7495
����˵��	-12.7507
���ͦ�����	-12.7507
����ࡣ��	-12.7513
�˯����	-12.7514
��̾�˿	-12.7517
¶�����	-12.7519
̾�˿�����������	-12.7523
򣬵�	-12.7526
����������	-12.753
󡣡�����	-12.7545
ˬ�	-12.7546
���˭����	-12.7552
�˳������	-12.7553
򣡡�������	-12.7554
Ǻÿ	-12.7574
�����������	-12.7583
�̶ˮ���	-12.7587
����˭������˭��	-12.759
��󺧣����	-12.7592
޵�����	-12.7594
����̶	-12.7594
�׷׻���	-12.7596
ׯ�������	-12.76
��޺	-12.7609
��˿̻��	-12.7615
�����໥	-12.7616
������̧�	-12.7623
������񲣬�	-12.7636
����ˬ�	-12.7659
���������ࡣ���	-12.766
��¶���	-12.7668
����׷����	-12.7674
��񴲣����	-12.7674
���	-12.7678
���£�������	-12.7683
���˵����	-12.7689
���޴����	-12.7701
̽����	-12.7717
߽�	-12.7723
�𵶻	-12.7736
󡣡�������	-12.7745
��������˶	-12.7749
���¶���	-12.7752
�𴦻����	-12.7753
ɵĻ	-12.7755
���˸����	-12.7758
Ǹõ	-12.7759
���񲻽����	-12.7778
�򣬱���	-12.7788
�����˭���	-12.779
̰���	-12.78
���̽�	-12.7807
�������	-12.7809
ׯ�����	-12.7811
������ʽ�	-12.7816
���	-12.7817
▁>���	-12.7819
�������˵����	-12.7819
����ʿ��	-12.7825
▁̧�̨���	-12.7825
��3⁄4�	-12.7825
��׶����	-12.783
▁ÿ	-12.7843
�����򣬾��	-12.7853
�����������	-12.7855
˵����������ͯ��	-12.7862
ȷȻ	-12.7862
��˵��˵	-12.7865
�����󺹣��	-12.7872
�򶨣������	-12.7873
���������˴��	-12.7877
߽	-12.7879
̥	-12.7892
�����˵�	-12.79
��ࡣ��	-12.7901
���˰�	-12.7903
׵����	-12.7908
���˷��������	-12.7916
ΪͶ	-12.7917
ʺ��	-12.792
��������˸��	-12.7923
���򣬵�����	-12.7927
˻������	-12.7931
�����˹��	-12.7936
𷨣����	-12.7938
�ͣ�������	-12.7939
̻��	-12.7943
��	-12.7946
��÷	-12.7955
�����1	-12.7955
����̨���	-12.7956
�˵�����������	-12.7966
��޾�	-12.7979
���ˮ̶��	-12.798
����޵�	-12.7982
Ǻö	-12.8006
��	-12.8044
����	-12.806
��ׯ	-12.8063
�����޺޵	-12.8072
�����񣬵�	-12.8074
�������ͣ�������	-12.8088
��΢�����	-12.8094
���2�	-12.8106
▁�������˾���	-12.8111
����˵�����������	-12.8129
������̤����	-12.8131
���˲���˵������	-12.8142
�����𴦻�	-12.8149
�����	-12.8157
���򡣡�	-12.8167
�ˮ�����	-12.8167
�˵������������	-12.8168
�������ˮ�	-12.8195
1⁄2��ׯ�	-12.8197
��������˵�˼��	-12.82
̾�˿������������	-12.8208
�⿪������	-12.8214
�������޻�	-12.8221
�ͣ��������	-12.8226
𵶻	-12.8232
▁ͅ����	-12.8249
�����̡�	-12.8255
Ůͬ	-12.8255
��������಻�	-12.8256
���׾��	-12.8274
���£�˵��	-12.8278
§�	-12.8283
���޻���˵�������	-12.8289
΢΢��ʹ����	-12.8291
����׼�	-12.8294
�����̳�	-12.8297
�ͬ������	-12.8299
���������˳�	-12.8309
�̡��������	-12.8311
�����޴	-12.8316
˦�����	-12.8317
Ȧȴ	-12.8325
�᲻��	-12.8332
������̫�	-12.8332
�׹������	-12.8337
�˦�����	-12.8342
úû	-12.8343
���˭������˵��	-12.8359
��ˬ�	-12.836
͹���	-12.8367
������˸�	-12.8373
���̴	-12.838
󣬾�������	-12.8388
�¡���������	-12.8389
򣬻	-12.8393
����⹫���	-12.8407
�ࡢ����	-12.8411
�΢�����	-12.8416
���������	-12.8424
����໥	-12.8426
׻������	-12.8434
�ˬˬ���	-12.8442
̹�����	-12.8443
�ˮ����������ˮ�	-12.8469
���������⸱��	-12.8483
󾪣������	-12.8487
󣬻	-12.8496
������	-12.8503
��������񣬸������	-12.8505
▁�������˶	-12.8509
���˷�	-12.8515
����⵱�	-12.8518
����1��	-12.8524
õĸ	-12.8528
�����˷�	-12.8529
�������˵�����	-12.8543
������¶	-12.8557
▁������̧	-12.856
����������˵�˵�	-12.8561
����󣬷��	-12.8561
�ʺ�����	-12.8564
����󡣡�	-12.8569
���������	-12.8572
�򹷰����	-12.8586
����񣬶����	-12.8599
���𻰡�	-12.86
�򣡡�	-12.8605
�����˵���������	-12.8608
���޹��	-12.8617
�����Ტ�	-12.8625
�򵹣�������	-12.8628
�����̨�	-12.864
���࿹����	-12.8643
�����񲣬����	-12.8647
��§�	-12.8655
�������	-12.8656
᲻���	-12.8668
�����˶�����	-12.8676
������΢�	-12.8677
�3�����	-12.8684
���̡�����	-12.87
���̸�����	-12.8725
����	-12.8725
˭����	-12.8726
▁������ˮ�	-12.8733
ͥ����	-12.8742
�׷׷	-12.8746
�����޺��	-12.8755
����ͦ��	-12.8757
޷	-12.876
����𾴣�	-12.8761
���˿������	-12.8761
�����˳����	-12.8765
�¿����	-12.877
����2������	-12.8772
�������ͣ��	-12.8773
��̽����	-12.8773
񣬷	-12.8778
�������˦	-12.8784
���ࡱ������	-12.8784
ǰǿ	-12.8785
͸������	-12.8788
�������⹫���	-12.879
𻰣�	-12.8792
�������2�	-12.8805
��񣬲��	-12.8822
��񣬵��	-12.8824
�󣬾	-12.8824
�߾����	-12.8828
Ҫв	-12.8835
�󷨣��	-12.8837
�ʿ�������	-12.8858
ᷳ��	-12.886
����ࡣ	-12.8867
��ࡣ�	-12.8883
������˼���	-12.8884
ͣ��������	-12.8902
������¿���	-12.8906
9��	-12.8908
�������ʹ����	-12.8918
������˵�	-12.8922
̰������	-12.8935
��׻׻�����	-12.8936
Ȼ̧	-12.8949
򸾡����	-12.8949
˹���������	-12.8953
�����̫	-12.8965
�������⵱���	-12.8966
�˵�������	-12.8967
���÷����	-12.8982
��󣬿�����	-12.8984
��ʿ�����	-12.8988
���󷨣��������	-12.8988
©����	-12.8997
��򣡡�	-12.9008
������˰	-12.901
��ʽ����	-12.9014
���������	-12.9017
���	-12.9024
���׸	-12.9029
�ꣿ����	-12.9043
��±	-12.9046
�񣬵�������	-12.9075
��޵�	-12.9076
񣬻	-12.9083
�������̾�˿������	-12.9091
�°�	-12.9102
����䶾���	-12.9103
����׽��	-12.9126
����̽����	-12.9138
�«������	-12.914
�������˲��	-12.9144
��˵������������	-12.9145
�򣬻���	-12.9146
������󷨡���	-12.9149
�����˼����	-12.9152
¡	-12.9161
��׸�	-12.9162
��̬���	-12.9176
���߽�	-12.9182
���⿪���	-12.919
>˵�����	-12.9195
��ͬʹ	-12.9204
��������	-12.9211
▁���������������	-12.9211
�޼����	-12.9213
��	-12.9214
���޹����	-12.9216
����÷�������	-12.9217
���������	-12.922
�����������˹�	-12.9223
�����̾	-12.9229
���������ʿ	-12.9235
���������߻���	-12.9236
���⹦����	-12.924
�������񡣻�	-12.9244
�������£��	-12.9252
׽������	-12.9259
����¿	-12.9263
�׷���	-12.9265
׾��	-12.9275
���ʹʹ��������	-12.9289
����̽���	-12.9292
��޺�	-12.9313
����¶������	-12.9324
�����߼��	-12.9331
�˲�����	-12.9331
���̰��	-12.9335
�����̱��	-12.9351
�򳤵	-12.9354
�̫�ͣ�����	-12.9384
��������̶�	-12.9387
̬�����	-12.9407
��˷����	-12.9411
��»�	-12.9421
��¡������	-12.9425
������ͯ	-12.9441
ٰ����	-12.9442
����𴦻����	-12.9442
�����˵�����	-12.9444
�1⁄2��ׯ�	-12.9447
�����󷨱	-12.9449
�񼼣���	-12.9461
�ʽ�	-12.9468
�����⵽�	-12.9476
���󾪣��	-12.9491
̽���	-12.9494
�����������˵��	-12.9495
�����ͦ	-12.95
�̵����	-12.9509
�򸾵�	-12.9513
�򱱶�	-12.9519
��������޸	-12.9535
����ʾ	-12.9538
������������	-12.9543
�������˵��˵	-12.9548
����ˮ���	-12.9553
̷����	-12.9572
��°���	-12.9575
��ˮ�����	-12.9584
ǵȵ	-12.959
�����䶾�	-12.9616
�ͨ���������	-12.9619
▁����̧	-12.9629
�����˵������	-12.9641
�����󷨣������	-12.965
��	-12.9656
����˿˿���	-12.9657
������񣬽	-12.9659
▁����˵�������	-12.966
̡����	-12.9663
̿�	-12.967
���������	-12.9671
�����£�����	-12.9673
������޲�	-12.9673
򣬵��������	-12.9679
�󼱣��	-12.969
򳤵	-12.9699
�ׯ�����	-12.9707
����������䶾�	-12.9709
���3⁄4����	-12.971
�������񣬾��	-12.9716
˵�������������	-12.9718
�˵�˵��	-12.9735
˵��������˵	-12.9741
����»�	-12.9754
󣬰	-12.9763
˸	-12.9774
����÷�	-12.979
���������������	-12.9797
���񣿡�	-12.9798
���������񣬲��	-12.9801
�񲻽���	-12.9803
��˿̲	-12.9816
������޾	-12.9818
����˻����	-12.9826
������ʹ����ʹ	-12.9827
���������̡�	-12.9828
�������ͨ�����	-12.9841
�ͦ���	-12.9842
��˲������������	-12.9854
��޴������	-12.9861
򸾵��	-12.9866
�᣿���	-12.9869
������ʹ���	-12.9872
����׷�����	-12.9881
�����̽	-12.9897
�׼����	-12.9899
�󣬸������	-12.9918
����͸	-12.9925
����������	-12.9934
������������	-12.9939
�˿������	-12.9941
��������ʿ	-12.9941
���˵���������	-12.9947
�򣬲��	-12.9951
��񱼣����	-12.9956
�˼��£�������	-12.9961
����	-12.9963
�����̸	-12.9964
˵�������������	-12.9965
��׼�	-12.998
�����	-12.9985
�ͨ��������˵����	-13.002
�׸���	-13.0025
���޳��	-13.0027
󣿡��	-13.0029
̼�����	-13.0034
�����׼��	-13.0035
�����3�����	-13.0054
�����˺����	-13.0055
úö	-13.0059
�ˮ̶���	-13.0065
��⹦�������	-13.0103
���������	-13.0103
󳹴�����	-13.0114
������˶��	-13.0119
�͡����	-13.012
�׹��	-13.012
���˧��	-13.0121
������	-13.013
��˶������	-13.0136
�¡�������	-13.0145
���͸��	-13.0148
������3�	-13.0148
������˼�����	-13.0155
󼱣��	-13.0156
���׷�����	-13.0158
▁����ͨ���	-13.0172
��������̥	-13.0179
�����ʼ�	-13.0197
���񣡡���	-13.0197
�򣬲�	-13.0227
÷�����	-13.0239
���⿪����	-13.024
���������£��	-13.0252
���󾪣���	-13.0257
���޵������	-13.0286
�����򶫱���	-13.0294
���	-13.0295
׿������	-13.0303
�����	-13.0308
��޻��	-13.0314
ȴͬɦ	-13.0317
�˭˵�����	-13.0325
����ʺ���	-13.0332
�����̤�����	-13.0332
߼���	-13.0343
��¡�1⁄2��	-13.0344
׻	-13.0345
���𴦻���	-13.0347
��	-13.0353
���ׯ�	-13.0365
��׷׸���	-13.037
��¶����	-13.0371
���������	-13.0388
����̤	-13.0405
��⹫�	-13.0408
����޿��	-13.0413
�˵���������	-13.0416
��԰�����	-13.042
������	-13.0421
��񣬱	-13.0433
��򣿡������������	-13.0435
��������	-13.0439
����񣡡�	-13.0449
������������	-13.0454
��	-13.0462
̵ú	-13.0463
�����;��	-13.0466
��󰡣	-13.0467
�������˼�	-13.0468
�˲������	-13.0471
���˻�����	-13.0487
�����׵��	-13.0488
������˧	-13.0507
񣬴	-13.052
࿴����	-13.0525
ʹ˱������������	-13.0529
�������޳�	-13.0533
�ʺ	-13.0538
��������������	-13.0559
��˹�����	-13.056
��򣬰�	-13.0569
࿴��	-13.0571
��9	-13.0573
��̤�����	-13.0576
����������	-13.0589
▁���˸���	-13.0591
��˿�������	-13.0594
�������ʽ	-13.0601
������3⁄4�	-13.0602
�⴫���������	-13.0612
���׶���	-13.0613
�᷿�	-13.0619
�󣬽���	-13.0622
���ͦ����	-13.0628
����������	-13.063
�����������	-13.0641
��������˸	-13.0647
��⹦��������	-13.0663
�˼�������	-13.0663
��򣬶�	-13.0674
��ͬ����	-13.0675
�������2	-13.0692
���׻׻���	-13.0695
��������᲻	-13.0699
���°���	-13.071
▁�������˶�����	-13.0712
��˼��������˵	-13.0723
�±����	-13.0726
߿���	-13.0727
�⿪	-13.0728
�������	-13.0733
��򣿡���	-13.0751
�������	-13.0758
���ͭ	-13.076
���˵��	-13.0762
麣	-13.0777
='	-13.0778
򡱣��	-13.078
44.	-13.078
梿	-13.0781
龿	-13.0781
���ͨ�˴��	-13.0781
檵	-13.0782
󺹼���	-13.0782
డ	-13.0782
梻	-13.0782
ᷢ�����	-13.0782
㵸	-13.0782
㳡	-13.0782
��𲻳	-13.0783
檲	-13.0783
滻	-13.0783
���������������	-13.0783
��	-13.0783
▁́󷽡��	-13.0783
使	-13.0783
巨	-13.0783
幥	-13.0783
Ḷ	-13.0783
ᰮ	-13.0783
롯	-13.0783
������񸾣�����	-13.0783
����	-13.0783
�𷶣�	-13.0783
�𾴣������������	-13.0783
ⵡ	-13.0783
㯵	-13.0783
꼻	-13.0783
���󶴡�	-13.0783
ث	-13.0783
㵼䣬	-13.0783
齵	-13.0783
㴳	-13.0783
ォ	-13.0784
㻮	-13.0784
伴	-13.0784
껪	-13.0784
뵥	-13.0784
������࿿����	-13.0784
򰵰��	-13.0784
隶	-13.0784
��������׬�	-13.0784
򸣽	-13.0784
ⶺ	-13.0784
򷢣����	-13.0784
繫	-13.0784
챨	-13.0784
>.9��	-13.0784
ల	-13.0784
▁90	-13.0784
Ⱳ	-13.0784
㯡	-13.0784
岢	-13.0784
淭	-13.0784
滹	-13.0784
꼱	-13.0784
롭	-13.0784
뻪	-13.0784
뾸	-13.0784
��������	-13.0784
��󼲳���	-13.0784
躺	-13.0784
���޲��󾪡�������	-13.0784
𡣸	-13.0784
෭	-13.0784
Ắ	-13.0784
▁60	-13.0784
䤱	-13.0784
梹	-13.0784
綨	-13.0784
邑	-13.0784
�������𾢣�	-13.0784
�����򸾱������	-13.0784
����򡭡����򡭡��	-13.0784
��񲻿�	-13.0784
▁́󷽵��׼����	-13.0784
▁́󹦣��	-13.0784
ⱪ	-13.0784
Ĥ	-13.0784
ॵ	-13.0784
㰴	-13.0784
㶣	-13.0784
䴲	-13.0784
滨	-13.0784
糺	-13.0784
배	-13.0784
뵯	-13.0784
첡	-13.0784
칭	-13.0784
쾹	-13.0784
�¥̨������������	-13.0784
�˼��£��⿪��	-13.0784
���䶸����	-13.0784
�������®��	-13.0784
�����򸾺������	-13.0784
����󰡱���	-13.0784
𣿵	-13.0784
򱱵	-13.0784
fd	-13.0784
黫	-13.0784
����⬼׸��	-13.0784
��������������򹪣�	-13.0784
󲮴	-13.0784
ի	-13.0785
ك	-13.0785
⻯	-13.0785
㸧	-13.0785
㽲	-13.0785
䶥	-13.0785
屳	-13.0785
湫	-13.0785
辢	-13.0785
香	-13.0785
캮	-13.0785
콻	-13.0785
��������󵶿��	-13.0785
�������򲻴�	-13.0785
�������󷭴�����	-13.0785
�����򸾲�	-13.0785
�����󶷷�����	-13.0785
��񣬼��	-13.0785
󺺻	-13.0785
㵷	-13.0785
T	-13.0785
Ţ	-13.0785
֨	-13.0785
سمم	-13.0785
ی	-13.0785
ྡ	-13.0785
ྲ	-13.0785
Ỻ	-13.0785
㪣	-13.0785
㺢	-13.0785
尲	-13.0785
屧	-13.0785
嶯	-13.0785
干	-13.0785
缱	-13.0785
缲	-13.0785
顯	-13.0785
ꣻ	-13.0785
궴	-13.0785
귿	-13.0785
붴	-13.0785
	-13.0785
���׷׺��	-13.0785
�����1⁄2󣬵������	-13.0785
����𸴣���	-13.0785
�𲻳���������	-13.0785
�𾭣���	-13.0785
�򳤡�	-13.0785
𣿴	-13.0785
𣿿	-13.0785
续	-13.0785
����𲽽��	-13.0785
񹾵	-13.0785
㼷	-13.0785
嶨	-13.0785
粵	-13.0785
繳	-13.0785
缰	-13.0785
羪	-13.0785
궬	-13.0785
컺	-13.0785
힅	-13.0785
���󶴣�������	-13.0785
����᣿����˭����	-13.0785
Ľ̻	-13.0785
W	-13.0785
Ŧ	-13.0785
Ư	-13.0785
ڤڤ	-13.0785
౾	-13.0785
ഹ	-13.0785
ᆰ	-13.0785
ⶫ	-13.0785
㷨	-13.0785
㸡	-13.0785
崦	-13.0785
梲	-13.0785
硯	-13.0785
示	-13.0785
繲	-13.0785
밮	-13.0785
컰	-13.0785
��⶷	-13.0785
�����໨	-13.0785
�򣬼�����	-13.0785
򶫶	-13.0785
俴	-13.0785
ඨ	-13.0785
ྫ	-13.0785
ụ	-13.0785
ᾣ	-13.0785
㱩	-13.0785
䴹	-13.0785
巳	-13.0785
忴	-13.0785
浶	-13.0785
缤	-13.0785
羮	-13.0785
鰴	-13.0785
븹	-13.0785
빦	-13.0785
������󷭳���	-13.0785
�������������󽻷��	-13.0785
��񱼶��	-13.0785
��󰣬���������	-13.0785
󵨿	-13.0785
󽭶	-13.0785
·������	-13.0785
î	-13.0785
˺���1⁄2󣬸��������	-13.0785
سخى	-13.0785
ᣡ	-13.0785
ᱻ	-13.0785
ᵯ	-13.0785
㲡	-13.0785
㷡	-13.0785
徫	-13.0785
淿	-13.0785
鰡	-13.0785
鲢	-13.0785
괴	-13.0785
뱱	-13.0785
븰	-13.0785
򸾼�����	-13.0785
󺰴	-13.0785
䶫	-13.0786
覵	-13.0786
뻺	-13.0786
󺧣�����	-13.0786
ද	-13.0786
㼲	-13.0786
屡	-13.0786
巽	-13.0786
漱	-13.0786
硰	-13.0786
賤	-13.0786
齻	-13.0786
뼫	-13.0786
�����	-13.0786
��˳𲻱�	-13.0786
���������	-13.0786
�����ࡣ���ࡣ��	-13.0786
������⸾��	-13.0786
������󷨵	-13.0786
���󷨵��	-13.0786
񼤵	-13.0786
󺹳	-13.0786
亮	-13.0786
??	-13.0786
ɟ	-13.0786
Ы	-13.0786
ೣ	-13.0786
ᦣ	-13.0786
ⶳ	-13.0786
㻤	-13.0786
䰲	-13.0786
䳹	-13.0786
壺	-13.0786
廹	-13.0786
竹	-13.0786
绹	-13.0786
꼫	-13.0786
꾭	-13.0786
뼰	-13.0786
�������𿪣��	-13.0786
����򸾸	-13.0786
�򸾾��������	-13.0786
丸	-13.0786
鵳	-13.0786
ͤ��������	-13.0786
༱	-13.0786
塭	-13.0786
糸	-13.0786
魺	-13.0786
�������𵶽��	-13.0786
𡢷	-13.0786
𡢽	-13.0786
·޸���ͣ�������	-13.0786
ὥ	-13.0786
弲	-13.0786
澴	-13.0786
黬	-13.0786
꺮	-13.0786
벢	-13.0786
칫	-13.0786
���඼�	-13.0786
������������᳤���	-13.0786
�������������򲻿	-13.0786
������𱨣����	-13.0786
���𽬣������	-13.0786
��򣬰˾��	-13.0786
󵶣��	-13.0786
ử	-13.0786
Ⱑ	-13.0786
�����˽���§��	-13.0786
ร	-13.0786
ⴷ	-13.0786
濪	-13.0786
뵲	-13.0786
������󷨣�	-13.0787
ʒ	-13.0787
˶��˵£�����	-13.0787
㹳	-13.0787
㾲	-13.0787
䲨	-13.0787
彻	-13.0787
縩	-13.0787
쵵	-13.0787
�͢����������	-13.0787
������������⬼׵	-13.0787
�����������񷨣�	-13.0787
���������򻰣��	-13.0787
𡣿	-13.0787
ԏ	-13.0787
汳	-13.0787
購	-13.0787
롮	-13.0787
봦	-13.0787
���������񼫣��	-13.0787
𣿸	-13.0787
ګ	-13.0787
Ɑ	-13.0787
䲢	-13.0787
豭	-13.0787
音	-13.0787
꽭	-13.0787
����󶶴�������	-13.0787
��򷴼�������	-13.0787
򿪳	-13.0787
򿪺	-13.0787
ͭʬ	-13.0787
ȯ	-13.0787
㻵	-13.0787
뺦	-13.0787
컡	-13.0787
�®���	-13.0787
��˿̺����������	-13.0787
���⵹���	-13.0787
䱳	-13.0787
>..	-13.0787
㲢	-13.0787
㳬	-13.0787
㾢	-13.0787
鶼	-13.0787
���ʹ�¿๦���	-13.0787
���߾ٰ��	-13.0787
��򷢳��������	-13.0787
񶷡����	-13.0787
󱲶	-13.0787
械	-13.0788
����󺺸����	-13.0788
���򣬽���̨���	-13.0788
󷢣����	-13.0788
��ͤͤ��������	-13.0788
ⶶ	-13.0788
㽿	-13.0788
澳	-13.0788
뼧	-13.0788
�޴˹������	-13.0788
��˶񶷣����������	-13.0788
������⹷�����	-13.0788
⺺	-13.0788
䵯	-13.0788
���������󷨣�����	-13.0788
ⷭ	-13.0788
㻭	-13.0788
绻	-13.0788
꺢	-13.0788
������򷨣��	-13.0788
㷸	-13.0788
翴	-13.0789
诡	-13.0789
�޿̲����	-13.0789
�˽��̹���������	-13.0789
仺	-13.0789
梼	-13.0789
覴	-13.0789
繦	-13.0789
뿻	-13.0789
������������̩	-13.0789
󹦣���˵������	-13.0789
ԫ	-13.0789
켣	-13.0789
�޲���̾����	-13.0789
�����૲����	-13.0789
������˿����˥��	-13.0789
�˿̷���	-13.079
���󵨻��	-13.079
濳	-13.079
ᷴ	-13.0791
俪	-13.0791
جم	-13.0791
·޺�	-13.0791
߶̱	-13.0792
'>���������¡��	-13.0792
�����͸¶��	-13.0792
�˹����򸾣�����	-13.0792
����ˮ��ׯ�����	-13.0793
�˵�໰��	-13.0794
���̶̵	-13.0794
������������ͬ˯	-13.0794
���𴦻��߿���	-13.0795
���󾪣�	-13.0795
çç	-13.0796
���˺����	-13.0797
���󺹱���	-13.0797
77	-13.0797
�������ʽ�ʿ	-13.0798
ضخ	-13.0799
�������	-13.0799
�1��1⁄4���	-13.08
·޵������������	-13.08
ib	-13.08
�����˵�˳��������	-13.0801
�����ͨ�󾪣�	-13.0801
�˰˸�	-13.0802
��׷׹��	-13.0802
��·;������	-13.0805
̺ÿ	-13.0806
▁˵���˴���	-13.0807
Qæ	-13.0807
شح	-13.0808
ͣͣ���	-13.0808
▁́��˸���������	-13.0808
�˸˰��	-13.081
˹��򡣡�	-13.081
ӽ̵	-13.0811
ЪЪ	-13.0812
�ͨͯ�	-13.0813
��˱����޳	-13.0813
߸߷	-13.0815
����������΢¶	-13.0816
�������𻰡�������	-13.0816
ùý̵	-13.0818
׵÷��������	-13.0819
���»�����˼����	-13.0819
���������ͯ���	-13.0819
����̨��̨��	-13.082
����ʹ�಻�	-13.082
򹷰�ʹ�	-13.0821
▁�����󺧣��	-13.0821
DzŽ̺	-13.0823
��޵������	-13.0823
ʹ�����˼��£������	-13.0826
���2���̨�������	-13.0826
��޵������£����	-13.0827
⿪���·��	-13.0827
�����ʼ��׷����	-13.0829
̨�1⁄4	-13.083
���ʹ�ࡣ��������	-13.0833
˿̸�	-13.0834
�׷������˶�����	-13.0837
˿̳�	-13.0838
��˯�˰�	-13.0839
͸���	-13.0842
�˺��¡���	-13.0842
�������˱����1	-13.0843
57	-13.0844
>�������˹���	-13.0846
ϺͰ	-13.0849
����׺��	-13.0849
�΢̧����	-13.0851
3⁄4�ʿ��	-13.0852
������˶�����	-13.0853
�����˵��	-13.0855
���;�	-13.0856
׽��׽�	-13.086
�����˶ࡣ	-13.0863
�ʼ���޷�	-13.0868
ͣ���ʼ	-13.0868
��׶�	-13.0869
ʹ˽�	-13.087
�񣬷��������	-13.0872
����������ʹ�¶�	-13.0873
¶˿���	-13.0874
�3⁄4���ʹ��	-13.0881
տտ	-13.0883
�3⁄4ʹ�	-13.0885
��˯������	-13.0889
̡����˼��	-13.0891
�������˶��	-13.0891
¶�˳�����	-13.0893
����ˮ������ˮ�	-13.0895
�;����	-13.0898
�˭���������˺��	-13.09
�̤���˼�	-13.0904
�˻�ʹ	-13.0909
�¥�����˾	-13.0913
���˲��̣��	-13.0914
��ʹ�޵	-13.0917
ͬ�1�	-13.0919
��������˰��	-13.0919
�£������޷��	-13.0921
�£��޲��	-13.0922
ʹ˱������	-13.0922
�ʹ˲�	-13.0923
ڳݺ	-13.0926
Ƽȿ	-13.0932
���޷�����	-13.0936
����͹�	-13.0939
�����˾���̾	-13.0939
�򵹡���	-13.0943
�ͨ̾��������	-13.0948
��˲���˼���	-13.0949
�����2�	-13.095
·�������˷�������	-13.0951
�޶��¡�	-13.0953
ͣ��������	-13.0954
޺��	-13.0955
��£���˵	-13.0962
���������·��˰�	-13.0963
޾��	-13.0963
������������	-13.0963
���ͨ�����˽��	-13.0967
��˲���	-13.0967
��˼����׷�������	-13.097
���������˵����	-13.0981
�˼��������	-13.0984
����ˮ�����˿��	-13.0993
▁��������ׯ������	-13.0994
��⵽���	-13.0994
̸˵	-13.0996
���˿���ʹ������	-13.1001
���¿�˵	-13.1001
���˵������˭�����	-13.1004
׺����	-13.1012
˺���1⁄2���	-13.1012
▁́����	-13.1013
��ͬʹ���������	-13.1014
▁���˵	-13.1015
��˲����	-13.1017
��ʹ��˻��	-13.102
������£�����	-13.1021
���ͬ��ͬ�	-13.1022
ʁȤ	-13.1023
��£�ͨ��	-13.1026
�˸������	-13.1027
��£��������	-13.1028
���」�����	-13.1029
����͸�	-13.1034
��ͬ�������˼�	-13.1037
������ˮ�	-13.1043
�ʹ�����ͣ���	-13.1052
˧����	-13.106
���񡣡�����	-13.1076
������������ʹ�˹	-13.1078
̳����	-13.108
�1⁄2��ׯ	-13.1081
����̶���£���	-13.1085
53	-13.1088
▁���˲����	-13.1091
˿����˹�	-13.1102
�˻����¡����	-13.111
����󰡣���������	-13.1113
˶����	-13.1115
�����������	-13.1118
����˵�����¶����	-13.112
�£���̨����	-13.112
�����׽��	-13.1122
���˵��׼�������	-13.1125
▁�����;�	-13.1125
˵�˳�����	-13.113
˲������˲��������	-13.113
˲�����£���	-13.1131
���ʹ���˾����	-13.1132
�񣬿���	-13.1137
£����1⁄2�	-13.1143
�������򳤵���	-13.1144
���£����˾��	-13.1147
����˸���	-13.1149
���̦�	-13.1153
�����̬���	-13.1154
Żƹ	-13.116
▁���̴���	-13.1164
򡣡�˵�������������	-13.1164
�̡���������	-13.1167
�ͨ���˸���	-13.1169
·�ͣ�	-13.1169
��˸������	-13.117
͡�������	-13.1171
̿㣬	-13.1173
ؿڿ	-13.1175
̫̫����	-13.1177
��¶�����£��	-13.118
���¡���˵�����	-13.1184
����¶�	-13.1185
�̥������	-13.1193
�˵��޲���	-13.1194
��˥�����	-13.1195
����1⁄4�	-13.1196
�������񣬸�����	-13.1196
��£����÷��	-13.1196
��˺󼸲����	-13.1197
߸ߵ	-13.1198
��ͨ·�������	-13.1202
���˶������	-13.1213
ȴƫƫ	-13.1216
�����๫�����	-13.1223
󣬴�	-13.1227
���򱱷��������	-13.1229
��	-13.1229
�˶��˵�	-13.1235
��������	-13.1236
�׷�ʼ	-13.1239
�����̾�˿�����	-13.124
᣿�	-13.1244
�����𷣣��	-13.1246
·������˶�	-13.1248
������������鿴�	-13.126
�˴����͡��������	-13.1261
������׾���	-13.1267
ɬȻ	-13.1272
▁���˾���	-13.1274
������˻	-13.1279
����������̨�	-13.1283
���˼�����˲�	-13.1286
�򣬶�	-13.1294
▁�������಻	-13.1295
��˿̱������	-13.1296
ww	-13.1297
���	-13.1298
��˲����£����	-13.1299
������	-13.1302
���ʹ��·��������	-13.1302
▁���˼������	-13.1306
Ǽư	-13.1306
����	-13.1307
����������©����	-13.131
˺����	-13.1311
ࡣ��˵�	-13.1312
����1⁄2��	-13.1317
�񣬱��������	-13.1318
�������	-13.1335
�������񣬵�������	-13.1335
󣬲�����	-13.1335
���򣬲�	-13.1339
ְִ	-13.134
�󶼾�������	-13.1343
˯������	-13.1348
�޴���	-13.1352
����˼���£����	-13.1353
����˴󾪣��	-13.1354
��������«���	-13.1355
����򿪣�	-13.1357
ƱƵ	-13.1368
�����������⻵	-13.137
��׹�	-13.1371
��׮���£�����	-13.1373
�ʹ������˯�	-13.1378
˵��������������ʿ	-13.1379
̽̽	-13.1382
��˺�£���	-13.1384
�����ʺ���	-13.1385
������˴󵨣����	-13.1388
��˶��£�	-13.1395
��̰	-13.1398
��̾�˿��������	-13.1406
��˿����˼���	-13.1411
���ʹ�����	-13.1413
�ࡣ���	-13.1415
������ͨ�����	-13.1419
�£����˱��	-13.142
�ʹ���������˼	-13.1436
�ͬ�����	-13.1449
>�������	-13.1456
��˿���·	-13.1462
�����񲡣��	-13.1469
�˥�����	-13.1478
��ͬ�������	-13.1483
����񣬶	-13.149
▁������̾�˿�����	-13.1491
��ʼ	-13.1492
˵���������͸�	-13.1501
󳹴��	-13.1504
��˴���̨�����	-13.1504
����������	-13.1506
���ʿ������	-13.1513
���󱲣����	-13.152
������˵����3�	-13.1521
��������ͯ�	-13.1522
úñ	-13.1529
ҽӹ	-13.1537
��˷��£���	-13.1541
�򣺡����������	-13.1541
��򣡡����������	-13.1543
�򸾴���	-13.1553
�޶�����˵	-13.1561
��������˭˵�	-13.1562
�����̤�	-13.1564
���˧	-13.1564
���ʿ��������	-13.157
�����⹦���	-13.1572
������⸱�	-13.1574
���͹͹�����	-13.1577
�ʹ�	-13.1583
·��¶��	-13.1584
▁���������˷�����	-13.1586
���˼����	-13.1593
����޻�	-13.1596
�ʹ˸����	-13.1604
ܽͬ	-13.1608
̿��	-13.1612
▁̄	-13.1613
▁���»�	-13.1614
���˵���2����	-13.162
̳ɵ	-13.162
��׵��	-13.1627
▁���˸������	-13.163
��򣿡��	-13.1635
����߼�	-13.1643
˦�������	-13.1644
��ͬ�����£���	-13.1649
˵���������͹��	-13.165
��޼᲻�	-13.1653
�����������˴��£�	-13.1659
������಻����	-13.1664
���˼��£��	-13.1679
���˸���˵��������	-13.1694
���ٰ	-13.17
�˵�����������˶�	-13.1709
޽������	-13.1711
����ͨ��ͨ������	-13.1711
��ͬ������	-13.1711
�����̲�	-13.1717
����˯���	-13.1719
ðʧ	-13.1721
�򲻿�����������	-13.1721
�����˵���ͬ��	-13.1724
�˼���˵��	-13.1736
��£���������	-13.174
·����¶��	-13.1744
▁ͅ�����	-13.1757
���ʾ�	-13.1759
˴�������	-13.176
����ˮ̶	-13.1769
�˶�ʹ���	-13.1771
˼��������1⁄2	-13.1781
���⴦����	-13.1782
����˸����	-13.1787
▁���˴�	-13.1789
��˼·�	-13.179
ͦ���̳�����	-13.1792
DzŸ	-13.1794
�������̩�������	-13.1805
ݵص	-13.1817
ʹ���˸��	-13.1818
���޾�	-13.1821
�󡣻���	-13.1824
▁́���˵�������	-13.1825
񱳡���	-13.1828
▁���¶���	-13.1832
������1⁄2�	-13.1833
̼������	-13.1836
˵������������	-13.1843
���˵�˻���	-13.1845
������˷׷�	-13.1848
�����͹���2	-13.1849
�����˭�������	-13.185
󼱣���������	-13.185
�������˱�	-13.1853
�£����˻���	-13.1875
Ľý	-13.1878
ˮ���£��	-13.1884
������˸��	-13.1888
󣬱������	-13.189
��˺�����	-13.1892
���������˼��	-13.1894
�����⹦�	-13.1894
·�˼�����	-13.1898
���ͭ��	-13.1899
��������΢΢	-13.1905
񹦣��	-13.1912
���̾��	-13.1913
���߽�����	-13.1913
��΢���	-13.1915
���߽�������˵��	-13.1915
������𳤽�����	-13.192
���˾�˵	-13.1925
�𴦻���	-13.1928
▁́�ͨ�����	-13.1929
>?����	-13.1937
���ʼ	-13.1942
ǿɾ	-13.1946
���˵�����������	-13.1951
����˼��£��	-13.1957
ض࣬	-13.1964
�ʹ������ʹ������	-13.197
����ࡢ��	-13.1975
���·�����1⁄2��	-13.1979
����˵��3�	-13.1981
������񣬽��	-13.1986
���ͯ���	-13.1988
▁���˻����	-13.1999
ͣ�˵�	-13.1999
������̸̸���	-13.2005
���˷������	-13.2007
����˶�����	-13.2008
����������	-13.201
�����ͬ�	-13.2012
�񣬽�	-13.2017
����1⁄2�˷��	-13.2023
li	-13.2023
˵�˸���	-13.2027
���͡���������	-13.2049
������׷�	-13.2058
▁�����󾪣��	-13.2058
���������������	-13.2063
▁��������̾	-13.2066
�˷����	-13.2074
������޵��	-13.2076
�������̨	-13.2083
̵ķ	-13.2087
���򵽣���	-13.2087
����������׿�˵�	-13.2096
��1⁄4������	-13.2096
������˭��˭	-13.2098
��˲����������	-13.2099
���������������	-13.2099
����������򲻵����	-13.2103
������ͦ���̳����	-13.2105
��򱱣��������	-13.2113
Ƶķ	-13.2127
���˵����ͣ���	-13.2129
�ͬ�����2��	-13.2133
·��˺	-13.2137
�����・�����	-13.2144
▁�˿����	-13.2148
�������	-13.2148
����޲����	-13.2151
����˱���	-13.2152
����˶���˵����	-13.2159
��ͨ��˵��������	-13.2177
��˴�·��	-13.2179
▁��������׷	-13.2179
���˯���	-13.2184
�����������˵	-13.2185
�������򲻹�	-13.2188
߾���	-13.22
2��̣������������	-13.2215
���񣬸	-13.2216
�󡱣������	-13.2221
��⿪	-13.223
��򱱶�	-13.2231
಻����	-13.2242
䣬̧	-13.2243
·��������·��	-13.2245
>����˵�	-13.2246
����򳤴��	-13.2248
�ʹ��ʹ�	-13.2254
�ʹ��ͬ�	-13.2265
�޷�������	-13.227
���������׵	-13.2272
��������	-13.2275
▁���߽�	-13.2282
���˵���˸�	-13.229
���ٰ���	-13.2296
˻�������	-13.2297
���̻	-13.2297
���˳��������	-13.2308
����˼����	-13.2309
󣡡��������	-13.2312
���࿹�����	-13.2312
ͣ���˵�����	-13.2324
̱	-13.234
��˸�̨	-13.2348
���ͨ����ˮ�������	-13.2351
�£�������ʹ����	-13.236
�˲���ʹ�	-13.2366
�͡���	-13.2371
����̤����	-13.2372
��˽�����	-13.2375
���ˮ�����	-13.2378
׾���	-13.2378
ҿҵ	-13.238
���	-13.238
̤����	-13.2383
���󣬵�������	-13.2389
�ʹ��˿	-13.239
������	-13.2394
�..��	-13.2399
��������˶��	-13.2424
�඾�������	-13.2427
�·������·�	-13.2435
�׶����	-13.2448
������3	-13.2453
��	-13.2466
£����˲��	-13.247
�����1⁄2����	-13.2473
���ˮ����	-13.2474
��ʿ�������	-13.2489
���˱����	-13.2492
��������˼�˵�����	-13.2496
��������£��	-13.2498
���𻰡����	-13.25
������������	-13.2509
���	-13.2513
�����̾��	-13.2522
�󣬵�����	-13.2522
ƮƮȻ	-13.2537
𷨡����	-13.2537
�޸���	-13.2539
�󣬻	-13.2542
������	-13.2544
�����	-13.2558
񶾵	-13.2563
��޲����	-13.2566
���̱�����	-13.2571
�񣬴���������	-13.2583
��������񡣡�������	-13.2587
���	-13.2593
���	-13.2594
˵���¡�����	-13.26
����£�����·���	-13.2602
�������𵴣�	-13.2602
����������˹�	-13.2603
׷׽	-13.2616
��̲	-13.2625
���⵶�������	-13.2628
·����˸�	-13.263
񶾣���	-13.2648
�������࡭����	-13.2652
���˹�����	-13.2653
��������಻���	-13.266
⿪��	-13.2663
?99	-13.2663
�󲻸����	-13.2665
�׷������	-13.2666
�����ࡣ��	-13.2679
�����	-13.268
������޷����	-13.2681
����򣬾��������	-13.2681
�ͨ˵������	-13.2687
���𻨣�	-13.2689
���󼱣�����	-13.2693
����	-13.2694
��������ʹ��	-13.27
�񣬽������	-13.2701
�����޿��	-13.2707
򣬹	-13.2709
���	-13.271
��໥����	-13.2711
𵶵	-13.2722
���ʽ��������	-13.2725
˿����¶����	-13.2727
�ʹ�	-13.2728
󷢶������������	-13.2736
��ͥ	-13.2737
▁����˯����	-13.2739
�׽������	-13.2748
󣬽��	-13.2751
����˵��΢΢	-13.2755
Ȣʦ	-13.276
���������߿�	-13.2762
𵶣�����������	-13.2765
���˵��������	-13.2766
�������񡣡���	-13.2768
˯�����	-13.2772
·��˼��	-13.2782
���̰	-13.2783
����2�����	-13.2784
ʹ˱�������	-13.2791
��������	-13.2791
�˵����ͣ	-13.2799
⧲��������	-13.2799
������	-13.2811
޷��	-13.2817
�������	-13.2817
������˴�	-13.282
ȵķ	-13.282
▁��������˯��	-13.2829
��񲻹����	-13.2832
���񣬲��	-13.2843
�˳��������	-13.2853
��޴��	-13.2856
��˵��˴	-13.2856
�񣿡���	-13.2858
�������˿�	-13.2859
������๼����	-13.2867
���ʺ���	-13.2871
󽫾��������	-13.288
������ʿ���	-13.2886
ˬ��	-13.2887
▁���������3	-13.2888
���˼��˵�������	-13.2889
���˳������	-13.2889
�����˵����·	-13.289
����˦����	-13.289
1⁄2�˷	-13.2896
����	-13.2914
�󣬴	-13.2919
�������˭��	-13.292
�̵�����	-13.292
���������⶯������	-13.2921
Ƶĺ	-13.2925
���޴��������	-13.2929
��̰��	-13.2931
▁�����߽���	-13.2933
������	-13.2943
�˰˾	-13.2965
��˼�˵�����	-13.2969
�£�˵	-13.2971
�޽����	-13.2982
�׵������	-13.2982
�󣬷����������	-13.2983
���������򸾡������	-13.2984
ͨ������	-13.2988
�������	-13.3008
��񡭡�������	-13.302
�񣬴	-13.3024
�𴦣��������	-13.3036
���ͣ�����°	-13.305
˱��£�����	-13.3056
�����ʻ���	-13.306
����񣬳�	-13.3079
˵�������˽	-13.3082
���	-13.3094
ԴԵ	-13.3098
�����ͬ���	-13.31
��̾������	-13.3101
ʺ�	-13.3106
����	-13.3113
▁�����1�	-13.3114
�򽥽������	-13.3122
��	-13.3132
̡������	-13.3141
��׼�˹���	-13.3147
��2�͸�	-13.315
����񡣹������	-13.315
���ꣿ	-13.3153
󲻸	-13.3161
���𻰣������	-13.3161
������ʼ�	-13.3166
�£���׼	-13.3168
������򸾷������	-13.3173
�����¿���	-13.3176
����˵�����1⁄4	-13.3177
����͸��	-13.3178
����˻���	-13.318
�����������	-13.3182
���򣬶	-13.3183
���󺧣�	-13.319
������޸	-13.3207
�𵥵���	-13.3207
���������¡�	-13.3215
▁������̤��	-13.322
�񡣡�����	-13.323
ʹ���˵�	-13.3234
̤���������	-13.3244
���ࡱ����	-13.3268
��1⁄2ׯ��	-13.3269
">�	-13.3272
���󣬸�	-13.3282
�ͨ��������	-13.3288
����̸���	-13.3291
�򶫱���	-13.3298
�������𾴣�����	-13.3307
���˹������	-13.3311
��˥	-13.3318
������˱	-13.3324
������޺�	-13.3325
�1⁄4�����	-13.3326
̶ȥ	-13.3329
�1⁄2����ͬ	-13.3331
▁���������˱	-13.3333
�;��	-13.3338
����˵���˴�����	-13.3342
��������	-13.3346
�򲻼��	-13.3348
▁��������������	-13.335
��⵽�������	-13.3356
���ꣿ���	-13.3357
�᲻�������	-13.336
����ʽ�	-13.3374
򳤣���	-13.3375
��������	-13.3379
���԰�	-13.3382
������������	-13.3391
�̡���˵������	-13.3394
���׿���	-13.3398
���̿	-13.3405
�򣬰����	-13.3412
��������	-13.3414
����󣬻������	-13.3416
��󲻶���	-13.3419
��˾������	-13.3423
������˵�˵�	-13.3433
������߽�	-13.3444
��ͯ����	-13.3444
����߽����	-13.3455
�£��������£��	-13.3461
˿������	-13.3462
▁��˵���˴������	-13.3462
..	-13.347
󸿡���	-13.3474
�򣬳�	-13.3474
�׾������	-13.3477
�����˵��˺	-13.3486
��׷׷	-13.3515
��Ტ�	-13.3517
���˿̶��	-13.3521
��׼�����	-13.353
�⵽�������	-13.3531
�˺��£����	-13.3532
����߽��	-13.3534
�򣬾�	-13.3535
�������׷�	-13.3537
���䷢��������	-13.3537
ʹ����������	-13.3553
̿͡��������	-13.3554
�������˶����	-13.3556
�������󣬽	-13.3564
��˯�������	-13.3566
��˵�˲	-13.3591
�󣬸����	-13.3593
����������1⁄2	-13.3594
����԰��	-13.3594
������˽���	-13.3597
΢����˵��������	-13.3603
�������	-13.3605
����	-13.3613
��͸�����	-13.3628
�������˼��£�	-13.363
໥��	-13.3638
���������󹫹�����	-13.3642
▁ͅ������	-13.3643
�����޲��	-13.3652
��������˽	-13.3668
���̳	-13.3682
˿˿���	-13.3684
򶫣�����	-13.3684
˴�˵�	-13.3697
���������	-13.3708
��������	-13.3711
����߼��	-13.3724
���͹͹�	-13.3741
񣬽��	-13.3742
��ʹ�������	-13.3745
���	-13.3775
߼����	-13.3777
�����˾�ͨ	-13.3783
������£�ʼ�	-13.3789
�����󾪣�	-13.3817
�¿���	-13.3821
▁����̸̸˵˵���	-13.3826
�ˬˬ�����	-13.3827
���󣬱������������	-13.3827
�����ʹ�	-13.3829
������ʿ������	-13.3831
ٰ��������	-13.3847
����̾�˿��������	-13.3853
▁����˵�	-13.3859
�������᣿��	-13.3868
��˵��ͦ	-13.387
���͡���	-13.388
��������	-13.388
���̵��������	-13.3889
׽�����	-13.3891
���񡣻�����	-13.3897
���𴦻�����	-13.3899
1⁄2��ׯ����	-13.39
ꣿ��	-13.3902
�����1�	-13.3902
·�����������	-13.3908
�򣬱������	-13.391
���˴��£���	-13.3911
��������ʹ����	-13.3916
▁������������΢	-13.3919
����˿����	-13.3919
▁���˽��	-13.3931
�󡣹�	-13.3934
������	-13.3946
�������	-13.3947
�󣬵���������	-13.3949
��	-13.395
��	-13.3951
󼪣���	-13.3952
�߼������	-13.3955
����̨�£������	-13.3958
�������©������	-13.3961
�����򡣹�����	-13.3981
�������	-13.399
�׹����	-13.3996
䶾�����	-13.3997
�����ˮ	-13.4001
�����͡�����	-13.4001
��˵������˺�	-13.4002
�£����˹�	-13.4006
�������޼�	-13.4012
���ʽ��	-13.4016
˳������	-13.4022
���򱱱��	-13.4023
���	-13.4034
�£���1⁄2��	-13.4036
��������ͨ����ͨ��	-13.4038
�׫�	-13.4054
����	-13.4063
�˷�������������	-13.4073
˭������	-13.4079
����˹������	-13.4086
���£�˵������	-13.4099
˵�˵�����	-13.4101
�������˱���	-13.4102
��߽���������	-13.4109
�󷨣�������	-13.411
��������᷿��	-13.411
���޴��£�����	-13.4114
����;�	-13.4115
���˵����������	-13.4115
�޴󰭣�	-13.4121
�˳��£����	-13.4136
�𳤽���������	-13.4138
˧���	-13.4151
˵��˭��������	-13.4166
ʹ�˳���������	-13.417
��������˴��	-13.4176
���߻�	-13.4194
˼��������˵��	-13.4195
��¡���˵�	-13.4201
���񣬺	-13.4203
˵�˵��	-13.4208
���������᲻���	-13.4212
°�	-13.4218
����˼��·	-13.4219
�����������򱱣�	-13.422
��1⁄2��ׯ�	-13.423
��������˳�	-13.423
���˿̣����������	-13.4233
ˮ��ˮ��	-13.4245
������⵽���	-13.4257
���÷�����	-13.426
˵����ʹ��������	-13.4269
������	-13.4269
����͹͹�	-13.4269
�̼�����	-13.4271
��󲻶	-13.4272
����෽��	-13.4273
񿪣��	-13.4283
���򣬷�	-13.4284
▁����2��	-13.4293
�3⁄4������	-13.4294
�˴򹷰����	-13.4301
▁���˺	-13.4308
�«���	-13.4314
�����׽	-13.4319
����ʹ������	-13.4322
▁�������1	-13.4329
���೾�	-13.4335
��񴲡���������	-13.4336
�����������	-13.4337
�¬��	-13.4343
�������ʹ���	-13.4348
▁>������	-13.4356
�����	-13.4367
񶾵����	-13.4369
▁���˹�����	-13.437
�	-13.4371
��⸱��	-13.4372
򹷰��������	-13.4372
���������󷨱	-13.4373
���|�	-13.4379
񣡡���	-13.438
��ᷳ�	-13.4387
����˳������	-13.4393
������ͦ	-13.4397
�����˱���	-13.4404
ȴƫ	-13.4405
��ʺ	-13.4411
����	-13.4413
���������	-13.4424
��򣬿�������	-13.4425
��������¡�	-13.4428
̨����	-13.4431
��⵶�����	-13.4443
�������󺹱���	-13.4443
▁�����˹�����	-13.4455
������;	-13.4457
��򣬱��������	-13.4457
�����񣬸��	-13.4458
͡�����	-13.4467
���ͦ����������	-13.4474
��������࿹�����	-13.4478
޿�	-13.4478
£������	-13.4478
�̾������	-13.4492
���������˵��	-13.4494
��������˵	-13.4496
�����ͬ�����	-13.4511
Ƴɻ	-13.4517
�ࡣ�	-13.4531
���������໤���	-13.4543
���ʿ������˵��	-13.4544
▁��������΢΢	-13.455
�������˵�������	-13.4561
�𳤽�����	-13.4562
▁�����������˳��	-13.4567
˳���	-13.459
�����԰�	-13.4593
��ʹ����·�	-13.4593
�󷨲��	-13.4594
޺�������	-13.4594
����󷨣�	-13.4594
��󻼡�����	-13.4608
������������񲣬	-13.4608
��������˾	-13.4611
��˹�������	-13.4614
�¡���˵��	-13.462
󣬷	-13.4637
▁���˴������	-13.4638
���˺���	-13.4641
󣬺���	-13.4642
๦��	-13.4644
▁�����3��	-13.4647
���๦��	-13.465
���������˳	-13.465
�˴���˵������	-13.4654
�����˴���	-13.4672
�˲�˵��	-13.4673
䶾���������	-13.4673
▁���˼��	-13.4689
����󻼡�����	-13.4689
������	-13.4695
����󷨲��	-13.4698
���˼������	-13.4704
��������޵	-13.4713
�����ͦ����	-13.4719
𷨣���	-13.4735
���£����˶������	-13.4752
������˲�	-13.4752
�������	-13.4754
▁������ʿ����	-13.476
������˽�	-13.4764
�����͹����	-13.4768
▁�����������˴	-13.4768
�໥�����	-13.477
񡣵���	-13.477
�󣬼��	-13.4794
��⹫�������	-13.4803
�¡����������	-13.4804
����˺�����	-13.4828
��������������	-13.4831
������̽�	-13.4833
󽫾��	-13.4837
�����£�����˯�	-13.4837
���������⵱��	-13.4838
����˳���	-13.4842
���̥	-13.4844
�˵˵�������	-13.4847
������������׷׵��	-13.4851
�򶨣����	-13.4859
���󺹣�������	-13.486
���������ࡣ	-13.487
��ࡢ	-13.4873
�԰׵�����������	-13.4886
�����������̶�	-13.4905
▁̧���˵	-13.4909
���޲�����	-13.491
���|�����	-13.4917
�����˳���	-13.4925
���޸�	-13.4927
ͨ���������˼���	-13.4935
�§	-13.4947
����߼	-13.4957
�����޼	-13.4963
����¬��	-13.4964
�����	-13.4966
�򱱡�	-13.4967
����׼�������	-13.4969
��񴲡���	-13.4969
���������	-13.4969
�������	-13.4971
�೾�	-13.4972
����	-13.498
񿪣�����	-13.4984
�׽�����	-13.5
˿˿	-13.5007
����̡��	-13.501
����׭�	-13.5022
���򣬷�����	-13.5023
򣬱����	-13.5033
�󡹦����	-13.5038
��˵����	-13.5041
��෽���	-13.5042
޼����	-13.5046
��±����	-13.505
�������ͯ��	-13.5051
��˴򹷰��	-13.5065
�������˸����	-13.5065
��������˸���	-13.5072
������˶�	-13.5077
��������	-13.5079
��󷨣���	-13.5083
���������˶��	-13.5086
˸����	-13.5091
��𴦻������	-13.5093
˵�˳���	-13.5096
˵�˵���	-13.5096
�˹������	-13.5097
��������񣬹������	-13.5097
��������˼��	-13.5102
��ˬ	-13.5104
�����͢���	-13.5117
��������	-13.5124
������ͬ���	-13.513
�ʻ����	-13.5132
���̰���������	-13.5135
�����޺	-13.5144
��1⁄2��ׯ	-13.5155
ߵߵ	-13.5163
��������˿	-13.5166
���⵶��	-13.5168
▁�˺����	-13.5178
��������	-13.519
▁��1⁄2����	-13.5201
�ʹ����ʹ��������	-13.5202
����ᷳ��	-13.5204
���ˮ��ˮ��	-13.5208
�����˼�����	-13.5218
�����������	-13.5231
�˿̣���	-13.524
�߿�������	-13.5252
������	-13.5255
��������������	-13.5255
��񴲣������������	-13.5258
����󣬻��������	-13.5261
▁�����˶��������	-13.5262
˧������	-13.5281
����׫�	-13.5286
�᣿����	-13.529
����޻���	-13.5293
���󣬾���	-13.5293
������ʿ�	-13.5298
▁������΢�	-13.5298
���£��£	-13.5301
▁�������˸�	-13.5304
�򱱱��	-13.5311
�̣�̧	-13.5312
�����������	-13.5316
�������	-13.5316
˻�����������	-13.5321
ǵĺ	-13.5337
��������	-13.5355
������󣬳���	-13.5356
׷׼���	-13.5365
������˿�����	-13.5366
������1⁄4	-13.5368
▁���������˴	-13.5369
����˸�̨	-13.5374
�����3	-13.5377
�׹��������	-13.5381
������׾��	-13.5385
�������˿̲�����	-13.5387
˿̻��	-13.5394
�����	-13.5399
������򱱣����	-13.5409
��󡣹�	-13.5413
�����˽����	-13.5422
������񡣵���	-13.5423
̫�ͣ�����	-13.543
��޴��£����	-13.5439
▁�˺�	-13.5446
▁��������ʹ���	-13.5446
򣬾�����������	-13.5448
�����±��	-13.5449
��ʹ�˳�������	-13.5452
���޴󰭡����	-13.5454
�������񣬻����	-13.5457
̷��	-13.5462
����ʾ�¡�����	-13.5468
������	-13.547
����᷿�	-13.5476
���˴�����	-13.5479
�͹�����	-13.5482
���಻�����	-13.5484
�����°��	-13.5486
��̧�	-13.5492
���˵����˵��	-13.5494
����򦣬������	-13.5499
����͡���	-13.5501
��ͣ������	-13.5508
����	-13.5512
��޹���	-13.5523
������2����	-13.5528
��������������	-13.5541
▁����̸̸˵˵������	-13.5543
���	-13.5543
ͣ�������	-13.5549
▁���˽������	-13.5554
��˼�������	-13.5559
׻�����	-13.5561
����˵�����£�	-13.5563
��¡��������	-13.5567
▁�����˸	-13.5569
�����޸���	-13.5582
̴��	-13.5586
��򦣬��������	-13.5588
�����˳������	-13.5593
��������˦����	-13.5595
�̾�˿���������	-13.5597
���������𻰣�����	-13.5598
��˳�������˵�	-13.5604
���˼�����	-13.5608
▁�𴦻��������	-13.5624
�£���˵������	-13.5643
�͡������	-13.5645
������2���	-13.5664
̣�����ʼ�	-13.5669
򲻹���	-13.5674
���򲻸�	-13.5675
����������	-13.5678
����¿������	-13.5681
�»������	-13.5684
���˵������	-13.5689
▁����˿����	-13.569
���������˴󹦣��	-13.5692
�������޿��	-13.5704
ˮ�������	-13.573
������󷨱��	-13.5733
�����������񣡡�	-13.5739
������	-13.5745
▁ǽ	-13.5749
�԰׵����	-13.5752
�������˴��	-13.5756
�������	-13.5758
������࿴����	-13.5758
▁�������˻��	-13.5759
��������ʻ��	-13.5772
▁ͯ��������	-13.5779
����1�	-13.5792
󺺵����	-13.5795
޲����	-13.5808
򣬽	-13.581
˿̣��	-13.5813
▁���˱��	-13.5816
�£�����������	-13.5819
�������˱��	-13.582
�����⿪���	-13.5826
�	-13.5838
���	-13.5839
�����˱�	-13.5842
���������˼	-13.5848
�������̾��������	-13.5852
���������򣬸����	-13.5853
�˵������3�	-13.5854
�����׾	-13.5863
��������˰	-13.5865
�˿̼�����	-13.5869
���񣬱��	-13.5871
�򣺡�����	-13.5882
�˵����	-13.5907
�򸾣������	-13.5914
�����1⁄2��ׯ��	-13.5914
�̣��������������	-13.5925
Ƶľ	-13.593
⵶������������	-13.5939
�ʹ˱�	-13.5943
·����˵	-13.5944
͡���������̫��	-13.5962
��˵���������	-13.5965
����˯�������	-13.5966
󸿡�����	-13.597
▁�������˵������	-13.5972
�򣬳���	-13.5973
��˴����	-13.5974
�˿̶�	-13.5975
޷���	-13.5976
▁������ͣ	-13.5977
������2�	-13.5978
▁��˵���˴��������	-13.5986
������󲽣����	-13.5988
������������˵	-13.599
������˿������	-13.6
��򣡡������������	-13.6002
�����1⁄2���˵�	-13.6003
󷢶��	-13.6021
�����͸�����	-13.6029
����������໥����	-13.604
�󣬹	-13.6045
�����������˧	-13.6053
������	-13.6058
�򲻻��	-13.6065
�˺������	-13.6067
�������˼�����	-13.6067
��˯�£����������	-13.609
���׼���	-13.6091
򳤣�����	-13.6095
�����;	-13.611
▁̧���˵�������	-13.6122
����	-13.6123
�����޽��	-13.6126
����ͦ�	-13.6129
�޻���˵��	-13.6129
����޵��	-13.613
Dzŷ	-13.6136
����򲻼��	-13.6138
򸾵	-13.614
˵�˼	-13.6144
�̼������	-13.616
����˽���	-13.6175
�������˵������	-13.6177
��߽��	-13.6192
�򱱡���	-13.6199
Ĺĵ	-13.6219
���񣬶���	-13.622
ʿ���������	-13.6242
���̶ˮ��	-13.6253
�򣬵���	-13.6254
�������󺧣�	-13.6258
޽�	-13.6258
����߻���	-13.6262
�����ͦ���̳������	-13.6266
�ͦ���������	-13.627
���̺������������	-13.6275
������˵������3�	-13.6275
�����򸾡�	-13.6277
̫�����	-13.628
񶷣������	-13.6282
">���	-13.6282
�������ͦ�	-13.6296
�3⁄4���	-13.6297
�޻���	-13.6298
������˻����	-13.6305
����������˦�	-13.6313
����𵥵���	-13.6317
����������	-13.6332
���˵�����˿�	-13.6337
������ˮ	-13.6341
�̫�ͣ�	-13.6346
����»���	-13.6349
�򸾷������	-13.6366
�˼��¡�	-13.6375
�����˸�̨	-13.6378
����˼˵�	-13.6381
����	-13.6382
�˴��£�	-13.6392
▁���˲�	-13.6394
�󣬳����	-13.6406
񣬵�����	-13.6416
򣬰����	-13.6418
�������ʹ	-13.6421
�����̡�������	-13.6422
󹦡������	-13.6422
������ͬ��	-13.6424
������˳	-13.6425
���˵�	-13.6425
����˺���	-13.6426
�򽥽�	-13.6437
�಻��	-13.6439
󣬳����	-13.6439
󺹱��	-13.6439
�������˿��	-13.6444
�������񣬻�	-13.6444
�2�͸�������	-13.6453
���׼�˹�	-13.6472
��䷢�	-13.6476
����񣬺	-13.6476
����˳�����	-13.6479
▁����̾��	-13.6492
��̣�������	-13.6497
���̽�����	-13.6497
���������������	-13.6498
���񣬸������	-13.6508
����޴��	-13.6514
��񶷣�	-13.6514
����޻	-13.6515
�£�ʼ�	-13.6515
��˳�������	-13.6516
󼪣�����	-13.6518
󾪣����������	-13.6521
������	-13.6523
�©�	-13.6525
�޴˱��	-13.6531
���£���˵�	-13.6532
���𴦣��������	-13.6549
��	-13.6553
������������󡣡���	-13.6555
�����׷����	-13.6559
��޵����	-13.6567
£�������	-13.6568
�������޼	-13.657
�£����˶��	-13.657
��񡭡���	-13.6571
򲻶����	-13.6571
������׺��	-13.6578
▁����ͨ������	-13.6581
��������ʾ�¡�	-13.6585
����������«�	-13.6586
��	-13.6587
��ͣ�������	-13.6619
򣬻���	-13.6631
�����񣡡���	-13.6642
���ˬ������������	-13.6648
��������׷��	-13.6649
����ͣ��	-13.6656
�󣬰��	-13.6666
�񣬱�����	-13.6669
�����ʾ	-13.6669
�����ͭ��������	-13.6676
���£������	-13.6689
▁̧���ͣ�����	-13.6692
�󲽣����	-13.6696
󣬿	-13.6696
����׷��	-13.6697
����׺	-13.6702
�̡�����	-13.6714
��������	-13.6715
������	-13.6715
���������񲻽�	-13.6727
���ʺ	-13.6729
�߾�	-13.6752
�䷨�	-13.6758
���޻���˵�	-13.6769
����	-13.6771
˲������	-13.6799
����̱��	-13.6803
⿪�����	-13.6803
·��˵	-13.6824
��̱	-13.6829
˵���£���	-13.6843
����񲻹	-13.6844
�˿˿���	-13.6844
�����	-13.6845
�𲽼�	-13.6864
���˴󵨣�	-13.6867
��	-13.6867
��������ͣ�	-13.6872
��������	-13.6879
�˵�˳�����	-13.688
������˹���	-13.6884
�����������	-13.6885
⧲����������	-13.6893
��˵��ʹ	-13.6904
񣬻��	-13.6908
Ĺǻ	-13.6913
���˵���˴�����	-13.6914
�������1⁄2	-13.6915
���̿�	-13.6917
������˭����	-13.6919
�����޲���	-13.6938
𵶣�����	-13.6942
����̨�£�	-13.6942
�������������	-13.6943
���ࡣ	-13.6952
��������ͬ	-13.6964
�˵���	-13.6967
�򣬹	-13.6979
���������	-13.6991
����������	-13.6993
��ˮ������	-13.6998
▁������ʿ������	-13.7002
������	-13.7003
��������˴󹦣�����	-13.7004
𵶵�	-13.7004
��˵��ͦ��	-13.7004
�򵽣����	-13.7014
�������������	-13.7021
���׷������	-13.7022
�����	-13.7048
���𻨣��	-13.7057
���˻������	-13.7058
��߿����	-13.7064
����©�	-13.7066
񶾣����	-13.7089
▁����ͨ��������	-13.7099
>?9	-13.7099
������˵�����1⁄4	-13.7101
�ͨ����ͨ�	-13.7102
󲻽	-13.7105
�࡭����	-13.7115
����˴���	-13.7141
����ʾ��	-13.7142
�⸱����	-13.7148
������׽��	-13.7156
�����ࡢ	-13.7161
�񹦡���	-13.7167
̡���˵���	-13.7168
���������	-13.7178
��޹��	-13.7183
��𵴣��	-13.7189
����=�	-13.7191
�������	-13.7203
���׷׽	-13.7204
�����˿̲����	-13.7228
�࿹������	-13.7231
���������������	-13.7233
��������̾�������	-13.7235
�����ͣ	-13.7241
������󺧣��	-13.7246
�����1���	-13.7254
������	-13.7257
�˹��������	-13.7265
˷����	-13.7269
����͡��������	-13.727
𷨡�����	-13.7277
������񣬶��	-13.7312
񣬳���	-13.7321
�ʾ���	-13.7323
����������˻	-13.7323
�����𻰣���	-13.7323
�������󡹦����	-13.7327
���������������	-13.7328
�˿����¶����	-13.7329
�����÷�����	-13.7331
˵�������˼����	-13.7332
�̽���	-13.7348
·��˵��	-13.7366
��2�����	-13.737
��򡣡�˵�	-13.738
��������󣬳���	-13.7391
̥��	-13.74
��˼��£����	-13.7407
���⹫��	-13.7418
��������±	-13.7419
�󷽡�	-13.7422
���򹷰�����	-13.7427
���§	-13.7432
����	-13.7436
���񶷣�	-13.7447
󱲣��	-13.7462
����°������	-13.7462
��඾�������	-13.7463
���ٰ�	-13.7471
صص	-13.7474
���」���	-13.7477
������̧�����	-13.7493
�������	-13.7504
򶫻����	-13.7504
ͯ��	-13.7515
˵������˵	-13.7553
���޺���	-13.7556
������ͬ�	-13.7558
��������޲	-13.7567
��������޲��	-13.7572
���򱱣���	-13.7587
�������޳	-13.7597
˾�ͨ	-13.7598
�������˴󹦣����	-13.7605
������󣬼�	-13.7606
��򣬲	-13.7612
�����������	-13.7614
������̺	-13.7622
ͥ���	-13.7623
�򡣹��������	-13.7643
������׺	-13.7652
�˺��£�����	-13.7671
�����⶯�����	-13.7681
�˵�����	-13.7688
�±�����	-13.7688
�����������	-13.7692
��������˳	-13.7696
������̽����	-13.7701
̣�����ʼ���	-13.7741
���������⬼��	-13.7743
��⵱����	-13.775
�˭˵��	-13.7751
�����˲�����	-13.7753
�������˲�	-13.7757
�����򳤴��	-13.776
��񣬹���	-13.7763
��򡣹�������	-13.7767
�����	-13.7767
��񡣹����	-13.7777
���񱼣���	-13.7779
�£���׼���	-13.7779
�����˸���	-13.7783
▁�����˳����	-13.7798
󡱣���	-13.7804
��󣬶	-13.7804
��̺���	-13.7805
�˶�������	-13.7835
ʧɻ	-13.7838
̺���	-13.7855
�¡�����˵��	-13.7862
�����󺧣�	-13.7867
�����������	-13.7869
�̣����������	-13.7899
���򲻹��	-13.7912
������޶	-13.7931
�����������	-13.7931
�������󹫹����	-13.7956
˿�������	-13.7962
¡�����	-13.7963
����񣬴�	-13.7972
���2��̣���	-13.7973
�̵���������	-13.7975
�����������˵�	-13.7978
��;���	-13.798
ʽ����������	-13.7983
���������޹	-13.7993
ͨ����ˮ����������	-13.8003
ʹ��������	-13.8006
�򣬴������	-13.8007
▁����ʹ���	-13.8012
�󹫹��	-13.8014
������	-13.8015
�̰��������	-13.8022
�������˵��������	-13.803
�������˴���	-13.8038
ʹ��ʹ���	-13.8049
˵����������1⁄2��	-13.8052
�򱱡�������	-13.8053
�����������£�	-13.8057
�޵������	-13.8057
���˿�������	-13.8065
����������ˮ��	-13.8074
�ͨ̾�˿�����	-13.8086
�˼��������	-13.8089
���°��	-13.8095
▁̄���	-13.8106
����򦣬	-13.8111
��󣬸��	-13.8118
���������	-13.813
������ͣ	-13.814
���׷��	-13.814
�������	-13.8152
̥�	-13.8163
�˵��˭	-13.8168
�޴󰭡������������	-13.8177
̸̸���	-13.8193
����	-13.8193
˺�1⁄2����	-13.823
̬����	-13.8233
�������������	-13.8248
��˴�����ͬ�����	-13.825
ƽ̹	-13.8253
��˵��˭��������	-13.8256
���������򣬸�	-13.829
�1⁄2��ׯ������1⁄2	-13.829
���⹫�	-13.8293
▁�����3�����	-13.8329
�ͨ˵�	-13.8331
˾���	-13.8331
���ʼ��	-13.8339
��󷨣��������	-13.835
�����ʾ�¡�����	-13.8351
󣬻�	-13.8357
��򣬿����	-13.8361
���������׺����	-13.8364
󺺵�������	-13.8368
����	-13.837
�񱼡���	-13.8372
÷���������	-13.8386
��������	-13.839
��������󣡡��	-13.8392
˿̲�	-13.8424
������˼����	-13.8431
��˸����	-13.8444
����񡣻��	-13.8445
���������	-13.8451
��󣬼��	-13.8456
�ͨ���������	-13.8462
▁�𴦻���������	-13.8468
���˶�������	-13.8471
���¶����	-13.8472
�޽����������	-13.8475
�˿̵��	-13.8475
����󺹱��	-13.8476
ʹ����˵�	-13.8482
�⴫���	-13.8492
�����˳�������	-13.8494
����͹���2	-13.8504
񱳡��	-13.8505
���򣬾�	-13.8506
�󡣻��	-13.8508
΢����˵���������	-13.8514
���ࡢ�	-13.8519
���������	-13.8543
▁���˼���	-13.8555
�������󼱣��	-13.8586
�������𻰣���	-13.8593
�⴦�	-13.8595
��������	-13.8598
˽�£����	-13.861
������������򶫱��	-13.8614
��������˺��	-13.8619
������˻��	-13.8629
▁����2���	-13.8632
����˵˵���	-13.8636
񣬱������	-13.8637
����˼�������	-13.8661
���͹�	-13.8668
مم	-13.8679
򲻵����	-13.8689
������	-13.8693
�͹����	-13.87
˰�����	-13.8722
�������<	-13.8729
������ˮ����	-13.8744
��«�	-13.875
޳�����	-13.8755
�����׷	-13.8762
�����˵˵���	-13.8763
����˼��¡�	-13.8769
������¡	-13.8784
���˵���˸	-13.8793
��󣬾�	-13.88
;����������	-13.8804
�׻��	-13.881
򣬲�����	-13.8815
�������¿��	-13.8818
������˺���	-13.8819
����󣬻	-13.884
��⹦�����	-13.8843
�������˱������	-13.8863
����·��ͨ���	-13.8871
�̣�˵�������	-13.8901
�����̨���	-13.8907
��޵��������	-13.8913
���׻	-13.8917
�������͹��	-13.892
���ͬ���	-13.8924
�˵������	-13.8925
��򶫱�����	-13.8932
�𶯣��	-13.8958
�����̬�������	-13.896
��1⁄2�����	-13.8961
�԰׵������	-13.8961
������˽�����	-13.8968
������ˬ���	-13.8971
�󷨣��������	-13.9
�����񡣹������	-13.9002
�������񡣡����	-13.9003
䷢	-13.9018
ʹ˸��	-13.9033
򸾴������	-13.9039
���򲻶	-13.9043
��⵶��������	-13.9045
�˲��������	-13.9057
���������󡣡����	-13.9063
��˵�˳��������	-13.9066
��������̴	-13.9069
ᷳ���	-13.9071
���򣿡�����	-13.9087
����׶���	-13.9098
�಻���	-13.9099
�˹�������	-13.9104
��̺	-13.9107
����˶������	-13.9119
���������ͣ��	-13.912
ʽ�������	-13.9124
������������˴󹦣��	-13.9127
̾�˿����������	-13.9152
��󣬱���	-13.9163
���������	-13.9163
�׻���������	-13.9164
�����˯	-13.9164
󼪣�������	-13.9165
��̨�£���������	-13.9175
�˭�������	-13.9179
���¿��	-13.9179
��̴��	-13.918
����±��	-13.9197
���	-13.9198
�ʾ�¡���	-13.92
������޵	-13.9205
���񣬵�����������	-13.9214
���񶷣����	-13.9214
��񲡣�	-13.9216
��	-13.9216
���𳤽����	-13.9223
΢��	-13.9238
��԰����	-13.9244
������	-13.925
���͹���	-13.9258
��������޹�	-13.9258
��˹������	-13.9267
���ٰ����	-13.9269
����񣡡��	-13.9281
˴���̨���	-13.9296
��������˵�˵����	-13.9297
��������	-13.9313
׸���	-13.932
�̣�˵	-13.932
�������𶯣�������	-13.9321
���˴�����ʹ�	-13.933
�񡣵���	-13.9359
�˿̼�������	-13.9387
��񣬷�����	-13.9408
��⬼�	-13.9412
󣬷�	-13.9413
��򣬺	-13.9415
������⻵	-13.9421
�򿪣�������	-13.9425
��׿���	-13.9426
�����޶�	-13.9435
�˿�������	-13.9439
˵��������������	-13.9444
�������	-13.9445
�����˴󾪣�	-13.9456
󽫾����	-13.9461
�������˹	-13.9472
��⿪��������	-13.9474
��������������	-13.9481
󶼾���	-13.9486
��򣿡����	-13.9488
������	-13.9492
׮���£��	-13.9494
򵹣����	-13.9497
����˿��������	-13.9505
��������ͬ���	-13.9511
�ͨ������˵���	-13.9513
����	-13.9521
�񱼣�����	-13.9521
���׿�˵�	-13.9525
⶯����	-13.9532
�;����������	-13.9546
������・�����	-13.9548
���������	-13.9562
˿̱��	-13.959
�󣬵�������	-13.9591
׳֮	-13.9594
ʹ���˸	-13.9598
·����˸��	-13.9602
˶������	-13.9611
�����໤��	-13.9612
����󣬽	-13.9622
�����᲻	-13.963
�������˵�������	-13.9662
���˵���˷	-13.9664
�᣿������������	-13.968
���˷��£��	-13.9684
���𷣣���	-13.9689
�޷��������	-13.9691
��䷿������	-13.9694
ȹù	-13.971
�򱱷�	-13.9727
�˴����͡��	-13.974
���������	-13.9741
��๫������	-13.9741
�˵��������·��	-13.9764
�޶��������	-13.9771
���󲻶������	-13.9772
�׷׽��£���������	-13.9778
���ˬ���	-13.979
���;����	-13.9792
��ͨ��ͨ���	-13.9793
����޻������	-13.9793
�񣬳�������	-13.9796
��˺󼸲�����	-13.9797
▁����׷���	-13.98
˵�����£���������	-13.9802
���˸������	-13.9803
���𴦻������	-13.9843
�������׿�˵���	-13.9848
�����	-13.9855
�����޵������	-13.9872
▁���������˶	-13.9876
��󣡡���	-13.9879
©�������	-13.989
�����ͯ�������	-13.9924
���������ʹ	-13.9936
񣬿	-13.9941
޹�����	-13.9951
˵�˼�	-13.9954
̾����������	-13.9956
�򲻵�����	-13.9969
��򣬾�	-13.9972
��˻������	-13.9986
�󣬴���	-13.999
����	-13.999
𻰣�����	-13.9997
���·��ͨ��	-14.0003
����޼���������	-14.0005
˷������	-14.0018
������򣿡�	-14.0026
˵������3���	-14.004
�˭����˵	-14.0057
����໥�	-14.0064
����ࡡ����	-14.0074
ʻ����	-14.0077
���������	-14.0089
����͡��	-14.0107
��˵��������ʹ	-14.0109
���	-14.0117
���⴫�������	-14.0134
���䶼���	-14.0138
�£���׼�	-14.0139
򸾣�����������	-14.0141
�鿴���������	-14.0148
�������˸�	-14.0149
�������񣬶���	-14.0155
�ʹ˱�������	-14.0159
ٰ������	-14.0176
�˻�����	-14.0181
���������𻰡�	-14.0182
�����̣��������	-14.0182
���ʹ�˹	-14.0185
·�˼�������	-14.0194
񣬸��������	-14.0223
�£�����������˵�	-14.0257
鿴���	-14.0271
�����̻���	-14.028
��߿	-14.0285
▁�����߽����	-14.0286
��໥�	-14.0286
���˵�����£�����	-14.0298
˲��������	-14.0333
�����˸����	-14.0335
�����	-14.0337
�����¿�	-14.0338
��򡣡���	-14.0351
�����䶼��	-14.0376
򵹡��	-14.0391
��׮	-14.0409
̼���	-14.0413
����������	-14.042
�£�������ʹ���	-14.0426
�£����˶����	-14.0428
˽�����	-14.0435
�󣬷����	-14.0441
����˧������	-14.0443
�޿���	-14.045
▁���˴	-14.0466
��򡣡�˵��	-14.0467
������������˷	-14.0491
▁̧���˵�	-14.0511
�˾������	-14.0511
����������	-14.0513
�԰׵������������	-14.0529
����׭��	-14.0529
▁��������	-14.0532
�����˭˵�����	-14.0536
������¡���	-14.0555
��������˺�	-14.0562
▁��̶	-14.057
����	-14.0582
��ʻ	-14.0589
▁�����󾪣����	-14.0605
ͨ��̾	-14.0611
��������ʹ	-14.0614
�����˰����	-14.0649
���񣬳�������	-14.0649
���������˾	-14.0657
�޻������	-14.068
����	-14.0681
�������𻰡����	-14.0697
����	-14.0707
�̱���	-14.071
����ʻ���	-14.0711
ʹ�˲��	-14.0718
��������������	-14.0725
̨�2��	-14.0727
໰	-14.0762
忹	-14.0766
ེ	-14.0768
󹦣��	-14.0773
��䶾���	-14.0773
䡷	-14.0774
����̸̸˵˵����	-14.0775
㺰	-14.0776
˵����1⁄2��	-14.0776
റ	-14.078
ᾭ	-14.078
ⵣ	-14.0781
巭	-14.0781
ُ	-14.0781
ّ	-14.0781
વ	-14.0782
ᄒ	-14.0782
ⴥ	-14.0782
䴥	-14.0782
桯	-14.0782
滭	-14.0782
ا	-14.0782
ᵲ	-14.0782
⬱	-14.0782
佻	-14.0782
�����������򣬰	-14.0782
⢡	-14.0783
俶	-14.0783
޸���ͣ������	-14.0783
ө	-14.0783
զ	-14.0783
ྶ	-14.0783
ⲵ	-14.0783
⴩	-14.0783
⹥	-14.0783
㯶	-14.0783
㸿	-14.0783
䶵	-14.0783
檻	-14.0783
K	-14.0783
Ḻ	-14.0783
Ứ	-14.0783
⵭	-14.0783
⺦	-14.0783
ب	-14.0783
ॣ	-14.0783
ॽ	-14.0783
Ḵ	-14.0783
⳾	-14.0783
㵻	-14.0783
㶶	-14.0783
㹴	-14.0783
䱯	-14.0783
侲	-14.0783
夕	-14.0783
嵤	-14.0783
差	-14.0783
椶	-14.0783
淶	-14.0783
漫	-14.0783
Ძ	-14.0784
ῳ	-14.0784
⿵	-14.0784
㳥	-14.0784
㳯	-14.0784
䡮	-14.0784
䱣	-14.0784
丵	-14.0784
▁́󷽵	-14.0784
R	-14.0784
¦	-14.0784
Ǣ	-14.0784
ʉ	-14.0784
˩	-14.0784
̞	-14.0784
ҥ	-14.0784
ӧ	-14.0784
դ	-14.0784
ݪ	-14.0784
ॼ	-14.0784
ॾ	-14.0784
ণ	-14.0784
౶	-14.0784
വ	-14.0784
෿	-14.0784
า	-14.0784
ຢ	-14.0784
ຶ	-14.0784
໬	-14.0784
ᡡ	-14.0784
ᵻ	-14.0784
ἱ	-14.0784
↑	-14.0784
⢣	-14.0784
ⴭ	-14.0784
ⵢ	-14.0784
ⶪ	-14.0784
ⷹ	-14.0784
⸣	-14.0784
㱯	-14.0784
㱿	-14.0784
㵡	-14.0784
㶷	-14.0784
㸩	-14.0784
㾻	-14.0784
㿡	-14.0784
䱾	-14.0784
乼	-14.0784
伣	-14.0784
尡	-14.0784
帣	-14.0784
庬	-14.0784
氡	-14.0784
氰	-14.0784
洵	-14.0784
涨	-14.0784
涾	-14.0784
溮	-14.0784
滬	-14.0784
滳	-14.0784
滵	-14.0784
򡭡���	-14.0784
漬	-14.0784
ᱬ	-14.0784
尸	-14.0784
廽	-14.0784
F	-14.0784
P	-14.0784
­	-14.0784
Ģ	-14.0784
ť	-14.0784
ѥ	-14.0784
ా	-14.0784
౵	-14.0784
༸	-14.0784
ᄇ	-14.0784
ὰ	-14.0784
Ⱞ	-14.0784
Ⲽ	-14.0784
⻷	-14.0784
㲥	-14.0784
㻷	-14.0784
㽾	-14.0784
㿱	-14.0784
履	-14.0784
嵶	-14.0784
嶡	-14.0784
庺	-14.0784
廪	-14.0784
廳	-14.0784
枅	-14.0784
油	-14.0784
沽	-14.0784
潥	-14.0784
.99	-14.0785
ڤ	-14.0785
D	-14.0785
N	-14.0785
٪	-14.0785
٭	-14.0785
ݬ	-14.0785
ި	-14.0785
ॱ	-14.0785
൶	-14.0785
ི	-14.0785
ᳮ	-14.0785
ᵺ	-14.0785
ᾡ	-14.0785
⯡	-14.0785
ⰻ	-14.0785
Ɐ	-14.0785
⳶	-14.0785
⵨	-14.0785
ⷳ	-14.0785
⸰	-14.0785
⻴	-14.0785
㰫	-14.0785
㽦	-14.0785
䵷	-14.0785
人	-14.0785
伥	-14.0785
侶	-14.0785
尶	-14.0785
檴	-14.0785
檹	-14.0785
沼	-14.0785
洲	-14.0785
涮	-14.0785
Ҩ	-14.0785
ࣻ	-14.0785
ॶ	-14.0785
໹	-14.0785
໺	-14.0785
ᱲ	-14.0785
⡯	-14.0785
ⷢ	-14.0785
⸡	-14.0785
㱦	-14.0785
㷿	-14.0785
㼫	-14.0785
㼯	-14.0785
㼰	-14.0785
俺	-14.0785
岦	-14.0785
嵮	-14.0785
帡	-14.0785
桰	-14.0785
�¿๦���	-14.0785
ʑ	-14.0786
൭	-14.0786
໷	-14.0786
ྻ	-14.0786
᧿	-14.0786
ᵫ	-14.0786
ḡ	-14.0786
ⰲ	-14.0786
ⲡ	-14.0786
⵴	-14.0786
㴰	-14.0786
㶡	-14.0786
㸣	-14.0786
㾶	-14.0786
䶴	-14.0786
䷹	-14.0786
乶	-14.0786
仪	-14.0786
仮	-14.0786
壡	-14.0786
妣	-14.0786
岨	-14.0786
崿	-14.0786
廤	-14.0786
弣	-14.0786
徹	-14.0786
桮	-14.0786
汻	-14.0786
洳	-14.0786
渶	-14.0786
湻	-14.0786
滰	-14.0786
漺	-14.0786
潰	-14.0786
򰡣��򰡣��	-14.0786
߆	-14.0786
༷	-14.0786
ἲ	-14.0786
ⱳ	-14.0786
㺺	-14.0786
伲	-14.0786
尵	-14.0786
忿	-14.0786
溢	-14.0786
󾪡��������	-14.0786
G	-14.0787
M	-14.0787
ʊ	-14.0787
լ	-14.0787
໯	-14.0787
༧	-14.0787
᫡	-14.0787
᰺	-14.0787
Ღ	-14.0787
Ⲧ	-14.0787
Ⲩ	-14.0787
⺱	-14.0787
⺸	-14.0787
㾳	-14.0787
佲	-14.0787
屨	-14.0787
屮	-14.0787
崲	-14.0787
崴	-14.0787
嶫	-14.0787
弸	-14.0787
彥	-14.0787
彭	-14.0787
汾	-14.0787
湲	-14.0787
滤	-14.0787
B	-14.0787
౰	-14.0787
ལ	-14.0787
Ὡ	-14.0787
⯺	-14.0787
Ᵽ	-14.0787
ⱥ	-14.0787
㺣	-14.0787
丹	-14.0787
涸	-14.0787
4.	-14.0788
󰭣���	-14.0788
A	-14.0788
ʐ	-14.0788
ʭ	-14.0788
౼	-14.0788
ಲ	-14.0788
ൣ	-14.0788
๰	-14.0788
ཱ	-14.0788
ྀ	-14.0788
ླ	-14.0788
ᡶ	-14.0788
᳭	-14.0788
ḻ	-14.0788
ṣ	-14.0788
ữ	-14.0788
Ỷ	-14.0788
⯣	-14.0788
ⱬ	-14.0788
⸸	-14.0788
⹢	-14.0788
㴿	-14.0788
㸲	-14.0788
㺶	-14.0788
㾴	-14.0788
亦	-14.0788
仵	-14.0788
俹	-14.0788
嵱	-14.0788
嶷	-14.0788
幦	-14.0788
檳	-14.0788
氮	-14.0788
泤	-14.0788
浫	-14.0788
渧	-14.0788
湷	-14.0788
漦	-14.0788
漼	-14.0788
Ӗ	-14.0788
ૼ	-14.0788
ಡ	-14.0788
᳡	-14.0788
㶤	-14.0788
㶩	-14.0788
滯	-14.0788
๾	-14.0789
࿪	-14.0789
ᱩ	-14.0789
Ỽ	-14.0789
₩	-14.0789
Ɀ	-14.0789
㣻	-14.0789
㬵	-14.0789
㱰	-14.0789
㲹	-14.0789
㴺	-14.0789
㹲	-14.0789
䱦	-14.0789
北	-14.0789
尾	-14.0789
嶶	-14.0789
泶	-14.0789
潭	-14.0789
ᳳ	-14.0789
ᷮ	-14.0789
󻼣���	-14.079
.9��	-14.079
Ï	-14.079
ǩ	-14.079
ڎ	-14.079
߮	-14.079
ᣨ	-14.079
ᴩ	-14.079
ᵹ	-14.079
ᾴ	-14.079
Ᾱ	-14.079
⻤	-14.079
㲲	-14.079
㳰	-14.079
弤	-14.079
役	-14.079
浲	-14.079
湥	-14.079
ϫ	-14.079
ᱼ	-14.079
����򣡡�	-14.0791
��������࿴��	-14.0791
ᄀ	-14.0791
ⲫ	-14.0791
巾	-14.0791
廬	-14.0791
橣	-14.0791
مح	-14.0792
ⶥ	-14.0792
䵨	-14.0792
岮	-14.0792
彿	-14.0792
循	-14.0792
὿	-14.0793
侪	-14.0793
ᷭ	-14.0793
๴	-14.0794
㳩	-14.0794
㣣	-14.0795
崳	-14.0795
�̽1	-14.0801
</	-14.0803
���������������	-14.0803
�񶾵	-14.0815
����򿪣���	-14.082
��������˭����	-14.0823
·����˵��	-14.0828
·������	-14.083
▁7	-14.0847
��񼼣������	-14.085
�޴󰭣�����	-14.0858
񿪣������	-14.0859
���©����	-14.0867
������򡣹�����	-14.0872
�1⁄2�˷�	-14.0875
�˸���˵������	-14.0894
󺺺�	-14.0894
󣬰���	-14.0904
�񣬴��	-14.0907
˵˭	-14.0914
�ͨ���÷������	-14.0919
ׯ��������1⁄2��	-14.0926
����������˵�	-14.0929
󣬽���	-14.0935
▁����׷�	-14.0946
�£�ʹ���	-14.0961
��������£����	-14.0972
ý̵	-14.0974
���޽	-14.0997
����ˮ������	-14.1023
�˿̣����	-14.1024
���������	-14.1024
Ĺù	-14.1033
ү̫	-14.1034
ͬ����	-14.104
�������	-14.1051
����̫����	-14.1056
���񣡡�����	-14.1061
�����˺�����	-14.1078
��˵�������˲�����	-14.1082
�����ʹ�����	-14.1095
�������󣬽��	-14.1123
��󣬾	-14.1128
�������ͭ��	-14.1137
����⸱������	-14.1139
΢΢��ʹ������	-14.1144
���������	-14.1146
��ʹʹ����	-14.1149
ٺٺ	-14.1152
������<	-14.1171
�������¶��	-14.1179
�1⁄2��ׯ����	-14.1186
�����˧����	-14.1196
���͹͹���	-14.1206
�̺���	-14.1209
�����ٰ�	-14.1245
��򣬸����	-14.1249
·��ͨ������	-14.126
�̾���������	-14.1289
��������˶����	-14.1294
��3⁄4����	-14.1303
�˳�������	-14.132
�������޺���	-14.1322
����׾������	-14.1343
����1⁄2����	-14.1349
⵶������	-14.138
�������	-14.1384
˵��������1	-14.1394
���񹦣��������	-14.1396
�򸾣�	-14.1413
����𴦻���������	-14.1423
����±�	-14.1433
������񣿡��	-14.1434
��򣬽��	-14.1436
�󺣣��	-14.1452
󣬻��	-14.1453
���󺧣��	-14.1463
��̾�	-14.1468
��񣬽���	-14.1478
�����˹����	-14.1501
����޽�	-14.1504
񣬴���	-14.1508
��򹷰��	-14.1509
�����⹫�	-14.1533
���̳����	-14.1534
����������˼��	-14.154
������򣡡�	-14.1544
���⬼����������	-14.156
��˸�����	-14.1561
����˯��	-14.1574
���˼��˵	-14.1641
��̡��������	-14.166
��˦��������	-14.1674
���޶�����	-14.1676
��������󣬾�	-14.1677
���������	-14.1707
���󣬿�������	-14.1715
˿̣������	-14.1723
��������ͥ	-14.173
▁����˵	-14.1736
�����͢����	-14.1746
��������	-14.1748
��£�����ͬ	-14.175
§���	-14.178
��󣬷����������	-14.1784
��˸�̨������	-14.1793
..�����	-14.1812
�����������񣡡���	-14.1817
���⹦�����	-14.1818
��򣬸���	-14.1845
�˵�˵����	-14.1849
���������޴󰭣�	-14.1855
򳤵����	-14.1855
���䷢�	-14.1858
���ͬʹ��	-14.1865
�ʽ�������	-14.1881
ʹ˱�����������	-14.1885
׷׽��£���������	-14.1904
�������	-14.1917
����̶��	-14.1918
��������߽����	-14.1954
������������˵�	-14.1969
�«����	-14.1987
˹������	-14.1988
��̳	-14.1998
���������2����	-14.2015
?�	-14.2029
���󺣣�	-14.2056
��˽������	-14.206
�������ͣ���	-14.2069
�᲻����	-14.2072
ס̾	-14.2073
��������������	-14.2074
�����˷���	-14.2086
������¡��	-14.2088
磬ͬ	-14.2092
▁1	-14.2101
򡣡����������	-14.2102
·��˰��	-14.2135
����˿˿	-14.2172
���	-14.2179
˼�����������	-14.2195
��˿̵��	-14.2196
▁�����˼	-14.2197
���3⁄4�����	-14.2203
������𻰡�	-14.2225
�����˸�̨��	-14.2246
�����ʹ˱�	-14.2248
�򵽣�������	-14.2249
ǻɻ	-14.2278
����񡣡�	-14.2285
���������׷�	-14.2287
󣬴�����	-14.2287
▁���˶���������	-14.2287
����󣬻���	-14.2297
����̹�	-14.2297
▁˵	-14.2301
ׯ���	-14.2304
����������	-14.2309
󷢶���	-14.2311
��͡���	-14.2317
���ʹ������	-14.2327
���𻰡�����	-14.2343
��˼��£�����	-14.2358
��.</	-14.2399
������˵����˵	-14.2412
˵������������΢	-14.2419
�����	-14.2459
�޴󰭣���	-14.2471
▁�𴦻�����	-14.2482
��������˼��	-14.2485
���ˮ̶��������	-14.2489
�����׺	-14.2492
������1⁄2	-14.2498
��޽���	-14.2505
���⬼��	-14.256
�򣬱��	-14.2561
�������˷	-14.2572
˽�������	-14.2577
�����⵱�	-14.2588
����	-14.2592
����ˮ̶�������	-14.2597
�򶫣��������	-14.2627
��������˾��	-14.2627
��򲻹�	-14.2636
�򳤵�	-14.2639
����޴	-14.2681
���ͥ	-14.2683
����᣿��	-14.2702
��񣬺�	-14.2705
·��̧	-14.2708
���󣬱�����	-14.2722
��ׯ����	-14.2725
��������������	-14.2726
�����󲽣���	-14.273
�˯�����	-14.2732
����������˧�	-14.2746
�����̵�	-14.277
����	-14.2779
��ʾ�����������	-14.2794
�����򣬵������	-14.2801
��˵����ͦ���	-14.2807
������׽�	-14.2836
��಻��������	-14.2838
���˵�������˲��	-14.2842
˵����ͦ���	-14.2847
����󣿡�	-14.2877
�޻���˵���	-14.2885
ȴͬ	-14.2893
��������������	-14.2906
�·��������	-14.2915
�߽�����	-14.292
��̻������	-14.2939
�������	-14.2972
��˿��������	-14.2974
Ĺȵ	-14.3007
���ʽ���	-14.3012
�����󡹦�����	-14.3025
�󣬵��������	-14.3026
�����������	-14.3057
�򸾣����	-14.3061
󱲣�����	-14.3063
׶��	-14.3067
�񣬻	-14.3078
�������2������	-14.3102
�����󾪣����	-14.3102
��ˮ�������	-14.3115
𲻿���	-14.3132
˵�˳������	-14.3154
�񣬷�����������	-14.3155
̶����	-14.3156
�͸����	-14.3172
��©����	-14.3177
�޶������	-14.3179
�ͨ���£�	-14.3184
▁�����˶	-14.3198
󾱡	-15.415
󾢷	-15.4151
󽻷	-15.4152
󽫣	-15.4153
󽫡	-15.4154
󽣣	-15.4155
󼸸	-15.4156
󼱻	-15.4157
󺺹	-15.4158
󺺸	-15.4159
󺺶	-15.416
󺺣	-15.4161
󸿣	-15.4162
󷽣	-15.4163
󷭴	-15.4164
󷭳	-15.4165
󷨾	-15.4166
󷨴	-15.4167
󷢳	-15.4168
󶷷	-15.4169
󶶴	-15.417
󵶿	-15.4171
󵱣	-15.4172
󵭵	-15.4173
󵨻	-15.4174
󳼣	-15.4175
󲻾	-15.4176
󲻷	-15.4177
󲻳	-15.4178
󱱶	-15.4179
󰡱	-15.418
󣺡	-15.4181
󡭡	-15.4182
󡣽	-15.4183
򼣬	-15.4184
򻨹	-15.4185
򹪣	-15.4186
򹥻	-15.4187
򸾽	-15.4188
򸾲	-15.4189
򸾱	-15.419
򷴼	-15.4191
򷨣	-15.4192
򷢳	-15.4193
򶷣	-15.4194
򶴿	-15.4195
򱱳	-15.4196
򡣸	-15.4197
򡣷	-15.4198
񼫣	-15.4199
񼣬	-15.42
񸾶	-15.4201
񸾣	-15.4202
񶾡	-15.4203
񴲱	-15.4204
񲻻	-15.4205
񲻴	-15.4206
񲢼	-15.4207
񱳴	-15.4208
񱳣	-15.4209
񣺡	-15.421
񡱵	-15.4211
𿪣	-15.4212
𽭺	-15.4213
𽬣	-15.4214
𽣣	-15.4215
𻷣	-15.4216
𹥣	-15.4217
𸴣	-15.4218
𷶣	-15.4219
𷣡	-15.422
𵶽	-15.4221
𳳣	-15.4222
𲽽	-15.4223
𲻵	-15.4224
𲻱	-15.4225
𱸣	-15.4226
𱨣	-15.4227
￴	-15.4228
	-15.4229
	-15.423
	-15.4231
	-15.4232
	-15.4233
	-15.4234
	-15.4235
	-15.4236
	-15.4237
	-15.4238
	-15.4239
	-15.424
	-15.4241
	-15.4242
	-15.4243
	-15.4244
	-15.4245
鿾	-15.4246
䶸	-15.4247
㵼	-15.4248
⻼	-15.4249
⻺	-15.425
⻹	-15.4251
⸾	-15.4252
⸺	-15.4253
⵲	-15.4254
⴬	-15.4255
ᷨ	-15.4256
ᳶ	-15.4257
Ჽ	-15.4258
᫣	-15.4259
᣻	-15.426
᣺	-15.4261
࿿	-15.4262
೤	-15.4263
૲	-15.4264
׬	-15.4265
҆	-15.4266
̯	-15.4267
󾪡	-15.4268
󼸲	-15.4269
󼲳	-15.427
󼱹	-15.4271
󼱳	-15.4272
󼱱	-15.4273
󺹼	-15.4274
󸿡	-15.4275
󷨲	-15.4276
󷢣	-15.4277
󶼾	-15.4278
󶴡	-15.4279
󵶣	-15.428
󵨡	-15.4281
󡱣	-15.4282
󡣻	-15.4283
󡣷	-15.4284
󡣬	-15.4285
򽥽	-15.4286
򻰣	-15.4287
򸾸	-15.4288
򸾷	-15.4289
򸾰	-15.429
򷢣	-15.4291
򶫣	-15.4292
򵽴	-15.4293
򴰿	-15.4294
򳤴	-15.4295
򳤣	-15.4296
򲻼	-15.4297
򱱼	-15.4298
򱱷	-15.4299
򱱱	-15.43
򰵰	-15.4301
򰡣	-15.4302
򣬳	-15.4303
򡱣	-15.4304
񶷡	-15.4305
񴲡	-15.4306
񲻹	-15.4307
񲡣	-15.4308
񱼶	-15.4309
񣬼	-15.431
񣬰	-15.4311
񡭡	-15.4312
𾴡	-15.4313
𾭣	-15.4314
𾢣	-15.4315
𷨡	-15.4316
𷣣	-15.4317
𶯡	-15.4318
𵥵	-15.4319
𳤣	-15.432
	-15.4321
	-15.4322
	-15.4323
	-15.4324
	-15.4325
	-15.4326
	-15.4327
	-15.4328
	-15.4329
	-15.433
	-15.4331
	-15.4332
	-15.4333
	-15.4334
	-15.4335
⻵	-15.4336
⶷	-15.4337
⴦	-15.4338
໨	-15.4339
຦	-15.434
๫	-15.4341
඼	-15.4342
೾	-15.4343
࡭	-15.4344
آ	-15.4345
׫	-15.4346
¬	-15.4347
|	-15.4348
󼪣	-15.4349
󻼣	-15.435
󹫹	-15.4351
󹦡	-15.4352
󷽡	-15.4353
󷢶	-15.4354
󳹴	-15.4355
󱲣	-15.4356
󡣹	-15.4357
򸾾	-15.4358
򸾼	-15.4359
򸾺	-15.436
򸾴	-15.4361
򸾳	-15.4362
򶫻	-15.4363
򶨣	-15.4364
򳤡	-15.4365
򲻻	-15.4366
򲻸	-15.4367
򲻵	-15.4368
򱱶	-15.4369
򱱡	-15.437
򦣬	-15.4371
򣬼	-15.4372
򣬷	-15.4373
񿥷	-15.4374
񹦡	-15.4375
񷨣	-15.4376
񶾣	-15.4377
񱳡	-15.4378
񡣵	-15.4379
𻨣	-15.438
𵴣	-15.4381
	-15.4382
	-15.4383
	-15.4384
䷨	-15.4385
・	-15.4386
⹷	-15.4387
⶯	-15.4388
ᷢ	-15.4389
᳤	-15.439
Ტ	-15.4391
๥	-15.4392
෽	-15.4393
ͧ	-15.4394
󿪣	-15.4395
󾱣	-15.4396
󼲷	-15.4397
󻼡	-15.4398
󺣣	-15.4399
󷽵	-15.44
󰣬	-15.4401
󰡣	-15.4402
򿪷	-15.4403
򿪣	-15.4404
򵹡	-15.4405
򲻴	-15.4406
򡭡	-15.4407
񿪣	-15.4408
񴲣	-15.4409
񲻿	-15.441
񱼡	-15.4411
񣬳	-15.4412
𷨣	-15.4413
𵶣	-15.4414
𲽼	-15.4415
𲻳	-15.4416
	-15.4417
	-15.4418
	-15.4419
	-15.442
	-15.4421
鿴	-15.4422
⴫	-15.4423
⧲	-15.4424
᷿	-15.4425
ࡱ	-15.4426
ࡰ	-15.4427
󽫾	-15.4428
󺹱	-15.4429
󶴣	-15.443
󰭡	-15.4431
󣡡	-15.4432
򸾶	-15.4433
򵽣	-15.4434
򲻶	-15.4435
򱱣	-15.4436
𴦣	-15.4437
𳤽	-15.4438
	-15.4439
	-15.444
⵹	-15.4441
๼	-15.4442
๦	-15.4443
඾	-15.4444
׭	-15.4445
®	-15.4446
󺹡	-15.4447
󷨵	-15.4448
󷨱	-15.4449
󲽣	-15.445
󲻶	-15.4451
󣿡	-15.4452
򶫱	-15.4453
򣬶	-15.4454
򡣹	-15.4455
񲻽	-15.4456
񡣻	-15.4457
񡣹	-15.4458
𾴣	-15.4459
	-15.446
	-15.4461
	-15.4462
󰭣	-15.4463
򣺡	-15.4464
򣬰	-15.4465
񼼣	-15.4466
񣬹	-15.4467
𶯣	-15.4468
	-15.4469
	-15.447
󺹣	-15.4471
	-15.4472
	-15.4473
⵽	-15.4474
ᷳ	-15.4475
ࡡ	-15.4476
̦	-15.4477
󺺵	-15.4478
󹦣	-15.4479
񹦣	-15.448
䷿	-15.4481
ͤ	-15.4482
͢	-15.4483
󼱣	-15.4484
񣬸	-15.4485
񣬶	-15.4486
	-15.4487
䶼	-15.4488
໤	-15.4489
򣬸	-15.449
򣬲	-15.4491
񣬺	-15.4492
𻰡	-15.4493
࿴	-15.4494
̩	-15.4495
󷨡	-15.4496
񱼣	-15.4497
«	-15.4498
󺧣	-15.4499
󵨣	-15.45
󣬳	-15.4501
򣬱	-15.4502
񲻶	-15.4503
񲣬	-15.4504
񣬱	-15.4505
񣡡	-15.4506
	-15.4507
	-15.4508
⸱	-15.4509
⵶	-15.451
򵹣	-15.4511
򣡡	-15.4512
	-15.4513
ꣿ	-15.4514
򣿡	-15.4515
򣬾	-15.4516
񣿡	-15.4517
	-15.4518
	-15.4519
䶾	-15.452
⵱	-15.4521
򸾡	-15.4522
񶷣	-15.4523
	-15.4524
ͥ	-15.4525
󣬼	-15.4526
󣬸	-15.4527
򲻿	-15.4528
񣬽	-15.4529
	-15.453
⬼	-15.4531
᣿	-15.4532
󣬾	-15.4533
	-15.4534
޸	-15.4535
񣬾	-15.4536
」	-15.4537
ࡢ	-15.4538
󣬴	-15.4539
𻰣	-15.454
૵	-15.4541
'	-15.4542
󣬽	-15.4543
󣬱	-15.4544
	-15.4545
	-15.4546
˥	-15.4547
󷨣	-15.4548
󣬶	-15.4549
󡹦	-15.455
󡣡	-15.4551
򸾣	-15.4552
񣬲	-15.4553
	-15.4554
	-15.4555
򲻹	-15.4556
	-15.4557
̄	-15.4558
򣬵	-15.4559
	-15.456
⹦	-15.4561
	-15.4562
ˬ	-15.4563
񡣡	-15.4564
󣬲	-15.4565
	-15.4566
󣬵	-15.4567
򡣡	-15.4568
񣬵	-15.4569
޾	-15.457
⹫	-15.4571
ʻ	-15.4572
࿹	-15.4573
̬	-15.4574
	-15.4575
̰	-15.4576
	-15.4577
޻	-15.4578
׾	-15.4579
໥	-15.458
׺	-15.4581
̻	-15.4582
󾪣	-15.4583
̴	-15.4584
޼	-15.4585
	-15.4586
¥	-15.4587
ۇ	-15.4588
»	-15.4589
	-15.459
޳	-15.4591
͡	-15.4592
޹	-15.4593
±	-15.4594
;	-15.4595
°	-15.4596
̡	-15.4597
޶	-15.4598
򹷰	-15.4599
޲	-15.46
ͅ	-15.4601
̽	-15.4602
J	-15.4603
ͯ	-15.4604
𴦻	-15.4605
	-15.4606
˱	-15.4607
́	-15.4608
̣	-15.4609
Z	-15.461
ͬ	-15.4611
z	-15.4612
⁄	-15.4613
ͨ	-15.4614
£	-15.4615
